{
  "<pad>": 0,
  "<unk>": 1,
  "<s>": 2,
  "</s>": 3,
  "mH": 4,
  "m": 5,
  "mj": 6,
  "tt": 7,
  "SAa": 8,
  "pA": 9,
  "wD": 10,
  "rs": 11,
  "j": 12,
  "jmn": 13,
  "tj": 14,
  "jri": 15,
  "w": 16,
  "n": 17,
  "jtr": 18,
  "xr": 19,
  "jr": 20,
  "Xnw": 21,
  "Dw": 22,
  "jAb": 23,
  "jw": 24,
  "s": 25,
  "jt": 26,
  "raw": 27,
  "Hr": 28,
  "Ax": 29,
  "Hai": 30,
  "t": 31,
  "rn": 32,
  "f": 33,
  "Sw": 34,
  "jtn": 35,
  "pl": 36,
  "xAs": 37,
  "sx": 38,
  "mAw": 39,
  "StA": 40,
  "x": 41,
  "nb": 42,
  "pAy": 43,
  "sxpr": 44,
  "sn": 45,
  "r": 46,
  "nHH": 47,
  "D": 48,
  "bn": 49,
  "wsf": 50,
  "pAj": 51,
  "anx": 52,
  "mn": 53,
  "jnr": 54,
  "p": 55,
  "A": 56,
  "tAS": 57,
  "ftt": 58,
  "tw": 59,
  "jai": 60,
  "krp": 61,
  "yw": 62,
  "HjHj": 63,
  "wHm": 64,
  "rnp": 65,
  "zp": 66,
  "tp": 67,
  "pr": 68,
  "aA": 69,
  "DA": 70,
  "aHa": 71,
  "xai": 72,
  "wrr": 73,
  "Dam": 74,
  "ptr": 75,
  "nA": 76,
  "smn": 77,
  "Htp": 78,
  "Di": 79,
  "nzw": 80,
  "jA": 81,
  "k": 82,
  "HqA": 83,
  "jtj": 84,
  "jy": 85,
  "kA": 86,
  "wr": 87,
  "mA": 88,
  "HA": 89,
  "mri": 90,
  "y": 91,
  "mAa": 92,
  "xrw": 93,
  "aq": 94,
  "pri": 95,
  "Hw": 96,
  "mAA": 97,
  "stw": 98,
  "wbn": 99,
  "jwf": 100,
  "Ha": 101,
  "ssn": 102,
  "TAw": 103,
  "nDm": 104,
  "yt": 105,
  "Hz": 106,
  "tA": 107,
  "du": 108,
  "TA": 109,
  "xw": 110,
  "wnm": 111,
  "zA": 112,
  "sanx": 113,
  "a": 114,
  "maH": 115,
  "wn": 116,
  "pD": 117,
  "jm": 118,
  "rA": 119,
  "ssm": 120,
  "nTr": 121,
  "tjy": 122,
  "snTr": 123,
  "xaa": 124,
  "nfr": 125,
  "xpr": 126,
  "wa": 127,
  "xa": 128,
  "rDi": 129,
  "jn": 130,
  "xtm": 131,
  "bjt": 132,
  "tkn": 133,
  "smr": 134,
  "zXA": 135,
  "rw": 136,
  "jaH": 137,
  "ms": 138,
  "jmAx": 139,
  "Xr": 140,
  "bAk": 141,
  "xnt": 142,
  "swn": 143,
  "pnTw": 144,
  "Dd": 145,
  "qbH": 146,
  "st": 147,
  "HAb": 148,
  "sd": 149,
  "Snn": 150,
  "dwA": 151,
  "pa": 152,
  "jb": 153,
  "aH": 154,
  "nswt": 155,
  "h": 156,
  "nD": 157,
  "jtm": 158,
  "Xnm": 159,
  "gs": 160,
  "tjt": 161,
  "mSr": 162,
  "sxm": 163,
  "nn": 164,
  "q": 165,
  "sAH": 166,
  "sk": 167,
  "HAtj": 168,
  "Snj": 169,
  "hAi": 170,
  "X": 171,
  "mw": 172,
  "nw": 173,
  "wt": 174,
  "nnj": 175,
  "hn": 176,
  "jwpl": 177,
  "dA": 178,
  "H": 179,
  "aa": 180,
  "nmt": 181,
  "tm": 182,
  "jj": 183,
  "mAnw": 184,
  "Szp": 185,
  "Hm": 186,
  "mjni": 187,
  "sf": 188,
  "sAb": 189,
  "sxr": 190,
  "xft": 191,
  "stA": 192,
  "bA": 193,
  "wA": 194,
  "Dsr": 195,
  "sHD": 196,
  "sDm": 197,
  "njs": 198,
  "DbA": 199,
  "sTz": 200,
  "snm": 201,
  "Hwn": 202,
  "fnD": 203,
  "Tnj": 204,
  "Sps": 205,
  "sHtm": 206,
  "srf": 207,
  "mAwi": 208,
  "sSm": 209,
  "ab": 210,
  "jgr": 211,
  "spr": 212,
  "pwy": 213,
  "hr": 214,
  "pwj": 215,
  "sTi": 216,
  "Ab": 217,
  "b": 218,
  "xt": 219,
  "aqA": 220,
  "mr": 221,
  "smx": 222,
  "rwD": 223,
  "js": 224,
  "dm": 225,
  "kn": 226,
  "qn": 227,
  "Aw": 228,
  "mDA": 229,
  "snb": 230,
  "jmi": 231,
  "sw": 232,
  "qd": 233,
  "HH": 234,
  "DAm": 235,
  "bnbn": 236,
  "gm": 237,
  "dhn": 238,
  "jp": 239,
  "HyA": 240,
  "yA": 241,
  "dh": 242,
  "sr": 243,
  "mg": 244,
  "HD": 245,
  "Hzw": 246,
  "Hn": 247,
  "Sma": 248,
  "mrw": 249,
  "wab": 250,
  "wj": 251,
  "msi": 252,
  "mk": 253,
  "Sm": 254,
  "xnd": 255,
  "qrs": 256,
  "jAw": 257,
  "rd": 258,
  "sbA": 259,
  "Ds": 260,
  "Srj": 261,
  "ti": 262,
  "wsy": 263,
  "jwn": 264,
  "nmH": 265,
  "DD": 266,
  "Abd": 267,
  "bj": 268,
  "wAs": 269,
  "hrw": 270,
  "pn": 271,
  "mnj": 272,
  "jH": 273,
  "mss": 274,
  "S": 275,
  "pw": 276,
  "jnk": 277,
  "Hmsi": 278,
  "Ay": 279,
  "pH": 280,
  "T": 281,
  "sA": 282,
  "tjw": 283,
  "Sdi": 284,
  "Dr": 285,
  "wDA": 286,
  "snH": 287,
  "gbA": 288,
  "jd": 289,
  "Sna": 290,
  "bHz": 291,
  "dbn": 292,
  "dmD": 293,
  "arq": 294,
  "Htm": 295,
  "nAy": 296,
  "Htr": 297,
  "wAH": 298,
  "Smm": 299,
  "mdw": 300,
  "qnb": 301,
  "jrw": 302,
  "jpj": 303,
  "Hsb": 304,
  "mtr": 305,
  "apr": 306,
  "AmjA": 307,
  "sDr": 308,
  "baH": 309,
  "jaa": 310,
  "qnj": 311,
  "ssAi": 312,
  "aSA": 313,
  "Hapj": 314,
  "Hwi": 315,
  "ra": 316,
  "km": 317,
  "nbw": 318,
  "Sa": 319,
  "wDb": 320,
  "nhm": 321,
  "wsr": 322,
  "Smi": 323,
  "zmA": 324,
  "spA": 325,
  "zn": 326,
  "bAH": 327,
  "mrr": 328,
  "sms": 329,
  "twt": 330,
  "nrw": 331,
  "wjA": 332,
  "ty": 333,
  "zSp": 334,
  "Hkn": 335,
  "ns": 336,
  "qmA": 337,
  "qni": 338,
  "hy": 339,
  "nprj": 340,
  "THn": 341,
  "rx": 342,
  "Tz": 343,
  "HkA": 344,
  "sAx": 345,
  "hru": 346,
  "nt": 347,
  "nxt": 348,
  "wTz": 349,
  "an": 350,
  "rS": 351,
  "Hsw": 352,
  "Haa": 353,
  "jAm": 354,
  "psS": 355,
  "aAb": 356,
  "jwA": 357,
  "wnD": 358,
  "wpl": 359,
  "Apd": 360,
  "jrp": 361,
  "dqr": 362,
  "snti": 363,
  "Xrd": 364,
  "tAy": 365,
  "aDA": 366,
  "ntf": 367,
  "sni": 368,
  "aqw": 369,
  "Swy": 370,
  "Hy": 371,
  "swjA": 372,
  "nHsj": 373,
  "twy": 374,
  "mHy": 375,
  "mjnj": 376,
  "HAy": 377,
  "dAj": 378,
  "sD": 379,
  "sSr": 380,
  "XAr": 381,
  "aw": 382,
  "nDs": 383,
  "Hnw": 384,
  "mry": 385,
  "rmT": 386,
  "stX": 387,
  "TwTw": 388,
  "gbb": 389,
  "rnpi": 390,
  "wbA": 391,
  "xb": 392,
  "Hwy": 393,
  "SA": 394,
  "srwD": 395,
  "saH": 396,
  "Sms": 397,
  "tr": 398,
  "Abb": 399,
  "wAD": 400,
  "xAa": 401,
  "DAw": 402,
  "ntk": 403,
  "jhhy": 404,
  "grH": 405,
  "Ddf": 406,
  "Sp": 407,
  "psd": 408,
  "sjA": 409,
  "tpH": 410,
  "xnj": 411,
  "swt": 412,
  "hmhm": 413,
  "nxb": 414,
  "Tnn": 415,
  "jSd": 416,
  "gmi": 417,
  "Hs": 418,
  "xd": 419,
  "xA": 420,
  "jwd": 421,
  "tAj": 422,
  "qA": 423,
  "AH": 424,
  "dmj": 425,
  "mnmn": 426,
  "qD": 427,
  "wHwH": 428,
  "smAwi": 429,
  "swH": 430,
  "wb": 431,
  "wbx": 432,
  "stjw": 433,
  "Hpt": 434,
  "ssA": 435,
  "i": 436,
  "sSd": 437,
  "twrj": 438,
  "smAa": 439,
  "pzn": 440,
  "ds": 441,
  "sm": 442,
  "xrS": 443,
  "Hnq": 444,
  "pAq": 445,
  "ptH": 446,
  "my": 447,
  "jmm": 448,
  "Tnr": 449,
  "jx": 450,
  "saAi": 451,
  "Sny": 452,
  "tpl": 453,
  "xwi": 454,
  "wsjr": 455,
  "jnD": 456,
  "DHw": 457,
  "xmn": 458,
  "Hzr": 459,
  "DfA": 460,
  "wsj": 461,
  "ai": 462,
  "sry": 463,
  "swtj": 464,
  "fA": 465,
  "hrr": 466,
  "xnr": 467,
  "sHtp": 468,
  "wrry": 469,
  "snTi": 470,
  "Sn": 471,
  "THH": 472,
  "xrp": 473,
  "jni": 474,
  "mnf": 475,
  "Abi": 476,
  "bw": 477,
  "d": 478,
  "sj": 479,
  "dbH": 480,
  "dq": 481,
  "xn": 482,
  "kfi": 483,
  "nkt": 484,
  "jhy": 485,
  "wSb": 486,
  "jz": 487,
  "hAw": 488,
  "sSmi": 489,
  "ky": 490,
  "wpw": 491,
  "mnx": 492,
  "mrj": 493,
  "am": 494,
  "sT": 495,
  "psD": 496,
  "fAi": 497,
  "sDd": 498,
  "sbtj": 499,
  "sxA": 500,
  "Hmw": 501,
  "sAi": 502,
  "nts": 503,
  "mtw": 504,
  "bnr": 505,
  "Hna": 506,
  "Haj": 507,
  "Tni": 508,
  "jmnt": 509,
  "bjn": 510,
  "ws": 511,
  "wsx": 512,
  "gHs": 513,
  "njA": 514,
  "rr": 515,
  "wp": 516,
  "wdn": 517,
  "Awi": 518,
  "mjt": 519,
  "Hb": 520,
  "swtwt": 521,
  "swA": 522,
  "xnti": 523,
  "ni": 524,
  "fr": 525,
  "mtn": 526,
  "kjA": 527,
  "rD": 528,
  "ytpl": 529,
  "kwj": 530,
  "ypl": 531,
  "TAy": 532,
  "AT": 533,
  "mSa": 534,
  "gr": 535,
  "wnn": 536,
  "sxti": 537,
  "nm": 538,
  "jwi": 539,
  "wni": 540,
  "Tzi": 541,
  "xntS": 542,
  "rwd": 543,
  "jqr": 544,
  "Sr": 545,
  "mnw": 546,
  "pzd": 547,
  "jry": 548,
  "njnj": 549,
  "nmj": 550,
  "nxA": 551,
  "ski": 552,
  "tHn": 553,
  "nan": 554,
  "twk": 555,
  "nk": 556,
  "wai": 557,
  "jTi": 558,
  "sSA": 559,
  "smd": 560,
  "sTA": 561,
  "Twt": 562,
  "z": 563,
  "bwi": 564,
  "grg": 565,
  "qb": 566,
  "rxy": 567,
  "bjA": 568,
  "HApj": 569,
  "dj": 570,
  "tnw": 571,
  "xAi": 572,
  "ym": 573,
  "rxt": 574,
  "mxA": 575,
  "DrDr": 576,
  "sSS": 577,
  "mna": 578,
  "Sd": 579,
  "Xkr": 580,
  "rnn": 581,
  "mh": 582,
  "srm": 583,
  "zf": 584,
  "zw": 585,
  "qrH": 586,
  "tn": 587,
  "xAw": 588,
  "bHd": 589,
  "ps": 590,
  "qAw": 591,
  "jrT": 592,
  "hnw": 593,
  "abA": 594,
  "Hzmn": 595,
  "Tnm": 596,
  "gn": 597,
  "nms": 598,
  "dnj": 599,
  "jnH": 600,
  "ani": 601,
  "nh": 602,
  "yn": 603,
  "Sni": 604,
  "prT": 605,
  "nH": 606,
  "gAy": 607,
  "Hbs": 608,
  "Sty": 609,
  "nf": 610,
  "mjA": 611,
  "tjA": 612,
  "jHj": 613,
  "jTw": 614,
  "jrr": 615,
  "qAi": 616,
  "DAi": 617,
  "hAy": 618,
  "hni": 619,
  "AbDw": 620,
  "zkr": 621,
  "STy": 622,
  "wy": 623,
  "sb": 624,
  "ydu": 625,
  "qAs": 626,
  "Hsq": 627,
  "TAz": 628,
  "msk": 629,
  "sy": 630,
  "swD": 631,
  "jAx": 632,
  "Snb": 633,
  "stp": 634,
  "Smaw": 635,
  "ry": 636,
  "atx": 637,
  "jrt": 638,
  "Ttf": 639,
  "jpy": 640,
  "xpS": 641,
  "jst": 642,
  "kAy": 643,
  "kAi": 644,
  "bSt": 645,
  "nHs": 646,
  "nHm": 647,
  "twti": 648,
  "THHw": 649,
  "smA": 650,
  "Sns": 651,
  "ASr": 652,
  "Hzy": 653,
  "wdH": 654,
  "xay": 655,
  "awa": 656,
  "xx": 657,
  "bd": 658,
  "wAi": 659,
  "Hrw": 660,
  "nj": 661,
  "njw": 662,
  "Swi": 663,
  "swAD": 664,
  "mAn": 665,
  "Hfn": 666,
  "Hwsw": 667,
  "wrD": 668,
  "kb": 669,
  "sXkr": 670,
  "sTj": 671,
  "sDfA": 672,
  "mrrw": 673,
  "bq": 674,
  "ssnb": 675,
  "tdu": 676,
  "xnn": 677,
  "nma": 678,
  "wtt": 679,
  "sbdS": 680,
  "Say": 681,
  "Snf": 682,
  "rm": 683,
  "dy": 684,
  "nxn": 685,
  "snfr": 686,
  "fqA": 687,
  "wdd": 688,
  "zAhl": 689,
  "zxA": 690,
  "prr": 691,
  "xf": 692,
  "mar": 693,
  "XA": 694,
  "Hj": 695,
  "Hss": 696,
  "mard": 697,
  "Snw": 698,
  "plt": 699,
  "tjj": 700,
  "sStA": 701,
  "kS": 702,
  "mz": 703,
  "jsb": 704,
  "swab": 705,
  "rk": 706,
  "xmt": 707,
  "jfdi": 708,
  "jhm": 709,
  "ant": 710,
  "ngA": 711,
  "xm": 712,
  "fnd": 713,
  "msw": 714,
  "jstw": 715,
  "TmA": 716,
  "tni": 717,
  "pAw": 718,
  "jnb": 719,
  "msT": 720,
  "dr": 721,
  "jsf": 722,
  "Abw": 723,
  "jdHw": 724,
  "mrH": 725,
  "jAA": 726,
  "kT": 727,
  "jwnn": 728,
  "zni": 729,
  "mkHA": 730,
  "snmH": 731,
  "rsj": 732,
  "fn": 733,
  "swAi": 734,
  "jdb": 735,
  "dSr": 736,
  "wAwA": 737,
  "zH": 738,
  "Dar": 739,
  "bsi": 740,
  "saSA": 741,
  "Hmt": 742,
  "HAq": 743,
  "xsbd": 744,
  "mfk": 745,
  "pq": 746,
  "qmy": 747,
  "aD": 748,
  "xbA": 749,
  "mki": 750,
  "jty": 751,
  "Ti": 752,
  "Hmu": 753,
  "sjAA": 754,
  "hp": 755,
  "Sb": 756,
  "saA": 757,
  "sxnt": 758,
  "sqA": 759,
  "Spsj": 760,
  "aAi": 761,
  "wafw": 762,
  "kk": 763,
  "mAj": 764,
  "rwrw": 765,
  "psH": 766,
  "HAw": 767,
  "sgr": 768,
  "rwi": 769,
  "Hnmm": 770,
  "wnx": 771,
  "AxAx": 772,
  "sS": 773,
  "dnH": 774,
  "tfi": 775,
  "mAy": 776,
  "sgrH": 777,
  "wpi": 778,
  "md": 779,
  "jnm": 780,
  "stni": 781,
  "Sf": 782,
  "smnx": 783,
  "sqbH": 784,
  "hh": 785,
  "dp": 786,
  "Xn": 787,
  "tnr": 788,
  "jSr": 789,
  "nsw": 790,
  "gb": 791,
  "Ddi": 792,
  "snD": 793,
  "jnp": 794,
  "sTHn": 795,
  "xkr": 796,
  "jTwTw": 797,
  "nwA": 798,
  "Tnf": 799,
  "wDfi": 800,
  "aS": 801,
  "jbpl": 802,
  "Hzz": 803,
  "nbpl": 804,
  "nsyt": 805,
  "jwnw": 806,
  "thm": 807,
  "wtj": 808,
  "bH": 809,
  "Sad": 810,
  "St": 811,
  "twr": 812,
  "jten": 813,
  "Hrr": 814,
  "srd": 815,
  "tx": 816,
  "Tbhn": 817,
  "TH": 818,
  "kAS": 819,
  "jsw": 820,
  "jdn": 821,
  "trj": 822,
  "wrd": 823,
  "snT": 824,
  "sbH": 825,
  "jwtj": 826,
  "xnm": 827,
  "mD": 828,
  "bb": 829,
  "mtj": 830,
  "awn": 831,
  "nHi": 832,
  "pj": 833,
  "qAy": 834,
  "Spss": 835,
  "npr": 836,
  "wtx": 837,
  "HzA": 838,
  "nsr": 839,
  "fkw": 840,
  "zj": 841,
  "sX": 842,
  "sbk": 843,
  "bnj": 844,
  "af": 845,
  "zAb": 846,
  "Ty": 847,
  "Drw": 848,
  "kAw": 849,
  "jwa": 850,
  "SSj": 851,
  "xpd": 852,
  "kAf": 853,
  "SAs": 854,
  "hATs": 855,
  "jmw": 856,
  "kfA": 857,
  "bs": 858,
  "jnn": 859,
  "wny": 860,
  "mTn": 861,
  "waH": 862,
  "nbs": 863,
  "pt": 864,
  "Tnw": 865,
  "Ddj": 866,
  "kAkAj": 867,
  "arr": 868,
  "nHp": 869,
  "spw": 870,
  "xntj": 871,
  "zfnw": 872,
  "sjp": 873,
  "Tzmy": 874,
  "sH": 875,
  "sp": 876,
  "wDa": 877,
  "tfn": 878,
  "Hzmny": 879,
  "sxpi": 880,
  "jrj": 881,
  "pfs": 882,
  "qAH": 883,
  "HnbAbA": 884,
  "annw": 885,
  "dDw": 886,
  "zS": 887,
  "zwn": 888,
  "jzj": 889,
  "ag": 890,
  "bjtj": 891,
  "jaA": 892,
  "TpH": 893,
  "szf": 894,
  "ww": 895,
  "bS": 896,
  "pz": 897,
  "wd": 898,
  "HT": 899,
  "ann": 900,
  "xAD": 901,
  "Hrj": 902,
  "nst": 903,
  "wHa": 904,
  "jS": 905,
  "jHA": 906,
  "kAj": 907,
  "anw": 908,
  "znb": 909,
  "Hp": 910,
  "sSt": 911,
  "afD": 912,
  "bHt": 913,
  "mxw": 914,
  "prw": 915,
  "HTt": 916,
  "sSp": 917,
  "gw": 918,
  "wf": 919,
  "wAS": 920,
  "xwy": 921,
  "hpj": 922,
  "jHy": 923,
  "nbAbA": 924,
  "jzzj": 925,
  "Smw": 926,
  "bjk": 927,
  "jxr": 928,
  "TAm": 929,
  "bgs": 930,
  "nxx": 931,
  "di": 932,
  "g": 933,
  "nx": 934,
  "Dba": 935,
  "njt": 936,
  "SmA": 937,
  "hAA": 938,
  "dn": 939,
  "hA": 940,
  "kAkA": 941,
  "nDf": 942,
  "mt": 943,
  "sxt": 944,
  "jsTwy": 945,
  "Tjm": 946,
  "sz": 947,
  "HAt": 948,
  "Tmj": 949,
  "TwA": 950,
  "xwn": 951,
  "xwj": 952,
  "wrS": 953,
  "Hwt": 954,
  "Axt": 955,
  "xaj": 956,
  "nHA": 957,
  "tH": 958,
  "xAd": 959,
  "zt": 960,
  "wAm": 961,
  "ss": 962,
  "pxA": 963,
  "shru": 964,
  "aAA": 965,
  "Srr": 966,
  "jwt": 967,
  "HmA": 968,
  "sAbw": 969,
  "sxsf": 970,
  "wnjs": 971,
  "jdw": 972,
  "mAat": 973,
  "mST": 974,
  "aX": 975,
  "xmi": 976,
  "twn": 977,
  "Ama": 978,
  "Dfa": 979,
  "AkAj": 980,
  "nxtj": 981,
  "jnxj": 982,
  "jhbw": 983,
  "mnm": 984,
  "nmnm": 985,
  "wS": 986,
  "pd": 987,
  "ny": 988,
  "nfrt": 989,
  "zwA": 990,
  "HAd": 991,
  "SAT": 992,
  "mnzA": 993,
  "mx": 994,
  "pS": 995,
  "mjz": 996,
  "As": 997,
  "pXr": 998,
  "SS": 999,
  "Ttw": 1000,
  "jmmj": 1001,
  "swa": 1002,
  "ftk": 1003,
  "psDn": 1004,
  "sHA": 1005,
  "kAp": 1006,
  "zAT": 1007,
  "Dwj": 1008,
  "nSD": 1009,
  "nT": 1010,
  "na": 1011,
  "mnD": 1012,
  "Dnj": 1013,
  "xp": 1014,
  "jnpw": 1015,
  "pnj": 1016,
  "DHwtj": 1017,
  "Dn": 1018,
  "jAz": 1019,
  "DHA": 1020,
  "tbA": 1021,
  "dHr": 1022,
  "qfdr": 1023,
  "nbb": 1024,
  "wSt": 1025,
  "wrt": 1026,
  "pSn": 1027,
  "Db": 1028,
  "dwDw": 1029,
  "sxp": 1030,
  "HTA": 1031,
  "HAtw": 1032,
  "tbsTA": 1033,
  "jnDw": 1034,
  "snaa": 1035,
  "px": 1036,
  "Hrt": 1037,
  "Dab": 1038,
  "jmj": 1039,
  "THr": 1040,
  "zxn": 1041,
  "Tn": 1042,
  "Sdd": 1043,
  "ar": 1044,
  "aHA": 1045,
  "SnD": 1046,
  "SaT": 1047,
  "jar": 1048,
  "ja": 1049,
  "prt": 1050,
  "ba": 1051,
  "Ht": 1052,
  "mHa": 1053,
  "zb": 1054,
  "nnt": 1055,
  "knj": 1056,
  "DAn": 1057,
  "sAr": 1058,
  "aj": 1059,
  "anD": 1060,
  "Df": 1061,
  "spd": 1062,
  "abnx": 1063,
  "Xrj": 1064,
  "Tzz": 1065,
  "tkAt": 1066,
  "Hnkt": 1067,
  "mrrj": 1068,
  "TTw": 1069,
  "nbj": 1070,
  "Ai": 1071,
  "whn": 1072,
  "fj": 1073,
  "sfA": 1074,
  "anq": 1075,
  "xwjt": 1076,
  "tkA": 1077,
  "Hnk": 1078,
  "Ad": 1079,
  "jbA": 1080,
  "Dt": 1081,
  "twA": 1082,
  "pf": 1083,
  "sxpp": 1084,
  "dmA": 1085,
  "mjnb": 1086,
  "mndm": 1087,
  "SsA": 1088,
  "ay": 1089,
  "zft": 1090,
  "Sat": 1091,
  "sTzi": 1092,
  "sDA": 1093,
  "Hzj": 1094,
  "rf": 1095,
  "wx": 1096,
  "nHa": 1097,
  "wdi": 1098,
  "Tntj": 1099,
  "sxs": 1100,
  "zAw": 1101,
  "dd": 1102,
  "ssDm": 1103,
  "nHb": 1104,
  "xns": 1105,
  "bbj": 1106,
  "py": 1107,
  "nfrw": 1108,
  "xzA": 1109,
  "wrm": 1110,
  "xdp": 1111,
  "dg": 1112,
  "mDd": 1113,
  "jkw": 1114,
  "Xaq": 1115,
  "th": 1116,
  "iHy": 1117,
  "Tnnj": 1118,
  "Tmzj": 1119,
  "kt": 1120,
  "bAbA": 1121,
  "Snp": 1122,
  "Daa": 1123,
  "bSA": 1124,
  "Ts": 1125,
  "snDm": 1126,
  "mm": 1127,
  "jh": 1128,
  "hAd": 1129,
  "ntj": 1130,
  "war": 1131,
  "Hzi": 1132,
  "sAbj": 1133,
  "spH": 1134,
  "wk": 1135,
  "Htpw": 1136,
  "nq": 1137,
  "wAb": 1138,
  "pp": 1139,
  "nwH": 1140,
  "DHa": 1141,
  "subst": 1142,
  "mHwy": 1143,
  "rxjw": 1144,
  "Hms": 1145,
  "jnz": 1146,
  "xAwj": 1147,
  "nmtt": 1148,
  "Sddj": 1149,
  "ft": 1150,
  "Xnt": 1151,
  "tk": 1152,
  "qnn": 1153,
  "swDA": 1154,
  "jnt": 1155,
  "tbX": 1156,
  "HDn": 1157,
  "bAs": 1158,
  "qAb": 1159,
  "jrm": 1160,
  "nni": 1161,
  "kw": 1162,
  "Hdb": 1163,
  "mwt": 1164,
  "jTA": 1165,
  "njm": 1166,
  "jwnry": 1167,
  "Ss": 1168,
  "TAi": 1169,
  "wxA": 1170,
  "Dri": 1171,
  "jwnA": 1172,
  "Hap": 1173,
  "sDb": 1174,
  "DADA": 1175,
  "nhy": 1176,
  "mHw": 1177,
  "thi": 1178,
  "hAb": 1179,
  "nDr": 1180,
  "sAn": 1181,
  "tb": 1182,
  "str": 1183,
  "jAq": 1184,
  "nqa": 1185,
  "ksb": 1186,
  "SAj": 1187,
  "bAq": 1188,
  "gnn": 1189,
  "Try": 1190,
  "maA": 1191,
  "rj": 1192,
  "awDr": 1193,
  "aAy": 1194,
  "mSwS": 1195,
  "mjn": 1196,
  "mdwi": 1197,
  "TAry": 1198,
  "Dma": 1199,
  "Twrj": 1200,
  "snj": 1201,
  "Trw": 1202,
  "mskA": 1203,
  "Tr": 1204,
  "wxd": 1205,
  "snt": 1206,
  "mjam": 1207,
  "yar": 1208,
  "Aaa": 1209,
  "mDqt": 1210,
  "aDd": 1211,
  "xru": 1212,
  "Xnmt": 1213,
  "ray": 1214,
  "maHa": 1215,
  "sHn": 1216,
  "TtTt": 1217,
  "mdj": 1218,
  "nnw": 1219,
  "ksj": 1220,
  "djw": 1221,
  "mrkb": 1222,
  "wDi": 1223,
  "Srdn": 1224,
  "pna": 1225,
  "mi": 1226,
  "kr": 1227,
  "mntf": 1228,
  "HAp": 1229,
  "rSu": 1230,
  "skA": 1231,
  "rTm": 1232,
  "jpt": 1233,
  "dgA": 1234,
  "thn": 1235,
  "mnttn": 1236,
  "wxAx": 1237,
  "Hby": 1238,
  "jsq": 1239,
  "jqw": 1240,
  "btA": 1241,
  "smj": 1242,
  "sxn": 1243,
  "znn": 1244,
  "Hmn": 1245,
  "zwr": 1246,
  "rmi": 1247,
  "hd": 1248,
  "tS": 1249,
  "zAu": 1250,
  "dw": 1251,
  "rns": 1252,
  "ajn": 1253,
  "jbd": 1254,
  "jtH": 1255,
  "sAry": 1256,
  "sAwj": 1257,
  "Aa": 1258,
  "mhn": 1259,
  "sny": 1260,
  "smtr": 1261,
  "wnS": 1262,
  "Atp": 1263,
  "TmAm": 1264,
  "bjr": 1265,
  "stm": 1266,
  "msDr": 1267,
  "mntk": 1268,
  "jwr": 1269,
  "Xnk": 1270,
  "nbd": 1271,
  "txbs": 1272,
  "mnT": 1273,
  "DrD": 1274,
  "snh": 1275,
  "gS": 1276,
  "zxzx": 1277,
  "pHn": 1278,
  "wna": 1279,
  "qrt": 1280,
  "Htpj": 1281,
  "rAw": 1282,
  "san": 1283,
  "sgnn": 1284,
  "dwn": 1285,
  "xrj": 1286,
  "mnS": 1287,
  "nqd": 1288,
  "srrT": 1289,
  "qdy": 1290,
  "jrd": 1291,
  "knr": 1292,
  "sxw": 1293,
  "mnH": 1294,
  "arw": 1295,
  "wnw": 1296,
  "l": 1297,
  "cke": 1298,
  "mSA": 1299,
  "pyA": 1300,
  "add": 1301,
  "Drj": 1302,
  "AbAb": 1303,
  "kbs": 1304,
  "wnmj": 1305,
  "rjw": 1306,
  "wSAA": 1307,
  "saHa": 1308,
  "rwj": 1309,
  "dgs": 1310,
  "Sq": 1311,
  "xdi": 1312,
  "wskw": 1313,
  "ntt": 1314,
  "sSwi": 1315,
  "zbi": 1316,
  "gsr": 1317,
  "thA": 1318,
  "wdp": 1319,
  "arar": 1320,
  "Hrs": 1321,
  "jrx": 1322,
  "jsmr": 1323,
  "wjAwjA": 1324,
  "Aty": 1325,
  "kry": 1326,
  "bTA": 1327,
  "pAa": 1328,
  "Spt": 1329,
  "sti": 1330,
  "zm": 1331,
  "jSs": 1332,
  "nfy": 1333,
  "kAmn": 1334,
  "amA": 1335,
  "sbj": 1336,
  "qba": 1337,
  "Sfd": 1338,
  "Xt": 1339,
  "nny": 1340,
  "jxy": 1341,
  "mDAt": 1342,
  "DAD": 1343,
  "wnt": 1344,
  "jqd": 1345,
  "rwDt": 1346,
  "nTrj": 1347,
  "Trp": 1348,
  "srw": 1349,
  "ptx": 1350,
  "wgs": 1351,
  "sqr": 1352,
  "wgg": 1353,
  "srx": 1354,
  "ypwy": 1355,
  "Xdb": 1356,
  "antj": 1357,
  "gD": 1358,
  "krSt": 1359,
  "sty": 1360,
  "Sbn": 1361,
  "bg": 1362,
  "tpy": 1363,
  "abw": 1364,
  "mXt": 1365,
  "atrf": 1366,
  "qnqn": 1367,
  "jq": 1368,
  "mtwn": 1369,
  "twtn": 1370,
  "ri": 1371,
  "Srd": 1372,
  "HAD": 1373,
  "ks": 1374,
  "xsf": 1375,
  "wdf": 1376,
  "wDAA": 1377,
  "jwH": 1378,
  "jan": 1379,
  "Tw": 1380,
  "Htj": 1381,
  "qdb": 1382,
  "Tt": 1383,
  "jTt": 1384,
  "nbsy": 1385,
  "Sy": 1386,
  "aaf": 1387,
  "qsn": 1388,
  "Ag": 1389,
  "xy": 1390,
  "snfrw": 1391,
  "zbb": 1392,
  "gmm": 1393,
  "wg": 1394,
  "msD": 1395,
  "pzS": 1396,
  "Dry": 1397,
  "sdbH": 1398,
  "zty": 1399,
  "qmj": 1400,
  "tmH": 1401,
  "Ssy": 1402,
  "jzs": 1403,
  "xbs": 1404,
  "dHA": 1405,
  "afd": 1406,
  "jmpy": 1407,
  "bTy": 1408,
  "aAm": 1409,
  "btj": 1410,
  "snbj": 1411,
  "hbn": 1412,
  "nSw": 1413,
  "wAw": 1414,
  "bty": 1415,
  "gAw": 1416,
  "Htw": 1417,
  "jAkw": 1418,
  "dmy": 1419,
  "nktj": 1420,
  "jk": 1421,
  "jbj": 1422,
  "pnjAt": 1423,
  "Xni": 1424,
  "gAu": 1425,
  "wxr": 1426,
  "jkjjt": 1427,
  "jwtn": 1428,
  "naa": 1429,
  "jstn": 1430,
  "Stj": 1431,
  "tpnn": 1432,
  "mrHnn": 1433,
  "gsy": 1434,
  "bAg": 1435,
  "nrj": 1436,
  "qAr": 1437,
  "wDH": 1438,
  "snq": 1439,
  "rnj": 1440,
  "DH": 1441,
  "mntt": 1442,
  "jAd": 1443,
  "swgA": 1444,
  "mAwD": 1445,
  "sHq": 1446,
  "xAm": 1447,
  "tHt": 1448,
  "shA": 1449,
  "qaH": 1450,
  "SwA": 1451,
  "ttj": 1452,
  "hAj": 1453,
  "zAi": 1454,
  "Hqr": 1455,
  "bAX": 1456,
  "jnw": 1457,
  "may": 1458,
  "xAA": 1459,
  "qnd": 1460,
  "jkn": 1461,
  "nqr": 1462,
  "Aq": 1463,
  "wjn": 1464,
  "xnms": 1465,
  "Hbsw": 1466,
  "Hbsy": 1467,
  "qy": 1468,
  "Dbn": 1469,
  "xpSy": 1470,
  "swtx": 1471,
  "mAH": 1472,
  "jmny": 1473,
  "Tb": 1474,
  "Tbw": 1475,
  "msdm": 1476,
  "sdm": 1477,
  "TAb": 1478,
  "any": 1479,
  "bdydy": 1480,
  "plj": 1481,
  "jkrjt": 1482,
  "qwr": 1483,
  "qHqH": 1484,
  "ATi": 1485,
  "kAr": 1486,
  "pi": 1487,
  "ptj": 1488,
  "pAx": 1489,
  "zpr": 1490,
  "nwd": 1491,
  "bwbw": 1492,
  "Hty": 1493,
  "rwhA": 1494,
  "btw": 1495,
  "nhA": 1496,
  "kmrj": 1497,
  "Sz": 1498,
  "nr": 1499,
  "Sfnw": 1500,
  "znh": 1501,
  "mny": 1502,
  "ma": 1503,
  "DdH": 1504,
  "wtn": 1505,
  "sTn": 1506,
  "xnsw": 1507,
  "snr": 1508,
  "amAm": 1509,
  "nDnD": 1510,
  "nAj": 1511,
  "Sbi": 1512,
  "Hmi": 1513,
  "sTy": 1514,
  "SAb": 1515,
  "xwAsn": 1516,
  "nhw": 1517,
  "nmtj": 1518,
  "jpw": 1519,
  "smnj": 1520,
  "kms": 1521,
  "Aj": 1522,
  "hAkr": 1523,
  "wAg": 1524,
  "axi": 1525,
  "whi": 1526,
  "maw": 1527,
  "swr": 1528,
  "znH": 1529,
  "nhj": 1530,
  "mAmA": 1531,
  "pry": 1532,
  "Dprtj": 1533,
  "sqnn": 1534,
  "nwi": 1535,
  "bnw": 1536,
  "brj": 1537,
  "jmAA": 1538,
  "dng": 1539,
  "pwn": 1540,
  "sxmx": 1541,
  "nxAxA": 1542,
  "Xnn": 1543,
  "amam": 1544,
  "sAu": 1545,
  "snd": 1546,
  "jSst": 1547,
  "Haw": 1548,
  "kAt": 1549,
  "jkj": 1550,
  "gA": 1551,
  "sxi": 1552,
  "xAr": 1553,
  "wH": 1554,
  "Snt": 1555,
  "nDri": 1556,
  "wrSu": 1557,
  "ppw": 1558,
  "kAs": 1559,
  "dwdw": 1560,
  "jnj": 1561,
  "ktx": 1562,
  "mnt": 1563,
  "mjnw": 1564,
  "pjA": 1565,
  "rhn": 1566,
  "twjA": 1567,
  "qrD": 1568,
  "wHA": 1569,
  "gbbtw": 1570,
  "mnn": 1571,
  "jwy": 1572,
  "sart": 1573,
  "Any": 1574,
  "ATp": 1575,
  "mSp": 1576,
  "sjn": 1577,
  "mDH": 1578,
  "jsr": 1579,
  "hnn": 1580,
  "sfx": 1581,
  "rnsj": 1582,
  "kj": 1583,
  "Tp": 1584,
  "jbi": 1585,
  "rmn": 1586,
  "zxr": 1587,
  "tjmA": 1588,
  "snn": 1589,
  "mrkbt": 1590,
  "twtw": 1591,
  "dH": 1592,
  "rDy": 1593,
  "pAwj": 1594,
  "HAswsn": 1595,
  "gbw": 1596,
  "nhAj": 1597,
  "agn": 1598,
  "xnw": 1599,
  "sdb": 1600,
  "wAgj": 1601,
  "np": 1602,
  "wjwj": 1603,
  "jwpy": 1604,
  "sarq": 1605,
  "bnd": 1606,
  "rmnj": 1607,
  "tkkw": 1608,
  "wSd": 1609,
  "tkk": 1610,
  "wm": 1611,
  "dmd": 1612,
  "jnd": 1613,
  "mty": 1614,
  "jTj": 1615,
  "rxw": 1616,
  "mxr": 1617,
  "yy": 1618,
  "jwjw": 1619,
  "gmH": 1620,
  "ktty": 1621,
  "agA": 1622,
  "tnA": 1623,
  "DApr": 1624,
  "jDi": 1625,
  "snbw": 1626,
  "Sj": 1627,
  "xmnw": 1628,
  "rHb": 1629,
  "fAy": 1630,
  "spXr": 1631,
  "mnTw": 1632,
  "mXr": 1633,
  "saq": 1634,
  "At": 1635,
  "tra": 1636,
  "sAq": 1637,
  "dgS": 1638,
  "swhA": 1639,
  "Hpr": 1640,
  "qs": 1641,
  "tfy": 1642,
  "hj": 1643,
  "jntj": 1644,
  "bHsw": 1645,
  "kkj": 1646,
  "tmAa": 1647,
  "zr": 1648,
  "anxj": 1649,
  "maSr": 1650,
  "aXn": 1651,
  "ppy": 1652,
  "Swj": 1653,
  "TAu": 1654,
  "twhr": 1655,
  "jhpy": 1656,
  "btn": 1657,
  "tbw": 1658,
  "jHw": 1659,
  "jtjtj": 1660,
  "msd": 1661,
  "XtXt": 1662,
  "wrj": 1663,
  "bxn": 1664,
  "Sbd": 1665,
  "Sbtj": 1666,
  "znt": 1667,
  "kAm": 1668,
  "bT": 1669,
  "Twfj": 1670,
  "dAjw": 1671,
  "xmm": 1672,
  "bbw": 1673,
  "aAw": 1674,
  "xrt": 1675,
  "hbnw": 1676,
  "dsr": 1677,
  "wi": 1678,
  "xnp": 1679,
  "znbA": 1680,
  "qzn": 1681,
  "sbt": 1682,
  "qnbt": 1683,
  "wsrt": 1684,
  "qr": 1685,
  "Hnnw": 1686,
  "ddw": 1687,
  "ankkw": 1688,
  "xaw": 1689,
  "spdd": 1690,
  "aAaA": 1691,
  "sTp": 1692,
  "nxta": 1693,
  "Tzm": 1694,
  "masw": 1695,
  "agrtb": 1696,
  "mnq": 1697,
  "mstj": 1698,
  "qra": 1699,
  "mshrt": 1700,
  "xAy": 1701,
  "stXj": 1702,
  "mmj": 1703,
  "mjtrw": 1704,
  "SmAj": 1705,
  "wSr": 1706,
  "XAb": 1707,
  "Stm": 1708,
  "xbd": 1709,
  "qfn": 1710,
  "rt": 1711,
  "nwy": 1712,
  "smy": 1713,
  "Hnn": 1714,
  "wdA": 1715,
  "qdd": 1716,
  "Trjwy": 1717,
  "rjwy": 1718,
  "rH": 1719,
  "ztj": 1720,
  "Asq": 1721,
  "HfA": 1722,
  "jmbw": 1723,
  "nai": 1724,
  "msy": 1725,
  "sg": 1726,
  "HAfy": 1727,
  "zTA": 1728,
  "txtx": 1729,
  "nHr": 1730,
  "dbA": 1731,
  "rnT": 1732,
  "jfn": 1733,
  "ankk": 1734,
  "sXr": 1735,
  "aHaj": 1736,
  "tjms": 1737,
  "sbgs": 1738,
  "AA": 1739,
  "mS": 1740,
  "rmj": 1741,
  "jAy": 1742,
  "mabA": 1743,
  "sqn": 1744,
  "ru": 1745,
  "hnhn": 1746,
  "tSi": 1747,
  "Hatj": 1748,
  "qrf": 1749,
  "nby": 1750,
  "hjn": 1751,
  "sAw": 1752,
  "rAsx": 1753,
  "stn": 1754,
  "mHnk": 1755,
  "xAxA": 1756,
  "mnDm": 1757,
  "qrr": 1758,
  "sTni": 1759,
  "ktkt": 1760,
  "msn": 1761,
  "aAj": 1762,
  "wtw": 1763,
  "nS": 1764,
  "xrr": 1765,
  "gbi": 1766,
  "HqAt": 1767,
  "aby": 1768,
  "Hny": 1769,
  "gwA": 1770,
  "SnT": 1771,
  "tnj": 1772,
  "jbhy": 1773,
  "mTA": 1774,
  "waw": 1775,
  "pgA": 1776,
  "qrHt": 1777,
  "nmsy": 1778,
  "tzm": 1779,
  "Tzy": 1780,
  "Atj": 1781,
  "awA": 1782,
  "hi": 1783,
  "qq": 1784,
  "msDD": 1785,
  "sdf": 1786,
  "gAb": 1787,
  "hAr": 1788,
  "dgi": 1789,
  "xry": 1790,
  "jT": 1791,
  "SAy": 1792,
  "ha": 1793,
  "HAm": 1794,
  "jAdr": 1795,
  "pAqt": 1796,
  "qmAw": 1797,
  "kmA": 1798,
  "nqm": 1799,
  "ndm": 1800,
  "wfA": 1801,
  "snyj": 1802,
  "Tnt": 1803,
  "jTAj": 1804,
  "zhAi": 1805,
  "jdr": 1806,
  "DAr": 1807,
  "ntr": 1808,
  "Ati": 1809,
  "Tktn": 1810,
  "nAw": 1811,
  "tbn": 1812,
  "swAw": 1813,
  "sxz": 1814,
  "bnjA": 1815,
  "sxdy": 1816,
  "qnt": 1817,
  "sHwr": 1818,
  "zAt": 1819,
  "rdi": 1820,
  "sjnn": 1821,
  "Ajj": 1822,
  "sbky": 1823,
  "Smt": 1824,
  "qj": 1825,
  "swx": 1826,
  "Hwr": 1827,
  "by": 1828,
  "qrj": 1829,
  "swnwn": 1830,
  "Swb": 1831,
  "mgs": 1832,
  "xti": 1833,
  "db": 1834,
  "mann": 1835,
  "rau": 1836,
  "mdn": 1837,
  "ama": 1838,
  "wADwAD": 1839,
  "krHt": 1840,
  "swrj": 1841,
  "mjk": 1842,
  "ytw": 1843,
  "sjf": 1844,
  "jhby": 1845,
  "nDH": 1846,
  "jbH": 1847,
  "waf": 1848,
  "rq": 1849,
  "kfa": 1850,
  "Sfa": 1851,
  "nhrn": 1852,
  "pAxAty": 1853,
  "sngr": 1854,
  "kbn": 1855,
  "jrrx": 1856,
  "jrrpx": 1857,
  "txsj": 1858,
  "nXmH": 1859,
  "jqH": 1860,
  "tjsw": 1861,
  "bar": 1862,
  "Da": 1863,
  "jtA": 1864,
  "gbtw": 1865,
  "xni": 1866,
  "Drf": 1867,
  "tbtb": 1868,
  "sed": 1869,
  "Trj": 1870,
  "krj": 1871,
  "sbAqq": 1872,
  "sdx": 1873,
  "rp": 1874,
  "ATw": 1875,
  "wabw": 1876,
  "jzzy": 1877,
  "snx": 1878,
  "smAr": 1879,
  "ananxj": 1880,
  "AAj": 1881,
  "annxj": 1882,
  "tATnn": 1883,
  "kTn": 1884,
  "xtmw": 1885,
  "zXAw": 1886,
  "Xnmw": 1887,
  "smntw": 1888,
  "xwns": 1889,
  "nmw": 1890,
  "anxw": 1891,
  "aAmw": 1892,
  "jdj": 1893,
  "gaga": 1894,
  "xnmw": 1895,
  "Sdj": 1896,
  "aprw": 1897,
  "TAwt": 1898,
  "fkA": 1899,
  "wAd": 1900,
  "mHj": 1901,
  "jdy": 1902,
  "njsw": 1903,
  "Dj": 1904,
  "snw": 1905,
  "jdjj": 1906,
  "sTAw": 1907,
  "jaAw": 1908,
  "Hpj": 1909,
  "sAHw": 1910,
  "jjw": 1911,
  "tpj": 1912,
  "Hmwt": 1913,
  "TAzj": 1914,
  "jgA": 1915,
  "tnt": 1916,
  "HAbt": 1917,
  "anxy": 1918,
  "wDt": 1919,
  "zATw": 1920,
  "rrj": 1921,
  "jsk": 1922,
  "spt": 1923,
  "arf": 1924,
  "SpS": 1925,
  "pjpj": 1926,
  "jxj": 1927,
  "TTj": 1928,
  "rqy": 1929,
  "mDdw": 1930,
  "AS": 1931,
  "smsw": 1932,
  "mTnw": 1933,
  "mxwj": 1934,
  "xww": 1935,
  "bAw": 1936,
  "mrrt": 1937,
  "jmA": 1938,
  "mrt": 1939,
  "hAbt": 1940,
  "Hjpy": 1941,
  "xtw": 1942,
  "mfkA": 1943,
  "DAty": 1944,
  "zTw": 1945,
  "zzj": 1946,
  "nfrj": 1947,
  "Sftw": 1948,
  "mtf": 1949,
  "rDt": 1950,
  "Ddw": 1951,
  "jrtj": 1952,
  "anxt": 1953,
  "xAj": 1954,
  "mxj": 1955,
  "Hnt": 1956,
  "txf": 1957,
  "ptn": 1958,
  "Hmj": 1959,
  "sbAq": 1960,
  "jAxt": 1961,
  "hnj": 1962,
  "bhks": 1963,
  "Hnkw": 1964,
  "jHjj": 1965,
  "xny": 1966,
  "srj": 1967,
  "nHj": 1968,
  "bjtt": 1969,
  "jmAw": 1970,
  "Abdw": 1971,
  "SAf": 1972,
  "wADy": 1973,
  "Hzzj": 1974,
  "hAbw": 1975,
  "twAw": 1976,
  "xwzw": 1977,
  "wxdw": 1978,
  "jwnwj": 1979,
  "ji": 1980,
  "jmHj": 1981,
  "sanxy": 1982,
  "Tnnt": 1983,
  "ffj": 1984,
  "xmw": 1985,
  "Dy": 1986,
  "Hpy": 1987,
  "Spsw": 1988,
  "jmAxw": 1989,
  "gbj": 1990,
  "ht": 1991,
  "HaAw": 1992,
  "rDj": 1993,
  "xwfw": 1994,
  "rtH": 1995,
  "dAb": 1996,
  "wat": 1997,
  "bAwj": 1998,
  "Hq": 1999,
  "btq": 2000,
  "jAwi": 2001,
  "dbHn": 2002,
  "sfxw": 2003,
  "bnD": 2004,
  "xpi": 2005,
  "mSd": 2006,
  "Xkrt": 2007,
  "watt": 2008,
  "nbt": 2009,
  "dbHt": 2010,
  "sfT": 2011,
  "fT": 2012,
  "wSn": 2013,
  "srD": 2014,
  "htj": 2015,
  "Ttj": 2016,
  "nXnm": 2017,
  "xnf": 2018,
  "Hbnn": 2019,
  "qmH": 2020,
  "jdA": 2021,
  "nnSm": 2022,
  "zjf": 2023,
  "npA": 2024,
  "mzw": 2025,
  "sAD": 2026,
  "mjtr": 2027,
  "jSp": 2028,
  "xpp": 2029,
  "Hsi": 2030,
  "sq": 2031,
  "psi": 2032,
  "tjdwj": 2033,
  "nws": 2034,
  "xnz": 2035,
  "hbhb": 2036,
  "jzt": 2037,
  "zx": 2038,
  "abS": 2039,
  "aAt": 2040,
  "zT": 2041,
  "jmTj": 2042,
  "zX": 2043,
  "zSzSt": 2044,
  "bDA": 2045,
  "Saw": 2046,
  "zSzS": 2047,
  "mnqb": 2048,
  "Hww": 2049,
  "sDf": 2050,
  "jAg": 2051,
  "wAxi": 2052,
  "jkA": 2053,
  "knk": 2054,
  "mnxt": 2055,
  "qt": 2056,
  "nty": 2057,
  "knmw": 2058,
  "jttj": 2059,
  "mzt": 2060,
  "rkH": 2061,
  "ax": 2062,
  "mxn": 2063,
  "srq": 2064,
  "znHm": 2065,
  "bz": 2066,
  "HAtt": 2067,
  "THnw": 2068,
  "arfwj": 2069,
  "wADw": 2070,
  "msdmt": 2071,
  "qbHw": 2072,
  "TAwj": 2073,
  "Htpwj": 2074,
  "wsxt": 2075,
  "jaw": 2076,
  "Dwjw": 2077,
  "HTAwj": 2078,
  "nHrwj": 2079,
  "fAt": 2080,
  "nDmw": 2081,
  "mAtj": 2082,
  "txy": 2083,
  "qtAj": 2084,
  "zmy": 2085,
  "xpj": 2086,
  "sSmj": 2087,
  "nwD": 2088,
  "fnx": 2089,
  "ppj": 2090,
  "Hry": 2091,
  "qAj": 2092,
  "Xrt": 2093,
  "Daw": 2094,
  "wsi": 2095,
  "aHaw": 2096,
  "Hf": 2097,
  "qjs": 2098,
  "nbi": 2099,
  "mxrw": 2100,
  "dx": 2101,
  "jsj": 2102,
  "qrrj": 2103,
  "srs": 2104,
  "Az": 2105,
  "tpt": 2106,
  "Hts": 2107,
  "tjs": 2108,
  "jTn": 2109,
  "wpwt": 2110,
  "xAt": 2111,
  "qmHw": 2112,
  "xnfw": 2113,
  "jdAt": 2114,
  "sHpt": 2115,
  "ASrt": 2116,
  "Satj": 2117,
  "awj": 2118,
  "wdHw": 2119,
  "rAjs": 2120,
  "HAi": 2121,
  "sbx": 2122,
  "stS": 2123,
  "xAsw": 2124,
  "Hqt": 2125,
  "mzH": 2126,
  "mrry": 2127,
  "jqrj": 2128,
  "Atf": 2129,
  "Ar": 2130,
  "Tst": 2131,
  "Stw": 2132,
  "mAx": 2133,
  "nHrw": 2134,
  "tjmy": 2135,
  "jarw": 2136,
  "HDr": 2137,
  "jmntw": 2138,
  "DHwtt": 2139,
  "Tntt": 2140,
  "nXn": 2141,
  "xpt": 2142,
  "Axj": 2143,
  "Hst": 2144,
  "Xnj": 2145,
  "fsi": 2146,
  "pDw": 2147,
  "HrTs": 2148,
  "bwy": 2149,
  "tf": 2150,
  "Ssp": 2151,
  "Hab": 2152,
  "bzj": 2153,
  "whm": 2154,
  "znf": 2155,
  "jxxj": 2156,
  "Hnj": 2157,
  "nar": 2158,
  "snbb": 2159,
  "aDi": 2160,
  "SD": 2161,
  "pHts": 2162,
  "jdm": 2163,
  "nhwt": 2164,
  "SATw": 2165,
  "pDi": 2166,
  "jArr": 2167,
  "jttw": 2168,
  "wtT": 2169,
  "bnt": 2170,
  "hb": 2171,
  "jmt": 2172,
  "wADt": 2173,
  "agt": 2174,
  "sab": 2175,
  "Tmrw": 2176,
  "jSf": 2177,
  "Tj": 2178,
  "jmntt": 2179,
  "jmAxwt": 2180,
  "wrSt": 2181,
  "jAbt": 2182,
  "DiDi": 2183,
  "tyt": 2184,
  "anDw": 2185,
  "hbu": 2186,
  "jby": 2187,
  "Tjs": 2188,
  "bnn": 2189,
  "swd": 2190,
  "Azx": 2191,
  "Axi": 2192,
  "fx": 2193,
  "Ddd": 2194,
  "kAnw": 2195,
  "Hnnj": 2196,
  "wrH": 2197,
  "sSn": 2198,
  "rmt": 2199,
  "Spsi": 2200,
  "sqfn": 2201,
  "sHjH": 2202,
  "spHt": 2203,
  "amaA": 2204,
  "smgw": 2205,
  "wAr": 2206,
  "jAD": 2207,
  "jab": 2208,
  "mfx": 2209,
  "jAxi": 2210,
  "zk": 2211,
  "Hknw": 2212,
  "SAd": 2213,
  "sbnw": 2214,
  "jSt": 2215,
  "zbj": 2216,
  "bD": 2217,
  "AbD": 2218,
  "nnS": 2219,
  "znw": 2220,
  "pSr": 2221,
  "npAt": 2222,
  "Dsrt": 2223,
  "sxpt": 2224,
  "sXt": 2225,
  "agwt": 2226,
  "bAbAwt": 2227,
  "gsw": 2228,
  "jdt": 2229,
  "jAtt": 2230,
  "Htpt": 2231,
  "mDt": 2232,
  "wADj": 2233,
  "sbS": 2234,
  "zfT": 2235,
  "AHt": 2236,
  "gHsA": 2237,
  "sdj": 2238,
  "bxnj": 2239,
  "rDjnj": 2240,
  "rxtj": 2241,
  "hwt": 2242,
  "ng": 2243,
  "Hpw": 2244,
  "wAx": 2245,
  "HnT": 2246,
  "hw": 2247,
  "wAj": 2248,
  "Hzt": 2249,
  "tjtj": 2250,
  "mnz": 2251,
  "sxAw": 2252,
  "wT": 2253,
  "wnwn": 2254,
  "jbjb": 2255,
  "twAwt": 2256,
  "bkA": 2257,
  "wDAw": 2258,
  "dHw": 2259,
  "rxs": 2260,
  "dwdy": 2261,
  "jrir": 2262,
  "sDwi": 2263,
  "fAA": 2264,
  "pAu": 2265,
  "zbA": 2266,
  "pwt": 2267,
  "xAx": 2268,
  "TAr": 2269,
  "Hntj": 2270,
  "wgm": 2271,
  "Tf": 2272,
  "hnqw": 2273,
  "jjj": 2274,
  "Snat": 2275,
  "Hbn": 2276,
  "prj": 2277,
  "jzA": 2278,
  "jSj": 2279,
  "sHr": 2280,
  "nmst": 2281,
  "jbT": 2282,
  "dAg": 2283,
  "fAw": 2284,
  "mnjw": 2285,
  "sHri": 2286,
  "stpt": 2287,
  "aHm": 2288,
  "stt": 2289,
  "mHt": 2290,
  "zSw": 2291,
  "pHw": 2292,
  "xntt": 2293,
  "wDbw": 2294,
  "rat": 2295,
  "nAt": 2296,
  "spAt": 2297,
  "at": 2298,
  "wnnt": 2299,
  "mrwt": 2300,
  "kAn": 2301,
  "sHwi": 2302,
  "Ttwtj": 2303,
  "Hzzy": 2304,
  "Hbnnw": 2305,
  "agw": 2306,
  "wsh": 2307,
  "DjDj": 2308,
  "Tfw": 2309,
  "SnDt": 2310,
  "nTrw": 2311,
  "xnww": 2312,
  "jAbw": 2313,
  "nri": 2314,
  "sqbb": 2315,
  "xs": 2316,
  "nDw": 2317,
  "sTf": 2318,
  "zSSn": 2319,
  "Hk": 2320,
  "nX": 2321,
  "si": 2322,
  "snf": 2323,
  "Szm": 2324,
  "Tjw": 2325,
  "fAj": 2326,
  "rnpw": 2327,
  "HDw": 2328,
  "Ssr": 2329,
  "sja": 2330,
  "jpp": 2331,
  "gf": 2332,
  "Hbb": 2333,
  "DAtj": 2334,
  "kz": 2335,
  "jtx": 2336,
  "jmy": 2337,
  "xnwt": 2338,
  "TmH": 2339,
  "bAS": 2340,
  "Ttt": 2341,
  "htpw": 2342,
  "prwj": 2343,
  "dni": 2344,
  "tjS": 2345,
  "mnnw": 2346,
  "xtmt": 2347,
  "Tzt": 2348,
  "sma": 2349,
  "baHt": 2350,
  "zwnw": 2351,
  "sxntjw": 2352,
  "HDt": 2353,
  "spAwt": 2354,
  "mHtt": 2355,
  "HAj": 2356,
  "Tfjw": 2357,
  "szwr": 2358,
  "rhj": 2359,
  "anp": 2360,
  "rmnw": 2361,
  "jfj": 2362,
  "pAt": 2363,
  "rnpt": 2364,
  "mAt": 2365,
  "sxxts": 2366,
  "Dwjwj": 2367,
  "rnpwt": 2368,
  "wAt": 2369,
  "pat": 2370,
  "bnrt": 2371,
  "jAzn": 2372,
  "HAgj": 2373,
  "Amsw": 2374,
  "xAwt": 2375,
  "mnwt": 2376,
  "mjzt": 2377,
  "dpt": 2378,
  "Hbnnwt": 2379,
  "Snsw": 2380,
  "Trf": 2381,
  "wpt": 2382,
  "zxi": 2383,
  "smw": 2384,
  "Sbw": 2385,
  "pHt": 2386,
  "xfnn": 2387,
  "mryt": 2388,
  "Spsjt": 2389,
  "sqdi": 2390,
  "nxf": 2391,
  "mXn": 2392,
  "gott": 2393,
  "kf": 2394,
  "mddw": 2395,
  "mby": 2396,
  "nht": 2397,
  "and": 2398,
  "smar": 2399,
  "Hbnnt": 2400,
  "mdd": 2401,
  "snxt": 2402,
  "zwT": 2403,
  "srsw": 2404,
  "HHj": 2405,
  "aqa": 2406,
  "Tfj": 2407,
  "bh": 2408,
  "Hri": 2409,
  "wbd": 2410,
  "bhA": 2411,
  "amjA": 2412,
  "sdAwg": 2413,
  "bAb": 2414,
  "SAmw": 2415,
  "ATt": 2416,
  "qm": 2417,
  "qw": 2418,
  "mjtt": 2419,
  "pjp": 2420,
  "jmAxt": 2421,
  "wbs": 2422,
  "sAT": 2423,
  "Sdw": 2424,
  "mzr": 2425,
  "Arr": 2426,
  "bAbAw": 2427,
  "Hnyt": 2428,
  "jAt": 2429,
  "dS": 2430,
  "jTr": 2431,
  "praA": 2432,
  "srDy": 2433,
  "xtj": 2434,
  "sbq": 2435,
  "smH": 2436,
  "nfA": 2437,
  "DHwt": 2438,
  "jww": 2439,
  "sbi": 2440,
  "smdt": 2441,
  "gAH": 2442,
  "jsT": 2443,
  "AbA": 2444,
  "dmg": 2445,
  "snnwt": 2446,
  "bAbAt": 2447,
  "pDww": 2448,
  "spi": 2449,
  "rxj": 2450,
  "Ssm": 2451,
  "Hwj": 2452,
  "bSi": 2453,
  "wmt": 2454,
  "zSS": 2455,
  "Sdt": 2456,
  "zz": 2457,
  "rry": 2458,
  "Spst": 2459,
  "Sxpi": 2460,
  "gsA": 2461,
  "jSfj": 2462,
  "Sbb": 2463,
  "pzf": 2464,
  "jnnt": 2465,
  "mAxwt": 2466,
  "zwf": 2467,
  "ssD": 2468,
  "bk": 2469,
  "TAj": 2470,
  "tbjn": 2471,
  "fAg": 2472,
  "wxrt": 2473,
  "mAr": 2474,
  "nSA": 2475,
  "rz": 2476,
  "jmnw": 2477,
  "mAT": 2478,
  "mHnw": 2479,
  "jmby": 2480,
  "nHsi": 2481,
  "bHw": 2482,
  "ndw": 2483,
  "wnj": 2484,
  "nsb": 2485,
  "htw": 2486,
  "rArAmw": 2487,
  "tpi": 2488,
  "wdj": 2489,
  "jrjt": 2490,
  "mAs": 2491,
  "jmp": 2492,
  "bAj": 2493,
  "jDj": 2494,
  "hnq": 2495,
  "TAnj": 2496,
  "xpxp": 2497,
  "nAwt": 2498,
  "DAA": 2499,
  "sxpj": 2500,
  "mTT": 2501,
  "rst": 2502,
  "ppjj": 2503,
  "ttw": 2504,
  "jwAw": 2505,
  "jnnw": 2506,
  "qrst": 2507,
  "msj": 2508,
  "sAxw": 2509,
  "wHd": 2510,
  "sqd": 2511,
  "wjw": 2512,
  "sDt": 2513,
  "mrjj": 2514,
  "SnDw": 2515,
  "rwn": 2516,
  "mmjt": 2517,
  "jwrj": 2518,
  "xmx": 2519,
  "dmt": 2520,
  "xtp": 2521,
  "qdwt": 2522,
  "wbny": 2523,
  "jti": 2524,
  "zy": 2525,
  "awt": 2526,
  "xwd": 2527,
  "rHw": 2528,
  "THs": 2529,
  "Agg": 2530,
  "Hma": 2531,
  "jmS": 2532,
  "awg": 2533,
  "nTri": 2534,
  "mHsHs": 2535,
  "jAa": 2536,
  "jbb": 2537,
  "ff": 2538,
  "rrwj": 2539,
  "nnk": 2540,
  "Hd": 2541,
  "jAkm": 2542,
  "mam": 2543,
  "mDw": 2544,
  "hm": 2545,
  "sjwi": 2546,
  "hrrm": 2547,
  "Datt": 2548,
  "Hzjj": 2549,
  "Aft": 2550,
  "nfry": 2551,
  "nDA": 2552,
  "jay": 2553,
  "Tnfj": 2554,
  "snwt": 2555,
  "knmwt": 2556,
  "wrs": 2557,
  "tmA": 2558,
  "mxtm": 2559,
  "xpnw": 2560,
  "SnS": 2561,
  "bax": 2562,
  "abb": 2563,
  "msTp": 2564,
  "pth": 2565,
  "Ams": 2566,
  "nngj": 2567,
  "Amj": 2568,
  "wan": 2569,
  "jbr": 2570,
  "saa": 2571,
  "tAwj": 2572,
  "fwt": 2573,
  "nwt": 2574,
  "swAS": 2575,
  "rrw": 2576,
  "nfrs": 2577,
  "skj": 2578,
  "Tmzw": 2579,
  "Hmgj": 2580,
  "Apdw": 2581,
  "nqw": 2582,
  "mrHrt": 2583,
  "sskA": 2584,
  "srp": 2585,
  "rpw": 2586,
  "Hjjj": 2587,
  "TnA": 2588,
  "zjn": 2589,
  "txt": 2590,
  "shAi": 2591,
  "DdA": 2592,
  "qdw": 2593,
  "rxjt": 2594,
  "xnmt": 2595,
  "Hwa": 2596,
  "jzz": 2597,
  "Hnny": 2598,
  "fnf": 2599,
  "wSA": 2600,
  "jpn": 2601,
  "jtjw": 2602,
  "rpt": 2603,
  "SAw": 2604,
  "stj": 2605,
  "hbt": 2606,
  "tjSs": 2607,
  "Axw": 2608,
  "twnj": 2609,
  "jdx": 2610,
  "Hnwt": 2611,
  "Hngj": 2612,
  "wjdu": 2613,
  "nhp": 2614,
  "mtjw": 2615,
  "tty": 2616,
  "gsgs": 2617,
  "maq": 2618,
  "bzn": 2619,
  "qAd": 2620,
  "sfd": 2621,
  "Ak": 2622,
  "bxnt": 2623,
  "mnbt": 2624,
  "Smat": 2625,
  "sdS": 2626,
  "nwa": 2627,
  "tjd": 2628,
  "jbw": 2629,
  "Hsj": 2630,
  "jptf": 2631,
  "jtf": 2632,
  "Tyw": 2633,
  "tT": 2634,
  "Daaj": 2635,
  "fw": 2636,
  "ztt": 2637,
  "xsft": 2638,
  "antw": 2639,
  "Ap": 2640,
  "Hzp": 2641,
  "zi": 2642,
  "jzp": 2643,
  "jkjk": 2644,
  "bt": 2645,
  "msjw": 2646,
  "SmSm": 2647,
  "snfi": 2648,
  "sxwnw": 2649,
  "Hmww": 2650,
  "jf": 2651,
  "wAsjr": 2652,
  "wnDw": 2653,
  "wbnw": 2654,
  "nSd": 2655,
  "Abdj": 2656,
  "jTf": 2657,
  "htp": 2658,
  "zmn": 2659,
  "zSn": 2660,
  "Dsf": 2661,
  "zTtt": 2662,
  "dD": 2663,
  "kzn": 2664,
  "fsw": 2665,
  "Ttwj": 2666,
  "wAwt": 2667,
  "fdqdq": 2668,
  "TjT": 2669,
  "Hknj": 2670,
  "jmbjj": 2671,
  "xj": 2672,
  "nkn": 2673,
  "mDAb": 2674,
  "bnDy": 2675,
  "pnw": 2676,
  "mttj": 2677,
  "qhwj": 2678,
  "Saq": 2679,
  "xam": 2680,
  "mXaq": 2681,
  "Smd": 2682,
  "nwr": 2683,
  "Htpwt": 2684,
  "xAst": 2685,
  "Htptj": 2686,
  "fd": 2687,
  "duw": 2688,
  "jny": 2689,
  "nAtw": 2690,
  "sjnj": 2691,
  "jzwt": 2692,
  "abSw": 2693,
  "wSi": 2694,
  "hwi": 2695,
  "Dmj": 2696,
  "kmH": 2697,
  "dDhDw": 2698,
  "dqa": 2699,
  "Dwi": 2700,
  "nwj": 2701,
  "pAD": 2702,
  "pnz": 2703,
  "snsn": 2704,
  "bzi": 2705,
  "aAp": 2706,
  "gj": 2707,
  "zHj": 2708,
  "aDn": 2709,
  "jAk": 2710,
  "nnwt": 2711,
  "sSAA": 2712,
  "tAn": 2713,
  "Axb": 2714,
  "Drww": 2715,
  "httj": 2716,
  "Dhw": 2717,
  "Hpp": 2718,
  "zwS": 2719,
  "Dbt": 2720,
  "fk": 2721,
  "Ary": 2722,
  "jdwt": 2723,
  "bnnt": 2724,
  "Hnb": 2725,
  "ADw": 2726,
  "isj": 2727,
  "Hwfrj": 2728,
  "qbb": 2729,
  "Hrti": 2730,
  "Snwtj": 2731,
  "bSj": 2732,
  "jmAy": 2733,
  "qAqA": 2734,
  "xntjw": 2735,
  "Ahwt": 2736,
  "hrj": 2737,
  "sHd": 2738,
  "xptT": 2739,
  "xpTt": 2740,
  "ktktj": 2741,
  "kpA": 2742,
  "hftj": 2743,
  "sdn": 2744,
  "fi": 2745,
  "sxwt": 2746,
  "DfAw": 2747,
  "zbw": 2748,
  "SaD": 2749,
  "npt": 2750,
  "znS": 2751,
  "HnA": 2752,
  "sHAp": 2753,
  "Hsk": 2754,
  "xnmm": 2755,
  "pAi": 2756,
  "zAA": 2757,
  "sbn": 2758,
  "bHs": 2759,
  "mtA": 2760,
  "jsm": 2761,
  "Hfdi": 2762,
  "kArj": 2763,
  "swAH": 2764,
  "jAr": 2765,
  "fky": 2766,
  "jhh": 2767,
  "prrT": 2768,
  "sjw": 2769,
  "jAnr": 2770,
  "baHi": 2771,
  "zmAm": 2772,
  "sjs": 2773,
  "pHrr": 2774,
  "jkb": 2775,
  "sTAm": 2776,
  "gstj": 2777,
  "drf": 2778,
  "sDAm": 2779,
  "Dxn": 2780,
  "qmd": 2781,
  "api": 2782,
  "XAs": 2783,
  "SpT": 2784,
  "xsr": 2785,
  "mhi": 2786,
  "jptw": 2787,
  "sAmm": 2788,
  "wpS": 2789,
  "sxni": 2790,
  "gg": 2791,
  "mHn": 2792,
  "xrs": 2793,
  "jyi": 2794,
  "dAs": 2795,
  "dAjr": 2796,
  "sft": 2797,
  "wnb": 2798,
  "Ajr": 2799,
  "nbH": 2800,
  "rmni": 2801,
  "xAb": 2802,
  "Hsp": 2803,
  "sxd": 2804,
  "pzH": 2805,
  "gi": 2806,
  "naw": 2807,
  "pHs": 2808,
  "jxm": 2809,
  "DnH": 2810,
  "xbxb": 2811,
  "mHi": 2812,
  "xwx": 2813,
  "sjr": 2814,
  "Stp": 2815,
  "jxx": 2816,
  "sxa": 2817,
  "bqs": 2818,
  "sAA": 2819,
  "xrxr": 2820,
  "Asb": 2821,
  "sqdd": 2822,
  "zpA": 2823,
  "sar": 2824,
  "maxf": 2825,
  "psmTk": 2826,
  "nvr": 2827,
  "HTr": 2828,
  "tAw": 2829,
  "sxai": 2830,
  "mhAw": 2831,
  "mT": 2832,
  "Tsm": 2833,
  "TknS": 2834,
  "DAy": 2835,
  "nmrT": 2836,
  "sXnn": 2837,
  "wjAn": 2838,
  "fq": 2839,
  "pwrm": 2840,
  "ramrskny": 2841,
  "Srm": 2842,
  "aba": 2843,
  "ntS": 2844,
  "Swt": 2845,
  "nhdh": 2846,
  "rdt": 2847,
  "mni": 2848,
  "axm": 2849,
  "pg": 2850,
  "Abx": 2851,
  "jfd": 2852,
  "xar": 2853,
  "Abj": 2854,
  "spy": 2855,
  "smsm": 2856,
  "wry": 2857,
  "sdA": 2858,
  "Trry": 2859,
  "Tsi": 2860,
  "xAaa": 2861,
  "sHwA": 2862,
  "sbjn": 2863,
  "sagA": 2864,
  "Hsbd": 2865,
  "Hsmn": 2866,
  "sHqr": 2867,
  "sndtj": 2868,
  "whj": 2869,
  "HDD": 2870,
  "nbnb": 2871,
  "msdd": 2872,
  "skr": 2873,
  "jwaa": 2874,
  "drp": 2875,
  "XAk": 2876,
  "ngsgs": 2877,
  "nHti": 2878,
  "HtA": 2879,
  "Xar": 2880,
  "gp": 2881,
  "shr": 2882,
  "pny": 2883,
  "jwpAt": 2884,
  "nwn": 2885,
  "mand": 2886,
  "skt": 2887,
  "wsrkn": 2888,
  "kAhnj": 2889,
  "mnfy": 2890,
  "bAst": 2891,
  "jwpT": 2892,
  "rHH": 2893,
  "jknS": 2894,
  "jzy": 2895,
  "grr": 2896,
  "Hrbs": 2897,
  "sAtA": 2898,
  "HsA": 2899,
  "xjw": 2900,
  "swnswn": 2901,
  "jws": 2902,
  "spxA": 2903,
  "mtnw": 2904,
  "xArw": 2905,
  "ST": 2906,
  "Hfd": 2907,
  "Xtb": 2908,
  "thr": 2909,
  "jns": 2910,
  "sns": 2911,
  "aApp": 2912,
  "snxn": 2913,
  "tpr": 2914,
  "jAH": 2915,
  "sAm": 2916,
  "wnH": 2917,
  "SAm": 2918,
  "xrd": 2919,
  "Snd": 2920,
  "rpj": 2921,
  "agnj": 2922,
  "bjnr": 2923,
  "jsh": 2924,
  "jpd": 2925,
  "wSm": 2926,
  "pSnj": 2927,
  "rrm": 2928,
  "jms": 2929,
  "Tm": 2930,
  "jzf": 2931,
  "sAt": 2932,
  "apj": 2933,
  "sTH": 2934,
  "dns": 2935,
  "djdj": 2936,
  "mtk": 2937,
  "mds": 2938,
  "hnd": 2939,
  "tny": 2940,
  "Sri": 2941,
  "gwT": 2942,
  "jnA": 2943,
  "aaw": 2944,
  "whs": 2945,
  "pnq": 2946,
  "Hwrw": 2947,
  "nxw": 2948,
  "jwApT": 2949,
  "dryS": 2950,
  "xwz": 2951,
  "nwb": 2952,
  "Ddm": 2953,
  "xtA": 2954,
  "Ah": 2955,
  "xws": 2956,
  "ztp": 2957,
  "xAf": 2958,
  "pfj": 2959,
  "mdt": 2960,
  "nSm": 2961,
  "Tkr": 2962,
  "jhA": 2963,
  "vw": 2964,
  "bx": 2965,
  "jxn": 2966,
  "manD": 2967,
  "Hdqq": 2968,
  "awAi": 2969,
  "pX": 2970,
  "mhw": 2971,
  "msdi": 2972,
  "tmpsy": 2973,
  "prdtxy": 2974,
  "Aab": 2975,
  "tjpl": 2976,
  "sAnHm": 2977,
  "swsx": 2978,
  "dij": 2979,
  "stkn": 2980,
  "Amm": 2981,
  "nkAw": 2982,
  "qfA": 2983,
  "hpn": 2984,
  "zbn": 2985,
  "mAq": 2986,
  "bjAi": 2987,
  "pSS": 2988,
  "Tmt": 2989,
  "zxni": 2990,
  "bjAj": 2991,
  "ndj": 2992,
  "msDi": 2993,
  "HwA": 2994,
  "jmk": 2995,
  "swAA": 2996,
  "SAss": 2997,
  "Dsw": 2998,
  "jzn": 2999,
  "afn": 3000,
  "xfa": 3001,
  "pnd": 3002,
  "jpf": 3003,
  "dqq": 3004,
  "skk": 3005,
  "hhj": 3006,
  "rDw": 3007,
  "jaj": 3008,
  "smAm": 3009,
  "Akr": 3010,
  "wdu": 3011,
  "wtwt": 3012,
  "jdi": 3013,
  "Dm": 3014,
  "jgp": 3015,
  "tXs": 3016,
  "txn": 3017,
  "snk": 3018,
  "nwAwA": 3019,
  "sHmi": 3020,
  "ntsn": 3021,
  "zAS": 3022,
  "wADAD": 3023,
  "knz": 3024,
  "xprr": 3025,
  "xma": 3026,
  "bwn": 3027,
  "mAfd": 3028,
  "sAxAx": 3029,
  "sxnn": 3030,
  "zwj": 3031,
  "wAp": 3032,
  "xbn": 3033,
  "tjdu": 3034,
  "HwAA": 3035,
  "psDi": 3036,
  "bAD": 3037,
  "qa": 3038,
  "jmjm": 3039,
  "jzkn": 3040,
  "nHrnHr": 3041,
  "msxA": 3042,
  "jbAn": 3043,
  "nhzi": 3044,
  "Dswi": 3045,
  "aSj": 3046,
  "nznzn": 3047,
  "jtw": 3048,
  "hkj": 3049,
  "hkr": 3050,
  "dgj": 3051,
  "Awr": 3052,
  "gmj": 3053,
  "Agb": 3054,
  "mSn": 3055,
  "dAng": 3056,
  "smt": 3057,
  "dndn": 3058,
  "nkAkA": 3059,
  "zwnT": 3060,
  "Si": 3061,
  "jbn": 3062,
  "Ddk": 3063,
  "jAkb": 3064,
  "szn": 3065,
  "SdSd": 3066,
  "ddwn": 3067,
  "baHj": 3068,
  "jAmAm": 3069,
  "nxj": 3070,
  "sfg": 3071,
  "fnn": 3072,
  "Hfnn": 3073,
  "ban": 3074,
  "mndf": 3075,
  "njk": 3076,
  "xbi": 3077,
  "spdD": 3078,
  "nxbxb": 3079,
  "Xrm": 3080,
  "whnn": 3081,
  "xAmm": 3082,
  "jqm": 3083,
  "zbT": 3084,
  "jSS": 3085,
  "aSm": 3086,
  "mjnn": 3087,
  "gAA": 3088,
  "ptpt": 3089,
  "hjp": 3090,
  "msAD": 3091,
  "mwmw": 3092,
  "xAtb": 3093,
  "fdi": 3094,
  "hnjnj": 3095,
  "sSw": 3096,
  "sSy": 3097,
  "wng": 3098,
  "sqAi": 3099,
  "mnhD": 3100,
  "wbnn": 3101,
  "hdd": 3102,
  "znzn": 3103,
  "sfxx": 3104,
  "sndu": 3105,
  "abH": 3106,
  "xfA": 3107,
  "mnjn": 3108,
  "zxz": 3109,
  "ndbdb": 3110,
  "xdxd": 3111,
  "sxnti": 3112,
  "jana": 3113,
  "tsn": 3114,
  "THsb": 3115,
  "gspw": 3116,
  "swj": 3117,
  "Hjp": 3118,
  "Dndr": 3119,
  "mawH": 3120,
  "bzA": 3121,
  "jTT": 3122,
  "xbD": 3123,
  "nSni": 3124,
  "xfxf": 3125,
  "zpi": 3126,
  "sa": 3127,
  "gAs": 3128,
  "snS": 3129,
  "jwsw": 3130,
  "jptn": 3131,
  "ntA": 3132,
  "mst": 3133,
  "Hni": 3134,
  "zjzj": 3135,
  "SnTT": 3136,
  "xsbb": 3137,
  "mHA": 3138,
  "wjT": 3139,
  "wnTr": 3140,
  "nkjkj": 3141,
  "Sk": 3142,
  "nxr": 3143,
  "aaj": 3144,
  "jAmA": 3145,
  "HDb": 3146,
  "drr": 3147,
  "tmS": 3148,
  "zAr": 3149,
  "tAxb": 3150,
  "wpj": 3151,
  "jwj": 3152,
  "mXnm": 3153,
  "Snm": 3154,
  "Aqs": 3155,
  "Hknkn": 3156,
  "bAgs": 3157,
  "mzmz": 3158,
  "TApr": 3159,
  "hpAT": 3160,
  "hnnj": 3161,
  "Hftn": 3162,
  "kss": 3163,
  "htt": 3164,
  "Tndu": 3165,
  "dfD": 3166,
  "tww": 3167,
  "qdm": 3168,
  "pAz": 3169,
  "hnt": 3170,
  "HaA": 3171,
  "TT": 3172,
  "dwi": 3173,
  "xsD": 3174,
  "npi": 3175,
  "Am": 3176,
  "SAA": 3177,
  "nbDbD": 3178,
  "sqq": 3179,
  "xAwi": 3180,
  "msS": 3181,
  "Ahb": 3182,
  "df": 3183,
  "xbz": 3184,
  "nhmhm": 3185,
  "smAA": 3186,
  "nHn": 3187,
  "manx": 3188,
  "jpATj": 3189,
  "jhAb": 3190,
  "tbj": 3191,
  "jsS": 3192,
  "mjAz": 3193,
  "nDrw": 3194,
  "snhd": 3195,
  "xsb": 3196,
  "maHA": 3197,
  "rwx": 3198,
  "xz": 3199,
  "jki": 3200,
  "SAk": 3201,
  "rmm": 3202,
  "jhj": 3203,
  "pDpD": 3204,
  "wzS": 3205,
  "ntAi": 3206,
  "sDH": 3207,
  "Dnd": 3208,
  "jnq": 3209,
  "ksi": 3210,
  "bnu": 3211,
  "nDdDd": 3212,
  "tndu": 3213,
  "bAbwj": 3214,
  "Tms": 3215,
  "dAp": 3216,
  "sqdj": 3217,
  "maAa": 3218,
  "mAf": 3219,
  "pan": 3220,
  "jntsn": 3221,
  "stpp": 3222,
  "nzr": 3223,
  "snfxfx": 3224,
  "zHp": 3225,
  "ngAgA": 3226,
  "Szpp": 3227,
  "zpj": 3228,
  "SAi": 3229,
  "nbD": 3230,
  "HnHn": 3231,
  "hDhD": 3232,
  "qrqr": 3233,
  "Tsb": 3234,
  "Hjkn": 3235,
  "hpnw": 3236,
  "xbx": 3237,
  "jAxj": 3238,
  "wxyx": 3239,
  "nTs": 3240,
  "xtxt": 3241,
  "xxm": 3242,
  "bxx": 3243,
  "DAs": 3244,
  "wSa": 3245,
  "nTb": 3246,
  "nhd": 3247,
  "wzm": 3248,
  "nsjsj": 3249,
  "jxma": 3250,
  "kHA": 3251,
  "DAd": 3252,
  "fss": 3253,
  "ktj": 3254,
  "fjw": 3255,
  "nHmm": 3256,
  "npw": 3257,
  "sHsH": 3258,
  "mzwr": 3259,
  "zbnbn": 3260,
  "sxdxd": 3261,
  "zHzH": 3262,
  "anH": 3263,
  "qAA": 3264,
  "aAa": 3265,
  "nDd": 3266,
  "bi": 3267,
  "mAgs": 3268,
  "nzA": 3269,
  "jqh": 3270,
  "mAD": 3271,
  "sksn": 3272,
  "sAwi": 3273,
  "znT": 3274,
  "nAb": 3275,
  "msq": 3276,
  "SfSf": 3277,
  "Agbj": 3278,
  "msSA": 3279,
  "jAs": 3280,
  "wgi": 3281,
  "bSS": 3282,
  "knm": 3283,
  "sAd": 3284,
  "szA": 3285,
  "nXrXr": 3286,
  "ndsds": 3287,
  "nDmm": 3288,
  "tmm": 3289,
  "Agbgb": 3290,
  "bAn": 3291,
  "zmnnw": 3292,
  "psDj": 3293,
  "HmATT": 3294,
  "dmm": 3295,
  "tnm": 3296,
  "jptntj": 3297,
  "wntj": 3298,
  "zkzk": 3299,
  "qrq": 3300,
  "shd": 3301,
  "ki": 3302,
  "xwrr": 3303,
  "Twj": 3304,
  "nDD": 3305,
  "nti": 3306,
  "nhi": 3307,
  "SAr": 3308,
  "nwtwt": 3309,
  "jsd": 3310,
  "dpw": 3311,
  "zmjn": 3312,
  "wpp": 3313,
  "Azb": 3314,
  "nSbSb": 3315,
  "xi": 3316,
  "jAi": 3317,
  "jAj": 3318,
  "Hqrr": 3319,
  "wdfj": 3320,
  "kAA": 3321,
  "fxx": 3322,
  "pAxd": 3323,
  "Tjf": 3324,
  "sXA": 3325,
  "bAA": 3326,
  "fnT": 3327,
  "THnn": 3328,
  "ssx": 3329,
  "Tftn": 3330,
  "wAxj": 3331,
  "STn": 3332,
  "npD": 3333,
  "xpx": 3334,
  "xsfi": 3335,
  "Dswj": 3336,
  "sdmj": 3337,
  "swu": 3338,
  "hmT": 3339,
  "Daam": 3340,
  "msxn": 3341,
  "zmr": 3342,
  "tjwtj": 3343,
  "ATA": 3344,
  "Apt": 3345,
  "Tmss": 3346,
  "janj": 3347,
  "fg": 3348,
  "Abxx": 3349,
  "Hsqq": 3350,
  "pDD": 3351,
  "psg": 3352,
  "mxnt": 3353,
  "nSf": 3354,
  "mDr": 3355,
  "sTAz": 3356,
  "AwAr": 3357,
  "fkk": 3358,
  "HAk": 3359,
  "ddj": 3360,
  "aXb": 3361,
  "gbgb": 3362,
  "jnjn": 3363,
  "sjdi": 3364,
  "wAxx": 3365,
  "StT": 3366,
  "Tzj": 3367,
  "mns": 3368,
  "nxrxr": 3369,
  "kbb": 3370,
  "Hjfg": 3371,
  "tjn": 3372,
  "sTt": 3373,
  "jnT": 3374,
  "bsk": 3375,
  "nd": 3376,
  "jdAm": 3377,
  "qAa": 3378,
  "AD": 3379,
  "xtn": 3380,
  "sSa": 3381,
  "ddn": 3382,
  "mHr": 3383,
  "nAS": 3384,
  "ndfdf": 3385,
  "xnD": 3386,
  "sASr": 3387,
  "wjt": 3388,
  "mzA": 3389,
  "HbA": 3390,
  "ana": 3391,
  "zSi": 3392,
  "xsdD": 3393,
  "zmzrj": 3394,
  "nHni": 3395,
  "mhj": 3396,
  "bAbj": 3397,
  "wfj": 3398,
  "TmTj": 3399,
  "Thnw": 3400,
  "kbnw": 3401,
  "zbnw": 3402,
  "nTz": 3403,
  "jATrn": 3404,
  "snTri": 3405,
  "snxbxb": 3406,
  "Sjk": 3407,
  "Tpnpn": 3408,
  "xbss": 3409,
  "Awj": 3410,
  "Xrp": 3411,
  "Hmz": 3412,
  "jsn": 3413,
  "nkA": 3414,
  "rHr": 3415,
  "hkA": 3416,
  "jArj": 3417,
  "msxAA": 3418,
  "mnhz": 3419,
  "sSkr": 3420,
  "hdn": 3421,
  "rAHs": 3422,
  "Hbnbn": 3423,
  "DdDd": 3424,
  "nSnS": 3425,
  "spS": 3426,
  "SbSb": 3427,
  "bdS": 3428,
  "mrm": 3429,
  "maj": 3430,
  "zwzw": 3431,
  "DrT": 3432,
  "sAqH": 3433,
  "bny": 3434,
  "npn": 3435,
  "Sws": 3436,
  "HdD": 3437,
  "hpA": 3438,
  "jmAm": 3439,
  "jtt": 3440,
  "stH": 3441,
  "tjkj": 3442,
  "tAH": 3443,
  "tkkj": 3444,
  "zzi": 3445,
  "pAar": 3446,
  "Tjrf": 3447,
  "nz": 3448,
  "jyj": 3449,
  "gmHs": 3450,
  "ph": 3451,
  "pT": 3452,
  "ngg": 3453,
  "jwrr": 3454,
  "DdT": 3455,
  "Tbb": 3456,
  "DAj": 3457,
  "zSj": 3458,
  "aft": 3459,
  "mspr": 3460,
  "nTHTH": 3461,
  "jzr": 3462,
  "twri": 3463,
  "Ddb": 3464,
  "nTn": 3465,
  "nAp": 3466,
  "Spn": 3467,
  "ksw": 3468,
  "szwnu": 3469,
  "jHm": 3470,
  "Hmm": 3471,
  "gmgm": 3472,
  "jna": 3473,
  "sqjj": 3474,
  "rSrS": 3475,
  "baba": 3476,
  "znj": 3477,
  "hjw": 3478,
  "mXA": 3479,
  "nDj": 3480,
  "mai": 3481,
  "sww": 3482,
  "aSi": 3483,
  "HDi": 3484,
  "wnT": 3485,
  "gnm": 3486,
  "ktw": 3487,
  "HTT": 3488,
  "ntAj": 3489,
  "DSr": 3490,
  "Hmsj": 3491,
  "nDrj": 3492,
  "mstt": 3493,
  "mks": 3494,
  "jAdj": 3495,
  "HnTj": 3496,
  "AHAHj": 3497,
  "mamjA": 3498,
  "zwnu": 3499,
  "XAj": 3500,
  "npnp": 3501,
  "nTstn": 3502,
  "zmz": 3503,
  "Hjm": 3504,
  "wnDr": 3505,
  "ksks": 3506,
  "Dsjw": 3507,
  "nSz": 3508,
  "kdu": 3509,
  "bbn": 3510,
  "Xzi": 3511,
  "jHTj": 3512,
  "AwAw": 3513,
  "pds": 3514,
  "zmT": 3515,
  "fa": 3516,
  "abab": 3517,
  "dnD": 3518,
  "Dnn": 3519,
  "DsDs": 3520,
  "skm": 3521,
  "dmr": 3522,
  "nqrqr": 3523,
  "gsp": 3524,
  "HAa": 3525,
  "nxnx": 3526,
  "Sdy": 3527,
  "jptwt": 3528,
  "dHdH": 3529,
  "wDHj": 3530,
  "mjr": 3531,
  "dSrr": 3532,
  "nSzz": 3533,
  "marq": 3534,
  "XAp": 3535,
  "nSfSf": 3536,
  "Dddi": 3537,
  "sAj": 3538,
  "sbAg": 3539,
  "mnwr": 3540,
  "bdd": 3541,
  "jwg": 3542,
  "sax": 3543,
  "xsbD": 3544,
  "yhj": 3545,
  "mjdA": 3546,
  "xfx": 3547,
  "yi": 3548,
  "SpA": 3549,
  "wDD": 3550,
  "myt": 3551,
  "zxnn": 3552,
  "wAHwAH": 3553,
  "kH": 3554,
  "hpnn": 3555,
  "xAz": 3556,
  "nfa": 3557,
  "SAp": 3558,
  "jmr": 3559,
  "nSS": 3560,
  "pndn": 3561,
  "bSb": 3562,
  "mqr": 3563,
  "rxss": 3564,
  "xmai": 3565,
  "u": 3566,
  "jnbA": 3567,
  "ndb": 3568,
  "HnTi": 3569,
  "zAj": 3570,
  "smnn": 3571,
  "sxbxb": 3572,
  "sbxbx": 3573,
  "nzn": 3574,
  "sdSr": 3575,
  "nTi": 3576,
  "aHb": 3577,
  "xmj": 3578,
  "wAgi": 3579,
  "wzT": 3580,
  "pHr": 3581,
  "aqn": 3582,
  "mdAm": 3583,
  "bAby": 3584,
  "ajaj": 3585,
  "stjS": 3586,
  "xsff": 3587,
  "gnHs": 3588,
  "mHm": 3589,
  "kfj": 3590,
  "jjr": 3591,
  "jmH": 3592,
  "bAgj": 3593,
  "fAk": 3594,
  "nHnj": 3595,
  "spAi": 3596,
  "dnxnx": 3597,
  "majA": 3598,
  "nhzj": 3599,
  "iw": 3600,
  "Hnm": 3601,
  "snz": 3602,
  "msxt": 3603,
  "nsAA": 3604,
  "msnT": 3605,
  "rTn": 3606,
  "SdH": 3607,
  "jbsqb": 3608,
  "tnn": 3609,
  "Tjrr": 3610,
  "stwt": 3611,
  "Xbt": 3612,
  "sHt": 3613,
  "qbjw": 3614,
  "twh": 3615,
  "kni": 3616,
  "tnbX": 3617,
  "pTH": 3618,
  "qdS": 3619,
  "wawa": 3620,
  "qbsw": 3621,
  "Xs": 3622,
  "bjw": 3623,
  "Saf": 3624,
  "Xny": 3625,
  "kDn": 3626,
  "Xa": 3627,
  "ntwtn": 3628,
  "Saj": 3629,
  "smtj": 3630,
  "v": 3631,
  "TnTA": 3632,
  "sHAb": 3633,
  "Twf": 3634,
  "sqdy": 3635,
  "rsy": 3636,
  "bss": 3637,
  "snhzy": 3638,
  "sgb": 3639,
  "papa": 3640,
  "mhy": 3641,
  "jpl": 3642,
  "brt": 3643,
  "Hwra": 3644,
  "wstn": 3645,
  "zSA": 3646,
  "awAy": 3647,
  "smnmn": 3648,
  "wty": 3649,
  "mTAi": 3650,
  "Aby": 3651,
  "sswnu": 3652,
  "nHtm": 3653,
  "HkAht": 3654,
  "wTnt": 3655,
  "bjm": 3656,
  "Ttn": 3657,
  "bAkj": 3658,
  "swh": 3659,
  "sHw": 3660,
  "xty": 3661,
  "Xzj": 3662,
  "wkw": 3663,
  "xmxm": 3664,
  "rwjA": 3665,
  "Xp": 3666,
  "rmnn": 3667,
  "qdr": 3668,
  "hnm": 3669,
  "ywpl": 3670,
  "ntTn": 3671,
  "saDA": 3672,
  "dpy": 3673,
  "thh": 3674,
  "nbwi": 3675,
  "bsj": 3676,
  "snwx": 3677,
  "wtjw": 3678,
  "twnpj": 3679,
  "kp": 3680,
  "wmtj": 3681,
  "msH": 3682,
  "axx": 3683,
  "nSn": 3684,
  "jmar": 3685,
  "rT": 3686,
  "rsu": 3687,
  "tktk": 3688,
  "Dz": 3689,
  "hmh": 3690,
  "jhhj": 3691,
  "sh": 3692,
  "mktr": 3693,
  "Hpn": 3694,
  "kAwt": 3695,
  "sqb": 3696,
  "jrmj": 3697,
  "jrkrk": 3698,
  "rbrt": 3699,
  "rss": 3700,
  "Ark": 3701,
  "trrk": 3702,
  "pbx": 3703,
  "aAh": 3704,
  "jaDm": 3705,
  "ahr": 3706,
  "gah": 3707,
  "mHDm": 3708,
  "mb": 3709,
  "sthb": 3710,
  "SDtm": 3711,
  "mnsjw": 3712,
  "kkn": 3713,
  "jft": 3714,
  "rjA": 3715,
  "Xam": 3716,
  "pwjw": 3717,
  "gAbgAb": 3718,
  "plv": 3719,
  "dny": 3720,
  "kSkS": 3721,
  "axtwy": 3722,
  "whA": 3723,
  "jwdn": 3724,
  "jhAy": 3725,
  "gAbgAy": 3726,
  "dgAs": 3727,
  "anws": 3728,
  "ntAsn": 3729,
  "mtAy": 3730,
  "sky": 3731,
  "dwAy": 3732,
  "hsh": 3733,
  "jv": 3734,
  "xAyb": 3735,
  "ntw": 3736,
  "kAhA": 3737,
  "kAhb": 3738,
  "bAkA": 3739,
  "jntw": 3740,
  "wtr": 3741,
  "jdH": 3742,
  "wst": 3743,
  "Xmn": 3744,
  "rkm": 3745,
  "tAry": 3746,
  "qtS": 3747,
  "btS": 3748,
  "wSby": 3749,
  "yv": 3750,
  "jsdd": 3751,
  "rTw": 3752,
  "drdn": 3753,
  "wAh": 3754,
  "tv": 3755,
  "XnXn": 3756,
  "sdi": 3757,
  "jkm": 3758,
  "szwn": 3759,
  "jAT": 3760,
  "swhi": 3761,
  "dbnbn": 3762,
  "nwx": 3763,
  "xwzi": 3764,
  "sDdi": 3765,
  "mHny": 3766,
  "jsbj": 3767,
  "sDfAw": 3768,
  "mti": 3769,
  "xwsi": 3770,
  "swAww": 3771,
  "sxy": 3772,
  "wTs": 3773,
  "mnhsi": 3774,
  "qdi": 3775,
  "mkAH": 3776,
  "swbx": 3777,
  "kfAy": 3778,
  "apAy": 3779,
  "sSwA": 3780,
  "bhn": 3781,
  "Hbi": 3782,
  "dz": 3783,
  "ynam": 3784,
  "pAd": 3785,
  "sksk": 3786,
  "Htrj": 3787,
  "rqil": 3788,
  "Xd": 3789,
  "aHAw": 3790,
  "rpy": 3791,
  "ttA": 3792,
  "Xb": 3793,
  "aXm": 3794,
  "mdpl": 3795,
  "wzf": 3796,
  "qdj": 3797,
  "mSnT": 3798,
  "snHm": 3799,
  "Xsi": 3800,
  "msb": 3801,
  "bStA": 3802,
  "whAj": 3803,
  "kD": 3804,
  "knan": 3805,
  "mjb": 3806,
  "aztrt": 3807,
  "jkrT": 3808,
  "xprS": 3809,
  "qai": 3810,
  "mhr": 3811,
  "anTj": 3812,
  "AxA": 3813,
  "twnn": 3814,
  "ytt": 3815,
  "bX": 3816,
  "StAi": 3817,
  "byA": 3818,
  "wnf": 3819,
  "bSd": 3820,
  "swxt": 3821,
  "jAwj": 3822,
  "kjwy": 3823,
  "sfj": 3824,
  "Spi": 3825,
  "sfn": 3826,
  "sjar": 3827,
  "nhs": 3828,
  "ywn": 3829,
  "mAd": 3830,
  "tyw": 3831,
  "qAwr": 3832,
  "Aww": 3833,
  "snhsi": 3834,
  "anwnA": 3835,
  "rpa": 3836,
  "fy": 3837,
  "gnw": 3838,
  "rwh": 3839,
  "zSpl": 3840,
  "wnu": 3841,
  "hjms": 3842,
  "qnw": 3843,
  "hs": 3844,
  "whAs": 3845,
  "pxd": 3846,
  "xnT": 3847,
  "wh": 3848,
  "swhj": 3849,
  "wypl": 3850,
  "qbw": 3851,
  "duj": 3852,
  "yrmt": 3853,
  "tyr": 3854,
  "rhm": 3855,
  "Xz": 3856,
  "DAhy": 3857,
  "rsf": 3858,
  "ytwt": 3859,
  "fm": 3860,
  "HmAm": 3861,
  "Snjs": 3862,
  "bDAw": 3863,
  "jji": 3864,
  "smAaw": 3865,
  "sst": 3866,
  "aawj": 3867,
  "wAww": 3868,
  "sHrjw": 3869,
  "sby": 3870,
  "sSnj": 3871,
  "Hrjw": 3872,
  "wSAm": 3873,
  "jrwtw": 3874,
  "naS": 3875,
  "sprw": 3876,
  "HAdj": 3877,
  "wbdj": 3878,
  "gAS": 3879,
  "tAHw": 3880,
  "ap": 3881,
  "swjb": 3882,
  "HApw": 3883,
  "jbtj": 3884,
  "wrww": 3885,
  "Srjw": 3886,
  "dbtj": 3887,
  "agAy": 3888,
  "ya": 3889,
  "wvH": 3890,
  "mnjnjw": 3891,
  "qry": 3892,
  "sjAw": 3893,
  "wv": 3894,
  "swjw": 3895,
  "dbjw": 3896,
  "mAjw": 3897,
  "aanj": 3898,
  "ara": 3899,
  "Hfj": 3900,
  "xwAw": 3901,
  "anbw": 3902,
  "qbqb": 3903,
  "sXAww": 3904,
  "sHrj": 3905,
  "qrjs": 3906,
  "fnt": 3907,
  "xnxn": 3908,
  "mnd": 3909,
  "mjs": 3910,
  "rqrq": 3911,
  "jmHD": 3912,
  "sfy": 3913,
  "nxbw": 3914,
  "swrd": 3915,
  "mnTAm": 3916,
  "mswt": 3917,
  "snHmy": 3918,
  "wrw": 3919,
  "tjr": 3920,
  "mAv": 3921,
  "Xrw": 3922,
  "sDHw": 3923,
  "saHw": 3924,
  "Xmm": 3925,
  "sqrqr": 3926,
  "Spv": 3927,
  "SAjw": 3928,
  "snnm": 3929,
  "jpHw": 3930,
  "jara": 3931,
  "kkw": 3932,
  "hAbhAb": 3933,
  "xAswt": 3934,
  "kHkH": 3935,
  "mAddwj": 3936,
  "axmt": 3937,
  "xAbs": 3938,
  "hrp": 3939,
  "aAD": 3940,
  "sbjw": 3941,
  "pAvy": 3942,
  "srwx": 3943,
  "Snty": 3944,
  "rDww": 3945,
  "bjwk": 3946,
  "mdnj": 3947,
  "xftw": 3948,
  "knkn": 3949,
  "sdgA": 3950,
  "swrx": 3951,
  "Hwtf": 3952,
  "qdjw": 3953,
  "apw": 3954,
  "mnhp": 3955,
  "jTs": 3956,
  "dAdAjw": 3957,
  "mabAy": 3958,
  "Xti": 3959,
  "ad": 3960,
  "qnjw": 3961,
  "wAnr": 3962,
  "bwt": 3963,
  "xsAy": 3964,
  "HAww": 3965,
  "TAs": 3966,
  "wnp": 3967,
  "nDmnDm": 3968,
  "sDsr": 3969,
  "tjmH": 3970,
  "prtm": 3971,
  "nAn": 3972,
  "Dbwj": 3973,
  "njAw": 3974,
  "rmrm": 3975,
  "mgA": 3976,
  "nXs": 3977,
  "Aaaj": 3978,
  "nkk": 3979,
  "ary": 3980,
  "dxn": 3981,
  "sxntt": 3982,
  "gsmt": 3983,
  "mkw": 3984,
  "mDAjw": 3985,
  "Drjw": 3986,
  "gsj": 3987,
  "XsAw": 3988,
  "txb": 3989,
  "kmkm": 3990,
  "AhA": 3991,
  "bdn": 3992,
  "nfrydj": 3993,
  "msnH": 3994,
  "sqj": 3995,
  "ssf": 3996,
  "jaHw": 3997,
  "ndy": 3998,
  "rrmi": 3999,
  "AqA": 4000,
  "bgA": 4001,
  "kkwj": 4002,
  "knH": 4003,
  "wgAp": 4004,
  "Xdi": 4005,
  "ntwr": 4006,
  "atxww": 4007,
  "SdHw": 4008,
  "sntr": 4009,
  "afj": 4010,
  "qaA": 4011,
  "rwSA": 4012,
  "fdqA": 4013,
  "bgAy": 4014,
  "Dbw": 4015,
  "Xrr": 4016,
  "mDwj": 4017,
  "ntrw": 4018,
  "ssfj": 4019,
  "snfj": 4020,
  "gAfj": 4021,
  "bjAk": 4022,
  "Au": 4023,
  "wbtj": 4024,
  "nrjw": 4025,
  "nSnj": 4026,
  "Sntj": 4027,
  "rdH": 4028,
  "sjAd": 4029,
  "nbHw": 4030,
  "bl": 4031,
  "wgp": 4032,
  "srjw": 4033,
  "yai": 4034,
  "krjw": 4035,
  "jHt": 4036,
  "pfy": 4037,
  "mAjs": 4038,
  "xmy": 4039,
  "rSwy": 4040,
  "nswy": 4041,
  "tnTA": 4042,
  "Hnnks": 4043,
  "mntyw": 4044,
  "kns": 4045,
  "xnty": 4046,
  "nay": 4047,
  "snty": 4048,
  "tjHn": 4049,
  "stjHn": 4050,
  "anty": 4051,
  "skmyt": 4052,
  "Hnnksty": 4053,
  "mAww": 4054,
  "bjAbA": 4055,
  "Sndy": 4056,
  "br": 4057,
  "app": 4058,
  "nbsbs": 4059,
  "mAwt": 4060,
  "gbty": 4061,
  "jSrw": 4062,
  "HkAw": 4063,
  "Sfy": 4064,
  "Sdty": 4065,
  "nbyt": 4066,
  "Hddy": 4067,
  "nnm": 4068,
  "Dbay": 4069,
  "sxtxt": 4070,
  "bAgi": 4071,
  "sdgAw": 4072,
  "kkwy": 4073,
  "Aaab": 4074,
  "sdy": 4075,
  "ssw": 4076,
  "dmdj": 4077,
  "naydj": 4078,
  "fntj": 4079,
  "Sww": 4080,
  "kSjw": 4081,
  "tms": 4082,
  "rprp": 4083,
  "wHs": 4084,
  "dwAw": 4085,
  "sbAw": 4086,
  "dkA": 4087,
  "bgAw": 4088,
  "dgAw": 4089,
  "hnjt": 4090,
  "wvi": 4091,
  "jAwy": 4092,
  "msv": 4093,
  "nsbw": 4094,
  "XAwj": 4095,
  "xntw": 4096,
  "Aaany": 4097,
  "tAHn": 4098,
  "aan": 4099,
  "DAmAa": 4100,
  "jsyf": 4101,
  "nDry": 4102,
  "amm": 4103,
  "mjw": 4104,
  "sri": 4105,
  "npH": 4106,
  "jbh": 4107,
  "snny": 4108,
  "Hnsk": 4109,
  "try": 4110,
  "jAby": 4111,
  "SASA": 4112,
  "aXy": 4113,
  "rkjw": 4114,
  "wxAS": 4115,
  "mAjdy": 4116,
  "Sjw": 4117,
  "fqAw": 4118,
  "pHwj": 4119,
  "xrwy": 4120,
  "sSdAw": 4121,
  "nhpw": 4122,
  "smAy": 4123,
  "jwdj": 4124,
  "dSdS": 4125,
  "bfn": 4126,
  "amt": 4127,
  "pay": 4128,
  "nDrjw": 4129,
  "wpy": 4130,
  "jnjw": 4131,
  "Adf": 4132,
  "bsA": 4133,
  "hAbn": 4134,
  "sxwA": 4135,
  "sxnjw": 4136,
  "dfn": 4137,
  "khbw": 4138,
  "adw": 4139,
  "whAjw": 4140,
  "wpd": 4141,
  "nnA": 4142,
  "xmny": 4143,
  "wsn": 4144,
  "jaawj": 4145,
  "kwjw": 4146,
  "xfy": 4147,
  "DfDf": 4148,
  "HDDwj": 4149,
  "xfj": 4150,
  "SaA": 4151,
  "nsrsr": 4152,
  "SsdA": 4153,
  "mwj": 4154,
  "jsdn": 4155,
  "sndt": 4156,
  "dbdj": 4157,
  "wAHw": 4158,
  "jAfAf": 4159,
  "wnwt": 4160,
  "dpj": 4161,
  "bkAw": 4162,
  "StAdj": 4163,
  "kmAd": 4164,
  "drj": 4165,
  "drjw": 4166,
  "jsfy": 4167,
  "jwsdn": 4168,
  "aSjw": 4169,
  "jwAdj": 4170,
  "jHa": 4171,
  "djb": 4172,
  "pjgAw": 4173,
  "manxjw": 4174,
  "jwkjw": 4175,
  "sxtj": 4176,
  "ware": 4177,
  "nbdjw": 4178,
  "dkn": 4179,
  "ftft": 4180,
  "pdH": 4181,
  "hbjw": 4182,
  "xdy": 4183,
  "bjwn": 4184,
  "smHw": 4185,
  "mnHp": 4186,
  "Xsw": 4187,
  "xdbw": 4188,
  "dbd": 4189,
  "mnSd": 4190,
  "mmtj": 4191,
  "naHr": 4192,
  "wAsm": 4193,
  "nkjw": 4194,
  "sHAbi": 4195,
  "hry": 4196,
  "sTs": 4197,
  "DAhAy": 4198,
  "kpnj": 4199,
  "qtm": 4200,
  "wbg": 4201,
  "SSt": 4202,
  "HHtjtjsw": 4203,
  "jHty": 4204,
  "sdwx": 4205,
  "pqr": 4206,
  "qby": 4207,
  "wsTn": 4208,
  "jbt": 4209,
  "jdmj": 4210,
  "DAf": 4211,
  "HknH": 4212,
  "dri": 4213,
  "qi": 4214,
  "ybr": 4215,
  "jmjrrk": 4216,
  "Tsj": 4217,
  "Hngg": 4218,
  "pyr": 4219,
  "wz": 4220,
  "SASAa": 4221,
  "rv": 4222,
  "nhsi": 4223,
  "mstnw": 4224,
  "Sdnw": 4225,
  "HDDw": 4226,
  "hrt": 4227,
  "mwy": 4228,
  "xbAy": 4229,
  "tbh": 4230,
  "wfjH": 4231,
  "tjnH": 4232,
  "nxi": 4233,
  "khAbw": 4234,
  "nDtj": 4235,
  "nmtAw": 4236,
  "smjw": 4237,
  "sjwr": 4238,
  "nbjw": 4239,
  "nfj": 4240,
  "tbhA": 4241,
  "sHApw": 4242,
  "Adj": 4243,
  "SDm": 4244,
  "sSpw": 4245,
  "apy": 4246,
  "HpHp": 4247,
  "jAxx": 4248,
  "mAwj": 4249,
  "HjH": 4250,
  "nnjw": 4251,
  "wrdw": 4252,
  "HHw": 4253,
  "sdd": 4254,
  "Hpd": 4255,
  "mkAtj": 4256,
  "xsbt": 4257,
  "Tstj": 4258,
  "DfD": 4259,
  "StAy": 4260,
  "pAv": 4261,
  "knknm": 4262,
  "kkwt": 4263,
  "sjpy": 4264,
  "srwd": 4265,
  "THHwt": 4266,
  "smry": 4267,
  "bAkjw": 4268,
  "pgAs": 4269,
  "bHn": 4270,
  "sktj": 4271,
  "jsy": 4272,
  "sswnw": 4273,
  "Sayd": 4274,
  "qAjs": 4275,
  "jHtj": 4276,
  "jmjxnt": 4277,
  "snwxt": 4278,
  "sjpj": 4279,
  "xsA": 4280,
  "Xaa": 4281,
  "wsS": 4282,
  "pgAjs": 4283,
  "dbdb": 4284,
  "psjw": 4285,
  "sjAdi": 4286,
  "stnm": 4287,
  "ntb": 4288,
  "wps": 4289,
  "bHni": 4290,
  "qqA": 4291,
  "tAtA": 4292,
  "kAvy": 4293,
  "snjt": 4294,
  "sswn": 4295,
  "wnmy": 4296,
  "xnfy": 4297,
  "wbdy": 4298,
  "wsH": 4299,
  "nsrt": 4300,
  "hwv": 4301,
  "rkHw": 4302,
  "rdHw": 4303,
  "Afy": 4304,
  "bdH": 4305,
  "Sdn": 4306,
  "pAgjs": 4307,
  "Hmtjw": 4308,
  "hArp": 4309,
  "mdA": 4310,
  "jAhA": 4311,
  "sjAt": 4312,
  "SAjs": 4313,
  "snHw": 4314,
  "XAw": 4315,
  "psHw": 4316,
  "dAdA": 4317,
  "tfnt": 4318,
  "djfn": 4319,
  "qaw": 4320,
  "rwy": 4321,
  "jmnH": 4322,
  "ntbw": 4323,
  "msx": 4324,
  "dnw": 4325,
  "Hnbw": 4326,
  "xarw": 4327,
  "sXAw": 4328,
  "xprw": 4329,
  "sntj": 4330,
  "djf": 4331,
  "spri": 4332,
  "sAdd": 4333,
  "snpw": 4334,
  "wHy": 4335,
  "DAjs": 4336,
  "dpH": 4337,
  "sHm": 4338,
  "mXdtj": 4339,
  "mtAw": 4340,
  "sbHw": 4341,
  "mdsy": 4342,
  "HAdg": 4343,
  "sam": 4344,
  "pxy": 4345,
  "sDrjw": 4346,
  "nhjs": 4347,
  "qAjw": 4348,
  "jbHw": 4349,
  "gmHw": 4350,
  "DAfj": 4351,
  "Stbw": 4352,
  "mab": 4353,
  "sdnm": 4354,
  "stf": 4355,
  "rSj": 4356,
  "Smay": 4357,
  "bAkw": 4358,
  "mkt": 4359,
  "Hqrjw": 4360,
  "jbjw": 4361,
  "stx": 4362,
  "wsir": 4363,
  "jnbw": 4364,
  "dAw": 4365,
  "sgAp": 4366,
  "gbtjw": 4367,
  "nAr": 4368,
  "syfy": 4369,
  "dgAys": 4370,
  "nhAjs": 4371,
  "gAwA": 4372,
  "jhAm": 4373,
  "fndy": 4374,
  "ASb": 4375,
  "nSny": 4376,
  "thAm": 4377,
  "jmHw": 4378,
  "Trm": 4379,
  "tu": 4380,
  "XAi": 4381,
  "rdj": 4382,
  "AhAm": 4383,
  "Hnty": 4384,
  "nxwy": 4385,
  "syf": 4386,
  "HnH": 4387,
  "mHv": 4388,
  "Hwywy": 4389,
  "wbt": 4390,
  "Ahm": 4391,
  "wwy": 4392,
  "mnty": 4393,
  "jDrj": 4394,
  "sdni": 4395,
  "pAwtj": 4396,
  "StAw": 4397,
  "skty": 4398,
  "pxAjw": 4399,
  "THHwy": 4400,
  "Hswy": 4401,
  "wAwAw": 4402,
  "nfrwys": 4403,
  "HAbi": 4404,
  "xxw": 4405,
  "kknm": 4406,
  "wArx": 4407,
  "nfrwysw": 4408,
  "sdp": 4409,
  "nww": 4410,
  "wAgS": 4411,
  "mAwy": 4412,
  "HnggA": 4413,
  "jnmm": 4414,
  "wxAwy": 4415,
  "awy": 4416,
  "jHyty": 4417,
  "TAmwt": 4418,
  "Haawy": 4419,
  "xprj": 4420,
  "jwtjw": 4421,
  "aDaD": 4422,
  "Hsr": 4423,
  "swSA": 4424,
  "nAjrrf": 4425,
  "jrtA": 4426,
  "bdbd": 4427,
  "xbbj": 4428,
  "jtfA": 4429,
  "mndyw": 4430,
  "baHw": 4431,
  "mkrjw": 4432,
  "nswyt": 4433,
  "btbt": 4434,
  "ndr": 4435,
  "mHjw": 4436,
  "Abt": 4437,
  "www": 4438,
  "nAjrf": 4439,
  "nhAm": 4440,
  "jStA": 4441,
  "jrwv": 4442,
  "Sft": 4443,
  "xsd": 4444,
  "hAmty": 4445,
  "nArf": 4446,
  "tbH": 4447,
  "gAHs": 4448,
  "antA": 4449,
  "hAwy": 4450,
  "mat": 4451,
  "kAwy": 4452,
  "kfAw": 4453,
  "snDt": 4454,
  "sxAx": 4455,
  "Srw": 4456,
  "wDy": 4457,
  "mwv": 4458,
  "swtS": 4459,
  "xbt": 4460,
  "jnty": 4461,
  "hArw": 4462,
  "amAT": 4463,
  "mntj": 4464,
  "sAwty": 4465,
  "nmjt": 4466,
  "rSp": 4467,
  "mkjw": 4468,
  "fay": 4469,
  "mrS": 4470,
  "Dww": 4471,
  "pAwytj": 4472,
  "nhr": 4473,
  "Twn": 4474,
  "hAp": 4475,
  "tjmwt": 4476,
  "nhAsi": 4477,
  "HAdi": 4478,
  "rxyw": 4479,
  "tks": 4480,
  "AXa": 4481,
  "xbb": 4482,
  "gnX": 4483,
  "ptrj": 4484,
  "byt": 4485,
  "rmw": 4486,
  "gAbw": 4487,
  "sntrj": 4488,
  "nAhA": 4489,
  "DAH": 4490,
  "qmAm": 4491,
  "xnS": 4492,
  "qnbw": 4493,
  "hdp": 4494,
  "gbd": 4495,
  "ASn": 4496,
  "aqy": 4497,
  "jsfj": 4498,
  "mq": 4499,
  "DbAw": 4500,
  "qaHw": 4501,
  "afa": 4502,
  "qmq": 4503,
  "dbHw": 4504,
  "tAytj": 4505,
  "waAwj": 4506,
  "bgAs": 4507,
  "maDA": 4508,
  "swAgA": 4509,
  "nHt": 4510,
  "DAma": 4511,
  "sdbw": 4512,
  "kyj": 4513,
  "bAjAwk": 4514,
  "SAbwd": 4515,
  "yab": 4516,
  "wtjjA": 4517,
  "prx": 4518,
  "kaka": 4519,
  "Ddtw": 4520,
  "ssjw": 4521,
  "jtwr": 4522,
  "Hjw": 4523,
  "aHwwtj": 4524,
  "Snwj": 4525,
  "HAqA": 4526,
  "stb": 4527,
  "SAS": 4528,
  "xwA": 4529,
  "smAw": 4530,
  "btAw": 4531,
  "xjxj": 4532,
  "swst": 4533,
  "snsnj": 4534,
  "swsn": 4535,
  "mHwn": 4536,
  "snjk": 4537,
  "xtjw": 4538,
  "rdm": 4539,
  "nSAw": 4540,
  "sAh": 4541,
  "sAks": 4542,
  "jbsA": 4543,
  "jnbj": 4544,
  "tbs": 4545,
  "gngn": 4546,
  "Hns": 4547,
  "hbi": 4548,
  "awAw": 4549,
  "DAt": 4550,
  "aAg": 4551,
  "nsj": 4552,
  "arry": 4553,
  "sgrg": 4554,
  "sXm": 4555,
  "HAg": 4556,
  "sAjr": 4557,
  "fdq": 4558,
  "tAtmw": 4559,
  "wDnw": 4560,
  "jnHr": 4561,
  "Su": 4562,
  "jAtjw": 4563,
  "sXn": 4564,
  "Dfi": 4565,
  "ssj": 4566,
  "rsfy": 4567,
  "srH": 4568,
  "wbD": 4569,
  "yHA": 4570,
  "mHH": 4571,
  "qAmd": 4572,
  "bAgA": 4573,
  "mwnf": 4574,
  "mbb": 4575,
  "sAk": 4576,
  "dAr": 4577,
  "mnh": 4578,
  "Hmtj": 4579,
  "msyw": 4580,
  "tjwt": 4581,
  "jnnA": 4582,
  "snnj": 4583,
  "snwy": 4584,
  "jrA": 4585,
  "mf": 4586,
  "Tss": 4587,
  "bnrj": 4588,
  "makj": 4589,
  "Hmy": 4590,
  "mnqw": 4591,
  "mtrj": 4592,
  "aAgA": 4593,
  "sdwA": 4594,
  "smSrw": 4595,
  "sHb": 4596,
  "jtHw": 4597,
  "sxx": 4598,
  "Tbww": 4599,
  "wsfA": 4600,
  "Spw": 4601,
  "hAn": 4602,
  "zAtA": 4603,
  "Awt": 4604,
  "Dws": 4605,
  "waa": 4606,
  "xjy": 4607,
  "wgA": 4608,
  "Xnnw": 4609,
  "Smyk": 4610,
  "jxrqyn": 4611,
  "mbA": 4612,
  "xmr": 4613,
  "Thi": 4614,
  "amw": 4615,
  "npj": 4616,
  "txi": 4617,
  "sbb": 4618,
  "wnDj": 4619,
  "mjj": 4620,
  "qmAH": 4621,
  "tSr": 4622,
  "bsbs": 4623,
  "Hqn": 4624,
  "Swbw": 4625,
  "qrja": 4626,
  "sbqA": 4627,
  "aDdj": 4628,
  "Ddfy": 4629,
  "sxwn": 4630,
  "sXi": 4631,
  "aHAwtj": 4632,
  "nrr": 4633,
  "mnfr": 4634,
  "Smsi": 4635,
  "hjj": 4636,
  "wmnj": 4637,
  "sjzy": 4638,
  "mskj": 4639,
  "dnd": 4640,
  "sjH": 4641,
  "shrw": 4642,
  "Xms": 4643,
  "wdb": 4644,
  "sHny": 4645,
  "fs": 4646,
  "prS": 4647,
  "wwj": 4648,
  "rnw": 4649,
  "sSsA": 4650,
  "jzi": 4651,
  "rmAmj": 4652,
  "nsns": 4653,
  "hAm": 4654,
  "Smmy": 4655,
  "sHmy": 4656,
  "rnpj": 4657,
  "Tpw": 4658,
  "rjwhA": 4659,
  "ngy": 4660,
  "sjqr": 4661,
  "srS": 4662,
  "nSnn": 4663,
  "sHAi": 4664,
  "TjA": 4665,
  "xpSj": 4666,
  "pst": 4667,
  "swASj": 4668,
  "Smj": 4669,
  "bxtn": 4670,
  "Han": 4671,
  "xfd": 4672,
  "jwm": 4673,
  "wAwAj": 4674,
  "axAy": 4675,
  "HnwH": 4676,
  "thwh": 4677,
  "sTT": 4678,
  "sjd": 4679,
  "Tnh": 4680,
  "snwH": 4681,
  "sxwz": 4682,
  "sxws": 4683,
  "Hrrwt": 4684,
  "tfrr": 4685,
  "zAhr": 4686,
  "nTT": 4687,
  "SAAw": 4688,
  "msDmw": 4689,
  "khb": 4690,
  "swAwA": 4691,
  "jss": 4692,
  "kmwj": 4693,
  "bwA": 4694,
  "AwA": 4695,
  "mAjr": 4696,
  "xnrt": 4697,
  "aqaq": 4698,
  "smHr": 4699,
  "mdnw": 4700,
  "aHar": 4701,
  "wwtj": 4702,
  "wAy": 4703,
  "tfnw": 4704,
  "mahn": 4705,
  "pxpx": 4706,
  "qrjw": 4707,
  "Diw": 4708,
  "rqA": 4709,
  "twAhA": 4710,
  "nAyw": 4711,
  "pAyw": 4712,
  "tAyw": 4713,
  "aSgAjw": 4714,
  "Aafj": 4715,
  "dby": 4716,
  "Safj": 4717,
  "XaA": 4718,
  "tSjw": 4719,
  "tfjw": 4720,
  "dnm": 4721,
  "Hnwtj": 4722,
  "whnj": 4723,
  "jAbi": 4724,
  "maXr": 4725,
  "bAy": 4726,
  "hArpwy": 4727,
  "rrAwj": 4728,
  "waA": 4729,
  "ntfjw": 4730,
  "Tfjdn": 4731,
  "gAj": 4732,
  "Adp": 4733,
  "gATA": 4734,
  "marj": 4735,
  "jHdjy": 4736,
  "sXy": 4737,
  "aSaS": 4738,
  "ntfj": 4739,
  "wsdn": 4740,
  "dHAy": 4741,
  "maDAy": 4742,
  "swxAx": 4743,
  "pAwtjw": 4744,
  "TnH": 4745,
  "pxAd": 4746,
  "twhA": 4747,
  "jaanj": 4748,
  "madn": 4749,
  "jaanjj": 4750,
  "mxAy": 4751,
  "dxj": 4752,
  "swHw": 4753,
  "mak": 4754,
  "aSgAj": 4755,
  "Hba": 4756,
  "Dnw": 4757,
  "Xnwnn": 4758,
  "HtAy": 4759,
  "Verb": 4760,
  "srfy": 4761,
  "sbjA": 4762,
  "pjTA": 4763,
  "Hjy": 4764,
  "kd": 4765,
  "DArA": 4766,
  "Smsw": 4767,
  "DrjDrj": 4768,
  "sDAy": 4769,
  "gH": 4770,
  "kfkfA": 4771,
  "Xpn": 4772,
  "rby": 4773,
  "jTAy": 4774,
  "Abwy": 4775,
  "jTy": 4776,
  "mstwj": 4777,
  "swai": 4778,
  "tgA": 4779,
  "mads": 4780,
  "HmHm": 4781,
  "Snay": 4782,
  "baTn": 4783,
  "wjsj": 4784,
  "trw": 4785,
  "dbw": 4786,
  "sgAy": 4787,
  "sAwt": 4788,
  "ytx": 4789,
  "wstnj": 4790,
  "sjm": 4791,
  "jsx": 4792,
  "Sdjw": 4793,
  "akk": 4794,
  "Tsjs": 4795,
  "gASj": 4796,
  "sAy": 4797,
  "ADA": 4798,
  "jsp": 4799,
  "nss": 4800,
  "abXbX": 4801,
  "tkr": 4802,
  "bTn": 4803,
  "hapj": 4804,
  "sTnn": 4805,
  "XT": 4806,
  "Ayt": 4807,
  "ssmt": 4808,
  "bsy": 4809,
  "atj": 4810,
  "sTsi": 4811,
  "axy": 4812,
  "hAnA": 4813,
  "nfaj": 4814,
  "ptjrA": 4815,
  "gnnw": 4816,
  "TAtj": 4817,
  "TAtn": 4818,
  "Hnky": 4819,
  "wsrw": 4820,
  "mkj": 4821,
  "mHrj": 4822,
  "Hjtjw": 4823,
  "sjrA": 4824,
  "wxAw": 4825,
  "Hqrj": 4826,
  "Xsj": 4827,
  "HAs": 4828,
  "XArw": 4829,
  "sjrAtj": 4830,
  "xAytj": 4831,
  "mgg": 4832,
  "sjbA": 4833,
  "Hsy": 4834,
  "djA": 4835,
  "snTrj": 4836,
  "HDtj": 4837,
  "kHss": 4838,
  "sTnj": 4839,
  "mhAj": 4840,
  "swbA": 4841,
  "rssj": 4842,
  "Tsw": 4843,
  "wDd": 4844,
  "qH": 4845,
  "snnw": 4846,
  "rdw": 4847,
  "Ayw": 4848,
  "SmAm": 4849,
  "stnj": 4850,
  "bAgsw": 4851,
  "TArj": 4852,
  "tfj": 4853,
  "aHwtj": 4854,
  "ytj": 4855,
  "mkk": 4856,
  "kafw": 4857,
  "nxtv": 4858,
  "xprpw": 4859,
  "HDnw": 4860,
  "aDAw": 4861,
  "sXrj": 4862,
  "mntw": 4863,
  "maAr": 4864,
  "mAyw": 4865,
  "Dbb": 4866,
  "wHf": 4867,
  "mzj": 4868,
  "jtrw": 4869,
  "sgg": 4870,
  "makHA": 4871,
  "Hwry": 4872,
  "sjni": 4873,
  "npl": 4874,
  "mXrj": 4875,
  "tjHnw": 4876,
  "rsw": 4877,
  "tmw": 4878,
  "ka": 4879,
  "dmAm": 4880,
  "ksy": 4881,
  "Spssj": 4882,
  "sxntj": 4883,
  "DarA": 4884,
  "mjnyw": 4885,
  "ktt": 4886,
  "Darj": 4887,
  "jAyd": 4888,
  "bStj": 4889,
  "xfaw": 4890,
  "jaS": 4891,
  "bjAy": 4892,
  "Thb": 4893,
  "rSw": 4894,
  "xntSj": 4895,
  "Dfy": 4896,
  "bAndw": 4897,
  "gAbi": 4898,
  "nDn": 4899,
  "tjtw": 4900,
  "TjTj": 4901,
  "aqi": 4902,
  "Aaf": 4903,
  "sxsx": 4904,
  "ngAb": 4905,
  "jyAyi": 4906,
  "mtrwy": 4907,
  "tff": 4908,
  "Agsw": 4909,
  "Tkw": 4910,
  "whAnj": 4911,
  "snhA": 4912,
  "wSAwSA": 4913,
  "XAm": 4914,
  "qmnn": 4915,
  "sbAy": 4916,
  "DAmw": 4917,
  "bAnd": 4918,
  "kwy": 4919,
  "kSj": 4920,
  "aAmj": 4921,
  "qsj": 4922,
  "sxrw": 4923,
  "sAsA": 4924,
  "batn": 4925,
  "SAq": 4926,
  "wawy": 4927,
  "sgAb": 4928,
  "gry": 4929,
  "msbb": 4930,
  "gAgA": 4931,
  "mkHAy": 4932,
  "tjmHj": 4933,
  "sqrj": 4934,
  "xAwy": 4935,
  "pzx": 4936,
  "nftft": 4937,
  "mAaw": 4938,
  "xnjt": 4939,
  "sHai": 4940,
  "DAb": 4941,
  "anan": 4942,
  "kmj": 4943,
  "wDn": 4944,
  "rg": 4945,
  "jArw": 4946,
  "sdH": 4947,
  "grt": 4948,
  "rqi": 4949,
  "jsi": 4950,
  "mntwf": 4951,
  "stjmw": 4952,
  "wDfA": 4953,
  "nSjw": 4954,
  "dmw": 4955,
  "rmy": 4956,
  "sxAy": 4957,
  "xxwj": 4958,
  "wDAy": 4959,
  "nDsj": 4960,
  "jwpj": 4961,
  "stnw": 4962,
  "sbqj": 4963,
  "sbw": 4964,
  "DAhA": 4965,
  "grw": 4966,
  "wgAj": 4967,
  "bjnw": 4968,
  "wnDwj": 4969,
  "mahAw": 4970,
  "bAgAy": 4971,
  "pfAw": 4972,
  "zby": 4973,
  "stwA": 4974,
  "Atw": 4975,
  "jbAj": 4976,
  "rww": 4977,
  "wnSw": 4978,
  "jshAb": 4979,
  "wnSjw": 4980,
  "xtf": 4981,
  "qwqw": 4982,
  "nmtA": 4983,
  "xnpj": 4984,
  "sbjwk": 4985,
  "swsr": 4986,
  "smAjr": 4987,
  "ksm": 4988,
  "qAbs": 4989,
  "sndw": 4990,
  "kAwj": 4991,
  "bxnw": 4992,
  "gAHsj": 4993,
  "Dhn": 4994,
  "TwjA": 4995,
  "sbjAt": 4996,
  "makA": 4997,
  "pXrw": 4998,
  "nxwj": 4999,
  "manfw": 5000,
  "Xdr": 5001,
  "pHtj": 5002,
  "ntnw": 5003,
  "sand": 5004,
  "Xss": 5005,
  "nDy": 5006,
  "jAS": 5007,
  "sDw": 5008,
  "skn": 5009,
  "ndri": 5010,
  "ngb": 5011,
  "mdwy": 5012,
  "XsA": 5013,
  "whh": 5014,
  "bjTw": 5015,
  "sHDn": 5016,
  "sdbj": 5017,
  "TAwy": 5018,
  "bqbq": 5019,
  "anay": 5020,
  "aqAA": 5021,
  "sSsr": 5022,
  "pfA": 5023,
  "nrA": 5024,
  "nbsj": 5025,
  "Aaanj": 5026,
  "tftf": 5027,
  "Xpj": 5028,
  "mSay": 5029,
  "ggwi": 5030,
  "inb": 5031,
  "wSbwj": 5032,
  "DAjw": 5033,
  "sabA": 5034,
  "mzi": 5035,
  "sSzp": 5036,
  "yhy": 5037,
  "xnmsw": 5038,
  "Xnwj": 5039,
  "xwD": 5040,
  "xnsA": 5041,
  "mAtjr": 5042,
  "sdg": 5043,
  "jrtjw": 5044,
  "swnnw": 5045,
  "rsfj": 5046,
  "xDw": 5047,
  "mrwH": 5048,
  "bAnn": 5049,
  "afA": 5050,
  "rnwy": 5051,
  "sfw": 5052,
  "jbkA": 5053,
  "kmt": 5054,
  "wra": 5055,
  "krAStw": 5056,
  "hmAA": 5057,
  "mAHw": 5058,
  "jdnpl": 5059,
  "qnnj": 5060,
  "xpnn": 5061,
  "wgAs": 5062,
  "jmskA": 5063,
  "tjHwt": 5064,
  "pAwr": 5065,
  "sfr": 5066,
  "pss": 5067,
  "mAHj": 5068,
  "Awy": 5069,
  "nxnm": 5070,
  "tTj": 5071,
  "tjwnj": 5072,
  "mSrA": 5073,
  "jpwj": 5074,
  "jTmw": 5075,
  "tfAj": 5076,
  "rwjAj": 5077,
  "aDjaDj": 5078,
  "jsjy": 5079,
  "pqA": 5080,
  "nmaw": 5081,
  "nXa": 5082,
  "sHwj": 5083,
  "qdf": 5084,
  "xmmj": 5085,
  "wHmm": 5086,
  "sXAk": 5087,
  "ktxj": 5088,
  "nkAj": 5089,
  "rtjw": 5090,
  "janw": 5091,
  "sgrj": 5092,
  "sxnj": 5093,
  "Atpw": 5094,
  "Dnwd": 5095,
  "rqw": 5096,
  "XAbb": 5097,
  "jpA": 5098,
  "sjTn": 5099,
  "ssH": 5100,
  "jpwy": 5101,
  "wAsi": 5102,
  "skrj": 5103,
  "bjbj": 5104,
  "njsj": 5105,
  "Xrdw": 5106,
  "wyt": 5107,
  "jwhA": 5108,
  "saAm": 5109,
  "Hrrj": 5110,
  "dqw": 5111,
  "kAhAb": 5112,
  "hAbnj": 5113,
  "Adm": 5114,
  "faA": 5115,
  "sna": 5116,
  "njwj": 5117,
  "TAhmw": 5118,
  "gmHj": 5119,
  "nbdj": 5120,
  "sAgnn": 5121,
  "swxA": 5122,
  "sSmw": 5123,
  "Tkn": 5124,
  "TArw": 5125,
  "kAhs": 5126,
  "jdnw": 5127,
  "pgz": 5128,
  "tjntjn": 5129,
  "sHnw": 5130,
  "smAwj": 5131,
  "bmbw": 5132,
  "jrs": 5133,
  "Tfrr": 5134,
  "Tby": 5135,
  "bnrnj": 5136,
  "mstjw": 5137,
  "hAnn": 5138,
  "wAtmAm": 5139,
  "sHwrj": 5140,
  "An": 5141,
  "dHt": 5142,
  "jfdj": 5143,
  "Af": 5144,
  "Hi": 5145,
  "snxx": 5146,
  "saHA": 5147,
  "shp": 5148,
  "xrm": 5149,
  "dHAj": 5150,
  "nxv": 5151,
  "nhAw": 5152,
  "sajw": 5153,
  "sdwn": 5154,
  "jswA": 5155,
  "jwsA": 5156,
  "kAjA": 5157,
  "mDAy": 5158,
  "sswr": 5159,
  "sfnd": 5160,
  "bwSA": 5161,
  "tSjA": 5162,
  "gAbsbs": 5163,
  "mXAw": 5164,
  "wnmw": 5165,
  "kApw": 5166,
  "aAd": 5167,
  "nyw": 5168,
  "Afj": 5169,
  "ywt": 5170,
  "btk": 5171,
  "ssnDm": 5172,
  "kfAt": 5173,
  "tmAm": 5174,
  "dgAy": 5175,
  "pwtrj": 5176,
  "swnu": 5177,
  "nfAj": 5178,
  "sHAw": 5179,
  "snHA": 5180,
  "wDHw": 5181,
  "SwAw": 5182,
  "HntA": 5183,
  "ApH": 5184,
  "tnbwX": 5185,
  "trp": 5186,
  "sqAHA": 5187,
  "jAaS": 5188,
  "dsj": 5189,
  "zAtw": 5190,
  "smAmw": 5191,
  "bwAw": 5192,
  "HAtjw": 5193,
  "nxtw": 5194,
  "Hsbw": 5195,
  "DwDw": 5196,
  "zHy": 5197,
  "Trr": 5198,
  "jaf": 5199,
  "prjs": 5200,
  "rfr": 5201,
  "pwi": 5202,
  "sxf": 5203,
  "HaDA": 5204,
  "rksw": 5205,
  "krA": 5206,
  "jspA": 5207,
  "jsbw": 5208,
  "fdtj": 5209,
  "saqA": 5210,
  "tby": 5211,
  "Snwy": 5212,
  "gAnn": 5213,
  "Smr": 5214,
  "ntwt": 5215,
  "msdj": 5216,
  "Xi": 5217,
  "Arw": 5218,
  "sXp": 5219,
  "ip": 5220,
  "xD": 5221,
  "aDAj": 5222,
  "wDj": 5223,
  "Dan": 5224,
  "arfj": 5225,
  "nhAy": 5226,
  "sDmj": 5227,
  "wAHj": 5228,
  "kpw": 5229,
  "aDdjw": 5230,
  "jwp": 5231,
  "tmj": 5232,
  "DddnnA": 5233,
  "grj": 5234,
  "bAkjwj": 5235,
  "sgA": 5236,
  "HtAw": 5237,
  "irA": 5238,
  "DbAj": 5239,
  "wDAj": 5240,
  "jwpw": 5241,
  "kmnw": 5242,
  "mstA": 5243,
  "jtHwj": 5244,
  "DAyj": 5245,
  "yj": 5246,
  "bjnrj": 5247,
  "mjmj": 5248,
  "Ddt": 5249,
  "aHw": 5250,
  "HfAw": 5251,
  "jTAw": 5252,
  "SAbd": 5253,
  "baj": 5254,
  "SAyt": 5255,
  "rhnj": 5256,
  "bAqA": 5257,
  "sXk": 5258,
  "Dnm": 5259,
  "mxnm": 5260,
  "sqAy": 5261,
  "SAqA": 5262,
  "axw": 5263,
  "astj": 5264,
  "yHj": 5265,
  "ast": 5266,
  "HbH": 5267,
  "bHbH": 5268,
  "jknw": 5269,
  "gAHy": 5270,
  "Afa": 5271,
  "snjnj": 5272,
  "smDd": 5273,
  "Hkk": 5274,
  "znnj": 5275,
  "arqA": 5276,
  "jbSk": 5277,
  "sSsAw": 5278,
  "tjnr": 5279,
  "wgAg": 5280,
  "sDAHy": 5281,
  "sbgA": 5282,
  "Hwraw": 5283,
  "prwx": 5284,
  "hwr": 5285,
  "rjrj": 5286,
  "nxy": 5287,
  "tjttjt": 5288,
  "nqjw": 5289,
  "dks": 5290,
  "xrww": 5291,
  "smi": 5292,
  "axjw": 5293,
  "rrn": 5294,
  "gAygA": 5295,
  "hAbj": 5296,
  "sbhA": 5297,
  "rnpy": 5298,
  "jmDr": 5299,
  "gsm": 5300,
  "tfpt": 5301,
  "aXnwtj": 5302,
  "jwbw": 5303,
  "skmm": 5304,
  "mTpn": 5305,
  "knkf": 5306,
  "rki": 5307,
  "sspd": 5308,
  "jwit": 5309,
  "smnw": 5310,
  "smwn": 5311,
  "xfAA": 5312,
  "hbnj": 5313,
  "Damw": 5314,
  "mfAk": 5315,
  "Xty": 5316,
  "Hrtj": 5317,
  "nbA": 5318,
  "mAm": 5319,
  "xnrj": 5320,
  "HbAbA": 5321,
  "sAXb": 5322,
  "sAXbw": 5323,
  "smsi": 5324,
  "XpA": 5325,
  "jwh": 5326,
  "Tsy": 5327,
  "jsbA": 5328,
  "rssy": 5329,
  "jwms": 5330,
  "tSA": 5331,
  "xdd": 5332,
  "afAj": 5333,
  "wDw": 5334,
  "mAX": 5335,
  "syw": 5336,
  "Xma": 5337,
  "jSnn": 5338,
  "wtA": 5339,
  "mstp": 5340,
  "smsr": 5341,
  "nft": 5342,
  "antjw": 5343,
  "aab": 5344,
  "bngA": 5345,
  "dfA": 5346,
  "jyH": 5347,
  "mrd": 5348,
  "mAwA": 5349,
  "mAaq": 5350,
  "ttt": 5351,
  "ssbi": 5352,
  "nayA": 5353,
  "xAp": 5354,
  "jgAj": 5355,
  "sSj": 5356,
  "gAHsy": 5357,
  "rhni": 5358,
  "xnDr": 5359,
  "hAqA": 5360,
  "sDwy": 5361,
  "jra": 5362,
  "tjHw": 5363,
  "hAf": 5364,
  "XAA": 5365,
  "DrDrj": 5366,
  "dmdm": 5367,
  "shrr": 5368,
  "jssj": 5369,
  "jzw": 5370,
  "dgg": 5371,
  "zAAw": 5372,
  "nDsw": 5373,
  "bjTtw": 5374,
  "TAtjw": 5375,
  "sfnw": 5376,
  "Ahw": 5377,
  "kpn": 5378,
  "HAwy": 5379,
  "Hnti": 5380,
  "Axf": 5381,
  "Hwnj": 5382,
  "dupl": 5383,
  "kSwj": 5384,
  "mjaHa": 5385,
  "nSp": 5386,
  "nfw": 5387,
  "pnn": 5388,
  "hhb": 5389,
  "wft": 5390,
  "xAbw": 5391,
  "skAw": 5392,
  "HAmw": 5393,
  "SwAww": 5394,
  "whb": 5395,
  "amy": 5396,
  "psst": 5397,
  "aAgAs": 5398,
  "aAgAsw": 5399,
  "mSrw": 5400,
  "hAnw": 5401,
  "sarw": 5402,
  "ntwjw": 5403,
  "sfrnfr": 5404,
  "matn": 5405,
  "bpA": 5406,
  "bAtA": 5407,
  "sAkA": 5408,
  "mxAjw": 5409,
  "rwjw": 5410,
  "mnfA": 5411,
  "mntst": 5412,
  "Hwtj": 5413,
  "nxnj": 5414,
  "awtj": 5415,
  "maxA": 5416,
  "pAfj": 5417,
  "dHrj": 5418,
  "sxAs": 5419,
  "pwgA": 5420,
  "naj": 5421,
  "tmmw": 5422,
  "aqj": 5423,
  "qfAw": 5424,
  "jmzw": 5425,
  "dHrjw": 5426,
  "pttj": 5427,
  "bDn": 5428,
  "DAbqbq": 5429,
  "jAhreszeit": 5430,
  "xnmy": 5431,
  "aXnw": 5432,
  "wHn": 5433,
  "dnjt": 5434,
  "qf": 5435,
  "smAj": 5436,
  "kwms": 5437,
  "Sbnw": 5438,
  "snsw": 5439,
  "sSnw": 5440,
  "Sby": 5441,
  "ThA": 5442,
  "sks": 5443,
  "sHH": 5444,
  "Dwy": 5445,
  "xnws": 5446,
  "kttA": 5447,
  "ntwf": 5448,
  "mjnA": 5449,
  "aqAy": 5450,
  "stk": 5451,
  "AX": 5452,
  "jrf": 5453,
  "hArpw": 5454,
  "nrAw": 5455,
  "HDj": 5456,
  "pjs": 5457,
  "pwaa": 5458,
  "kAmy": 5459,
  "manA": 5460,
  "XTb": 5461,
  "HmAmy": 5462,
  "nwHH": 5463,
  "shbu": 5464,
  "Djw": 5465,
  "Hsm": 5466,
  "Dsnw": 5467,
  "smHj": 5468,
  "sAww": 5469,
  "bkk": 5470,
  "snhj": 5471,
  "HAr": 5472,
  "wgAsw": 5473,
  "sqAs": 5474,
  "swDb": 5475,
  "aDj": 5476,
  "kAwtj": 5477,
  "pns": 5478,
  "Ajw": 5479,
  "mHtj": 5480,
  "sAAw": 5481,
  "rdy": 5482,
  "ssAA": 5483,
  "yAd": 5484,
  "Hnytj": 5485,
  "TsjA": 5486,
  "xpwS": 5487,
  "tjnrw": 5488,
  "xpw": 5489,
  "kASy": 5490,
  "zaH": 5491,
  "nnn": 5492,
  "pxr": 5493,
  "Hzk": 5494,
  "znnw": 5495,
  "jwrw": 5496,
  "jwTw": 5497,
  "aSAw": 5498,
  "hhy": 5499,
  "DrDry": 5500,
  "sthi": 5501,
  "sAtw": 5502,
  "prxj": 5503,
  "bwSi": 5504,
  "sswrj": 5505,
  "maXAw": 5506,
  "snni": 5507,
  "mtrtw": 5508,
  "wsfi": 5509,
  "Xri": 5510,
  "wHAm": 5511,
  "thAj": 5512,
  "xabi": 5513,
  "txj": 5514,
  "nDnDtj": 5515,
  "sDrj": 5516,
  "mAaj": 5517,
  "wDAi": 5518,
  "dgAj": 5519,
  "nwjw": 5520,
  "mtmt": 5521,
  "dgAsA": 5522,
  "wgAgg": 5523,
  "rnmm": 5524,
  "sSjsA": 5525,
  "wTsA": 5526,
  "whAn": 5527,
  "jqAt": 5528,
  "Hawjy": 5529,
  "sasa": 5530,
  "tjtwy": 5531,
  "mndjdj": 5532,
  "aAf": 5533,
  "wwt": 5534,
  "dgAsAj": 5535,
  "jAtw": 5536,
  "pHww": 5537,
  "jqA": 5538,
  "HAwt": 5539,
  "SAbdy": 5540,
  "nAHAj": 5541,
  "jwAy": 5542,
  "mntwk": 5543,
  "hrA": 5544,
  "whAy": 5545,
  "sbHy": 5546,
  "ssim": 5547,
  "kAjry": 5548,
  "qbwH": 5549,
  "Harw": 5550,
  "tjwr": 5551,
  "Sfn": 5552,
  "mtrx": 5553,
  "HAaa": 5554,
  "jnit": 5555,
  "twx": 5556,
  "xAbb": 5557,
  "anbr": 5558,
  "tAm": 5559,
  "TnHr": 5560,
  "sgmH": 5561,
  "wbb": 5562,
  "DAbH": 5563,
  "pAqr": 5564,
  "sSmm": 5565,
  "psf": 5566,
  "sSrr": 5567,
  "Xsr": 5568,
  "nmy": 5569,
  "bhnj": 5570,
  "mqAHA": 5571,
  "qmAmw": 5572,
  "DbDb": 5573,
  "rxz": 5574,
  "snjhA": 5575,
  "hapy": 5576,
  "hAru": 5577,
  "xrpw": 5578,
  "njtjt": 5579,
  "wHmy": 5580,
  "wHmj": 5581,
  "XAy": 5582,
  "jwdnb": 5583,
  "XsAj": 5584,
  "tjSps": 5585,
  "SAasx": 5586,
  "mama": 5587,
  "nDHy": 5588,
  "gwf": 5589,
  "dwAww": 5590,
  "wxAxj": 5591,
  "aXi": 5592,
  "kpny": 5593,
  "rtnw": 5594,
  "Ahd": 5595,
  "TAA": 5596,
  "afAy": 5597,
  "nsyw": 5598,
  "Swyt": 5599,
  "Hptj": 5600,
  "mssj": 5601,
  "jyAy": 5602,
  "aqwj": 5603,
  "swnw": 5604,
  "rmny": 5605,
  "gnb": 5606,
  "shtht": 5607,
  "swdn": 5608,
  "mdHw": 5609,
  "mAtw": 5610,
  "sAtj": 5611,
  "pnA": 5612,
  "kpnA": 5613,
  "tjmHy": 5614,
  "ztjw": 5615,
  "khAb": 5616,
  "swy": 5617,
  "afAw": 5618,
  "Thn": 5619,
  "jxw": 5620,
  "Hsbp": 5621,
  "rhAn": 5622,
  "nbtj": 5623,
  "mntjw": 5624,
  "jAbD": 5625,
  "qaHj": 5626,
  "StSt": 5627,
  "HmAg": 5628,
  "mSS": 5629,
  "DHtj": 5630,
  "qAm": 5631,
  "TmpAw": 5632,
  "Asx": 5633,
  "DAssw": 5634,
  "tjHA": 5635,
  "mSaq": 5636,
  "DHaa": 5637,
  "xswD": 5638,
  "mSdd": 5639,
  "Shr": 5640,
  "Tntm": 5641,
  "kSw": 5642,
  "jsmA": 5643,
  "jwAj": 5644,
  "jAsy": 5645,
  "SnDd": 5646,
  "wns": 5647,
  "sAp": 5648,
  "hAmw": 5649,
  "mmw": 5650,
  "mgw": 5651,
  "jrAw": 5652,
  "bAxn": 5653,
  "rTnw": 5654,
  "wATj": 5655,
  "kbnj": 5656,
  "mAkj": 5657,
  "dmjr": 5658,
  "ATj": 5659,
  "wAT": 5660,
  "hbAy": 5661,
  "wAjT": 5662,
  "jspw": 5663,
  "aAgsw": 5664,
  "Atjwt": 5665,
  "awnw": 5666,
  "txbw": 5667,
  "rwwj": 5668,
  "strj": 5669,
  "sAmt": 5670,
  "SfS": 5671,
  "ntri": 5672,
  "sxnw": 5673,
  "jnHw": 5674,
  "grm": 5675,
  "spnj": 5676,
  "msnb": 5677,
  "nSj": 5678,
  "sksky": 5679,
  "tjwrj": 5680,
  "nsA": 5681,
  "mAmw": 5682,
  "Hbsj": 5683,
  "sgAbw": 5684,
  "ssxm": 5685,
  "Sfi": 5686,
  "sAHn": 5687,
  "hAkjr": 5688,
  "pqj": 5689,
  "sbT": 5690,
  "nxnw": 5691,
  "jddj": 5692,
  "sHmm": 5693,
  "kmtw": 5694,
  "mnk": 5695,
  "hqs": 5696,
  "TbTb": 5697,
  "kywy": 5698,
  "rSy": 5699,
  "wyw": 5700,
  "nxp": 5701,
  "swrH": 5702,
  "qAqAw": 5703,
  "AjwAj": 5704,
  "qnq": 5705,
  "pnana": 5706,
  "ywm": 5707,
  "saD": 5708,
  "nDmj": 5709,
  "zAy": 5710,
  "rbw": 5711,
  "jyjj": 5712,
  "ptry": 5713,
  "stAw": 5714,
  "Hmaw": 5715,
  "zwrj": 5716,
  "jwtw": 5717,
  "sSwASwA": 5718,
  "whAb": 5719,
  "kaf": 5720,
  "wawf": 5721,
  "Tbn": 5722,
  "bwp": 5723,
  "dwnj": 5724,
  "mnwy": 5725,
  "jsHmw": 5726,
  "xArj": 5727,
  "bwpwy": 5728,
  "mrsw": 5729,
  "sgrA": 5730,
  "bnjw": 5731,
  "mas": 5732,
  "swti": 5733,
  "jtnw": 5734,
  "bwj": 5735,
  "jntnt": 5736,
  "spp": 5737,
  "HAqAj": 5738,
  "Smjw": 5739,
  "wrrw": 5740,
  "nhAp": 5741,
  "Abdww": 5742,
  "bwAy": 5743,
  "andw": 5744,
  "qdfA": 5745,
  "HmAmw": 5746,
  "Swwj": 5747,
  "pnqA": 5748,
  "Awmw": 5749,
  "nAHA": 5750,
  "shAd": 5751,
  "TATA": 5752,
  "gnA": 5753,
  "pSs": 5754,
  "qbA": 5755,
  "jmtj": 5756,
  "shri": 5757,
  "jsjsj": 5758,
  "rhr": 5759,
  "sSAw": 5760,
  "On": 5761,
  "mjnAj": 5762,
  "as": 5763,
  "DrjDr": 5764,
  "qAjA": 5765,
  "rwhAwj": 5766,
  "hAbwj": 5767,
  "tnhA": 5768,
  "rwjj": 5769,
  "sqHA": 5770,
  "grgj": 5771,
  "txw": 5772,
  "maSa": 5773,
  "qAHA": 5774,
  "rh": 5775,
  "smAmA": 5776,
  "rjd": 5777,
  "jxjx": 5778,
  "sdAdA": 5779,
  "rjj": 5780,
  "tbi": 5781,
  "sbjk": 5782,
  "mtt": 5783,
  "gmy": 5784,
  "swqj": 5785,
  "Abu": 5786,
  "wrSww": 5787,
  "bnS": 5788,
  "qrjaw": 5789,
  "swtX": 5790,
  "sAjw": 5791,
  "jnhA": 5792,
  "wtywt": 5793,
  "XnX": 5794,
  "ajw": 5795,
  "jwrrj": 5796,
  "snjw": 5797,
  "wbw": 5798,
  "DdHw": 5799,
  "jsds": 5800,
  "njAj": 5801,
  "sDdm": 5802,
  "sjnd": 5803,
  "jAxw": 5804,
  "tfA": 5805,
  "sxar": 5806,
  "ssbt": 5807,
  "XawAy": 5808,
  "kftjw": 5809,
  "jsA": 5810,
  "tjH": 5811,
  "saqw": 5812,
  "wgAw": 5813,
  "sSrw": 5814,
  "makw": 5815,
  "msr": 5816,
  "jxnm": 5817,
  "pjAy": 5818,
  "Smsj": 5819,
  "mnjA": 5820,
  "rSwj": 5821,
  "dpwHw": 5822,
  "djn": 5823,
  "qHj": 5824,
  "sAqA": 5825,
  "bArs": 5826,
  "SAbw": 5827,
  "sxAxj": 5828,
  "bqA": 5829,
  "rAy": 5830,
  "Awsw": 5831,
  "Ddv": 5832,
  "kh": 5833,
  "brbr": 5834,
  "swni": 5835,
  "nHsy": 5836,
  "SArS": 5837,
  "SAsw": 5838,
  "whAsj": 5839,
  "hdhd": 5840,
  "SAdA": 5841,
  "ak": 5842,
  "Xajw": 5843,
  "kAmw": 5844,
  "mpa": 5845,
  "stpw": 5846,
  "mtrw": 5847,
  "sssw": 5848,
  "jsqA": 5849,
  "ssbj": 5850,
  "sbbA": 5851,
  "wSS": 5852,
  "mqj": 5853,
  "sfnA": 5854,
  "smHi": 5855,
  "aAgs": 5856,
  "sxwsj": 5857,
  "aSqj": 5858,
  "ddy": 5859,
  "sAg": 5860,
  "shAw": 5861,
  "aDdw": 5862,
  "rrmw": 5863,
  "rwr": 5864,
  "ngAjj": 5865,
  "dHAwj": 5866,
  "mkA": 5867,
  "amAmw": 5868,
  "wdpw": 5869,
  "wHaw": 5870,
  "Dns": 5871,
  "hbnn": 5872,
  "mrx": 5873,
  "tX": 5874,
  "sjdd": 5875,
  "kft": 5876,
  "AaanA": 5877,
  "mDri": 5878,
  "jbx": 5879,
  "tjaAm": 5880,
  "wnSj": 5881,
  "qst": 5882,
  "amaa": 5883,
  "SAmswt": 5884,
  "hAbq": 5885,
  "bxb": 5886,
  "nhAA": 5887,
  "Thw": 5888,
  "sXnk": 5889,
  "hbAq": 5890,
  "HmAy": 5891,
  "gz": 5892,
  "Ajs": 5893,
  "HntAsw": 5894,
  "mtm": 5895,
  "qAmy": 5896,
  "zrm": 5897,
  "zam": 5898,
  "tjam": 5899,
  "aam": 5900,
  "psgA": 5901,
  "Add": 5902,
  "tmtm": 5903,
  "tHwj": 5904,
  "mhAwt": 5905,
  "dgAm": 5906,
  "apS": 5907,
  "xnsAy": 5908,
  "SAms": 5909,
  "SAmst": 5910,
  "mht": 5911,
  "grS": 5912,
  "jnby": 5913,
  "jnjwy": 5914,
  "kfAwj": 5915,
  "dbj": 5916,
  "tAf": 5917,
  "jbrj": 5918,
  "wHay": 5919,
  "sXb": 5920,
  "nsy": 5921,
  "jnnk": 5922,
  "Ddtj": 5923,
  "Amy": 5924,
  "thAb": 5925,
  "gAsf": 5926,
  "pfsi": 5927,
  "hAwv": 5928,
  "hAbu": 5929,
  "AgAp": 5930,
  "Drn": 5931,
  "jswt": 5932,
  "wjv": 5933,
  "nxwf": 5934,
  "Snaw": 5935,
  "pHD": 5936,
  "aDw": 5937,
  "mnDr": 5938,
  "Sfu": 5939,
  "nara": 5940,
  "nssq": 5941,
  "hdm": 5942,
  "aff": 5943,
  "mHs": 5944,
  "mjm": 5945,
  "Spnn": 5946,
  "fD": 5947,
  "kzi": 5948,
  "wfAw": 5949,
  "rhd": 5950,
  "nHd": 5951,
  "njwjw": 5952,
  "Stjw": 5953,
  "gAbg": 5954,
  "Hfrn": 5955,
  "snhp": 5956,
  "tjHwj": 5957,
  "gy": 5958,
  "tpA": 5959,
  "sArj": 5960,
  "jmms": 5961,
  "mhwj": 5962,
  "srmw": 5963,
  "bsn": 5964,
  "jrHnn": 5965,
  "Hpapa": 5966,
  "tjHwA": 5967,
  "njAjA": 5968,
  "sawA": 5969,
  "SAmy": 5970,
  "sgn": 5971,
  "swS": 5972,
  "msDm": 5973,
  "didi": 5974,
  "wtnt": 5975,
  "Dtf": 5976,
  "anb": 5977,
  "TjAtj": 5978,
  "srdd": 5979,
  "Xpa": 5980,
  "rb": 5981,
  "amj": 5982,
  "gsfn": 5983,
  "tStS": 5984,
  "bnf": 5985,
  "SASAy": 5986,
  "tmt": 5987,
  "Spty": 5988,
  "msjn": 5989,
  "Hpa": 5990,
  "brwt": 5991,
  "nhq": 5992,
  "XpAw": 5993,
  "pHd": 5994,
  "hnwy": 5995,
  "sfi": 5996,
  "pAwa": 5997,
  "anar": 5998,
  "dgm": 5999,
  "tHwA": 6000,
  "tyj": 6001,
  "sjArr": 6002,
  "swmt": 6003,
  "mnDj": 6004,
  "xzd": 6005,
  "xmAA": 6006,
  "Hws": 6007,
  "mjkA": 6008,
  "swSr": 6009,
  "Afr": 6010,
  "naAD": 6011,
  "thb": 6012,
  "ngi": 6013,
  "mnsA": 6014,
  "pAjs": 6015,
  "Sfw": 6016,
  "nfnfn": 6017,
  "sTAs": 6018,
  "mjy": 6019,
  "qrw": 6020,
  "Spsy": 6021,
  "zXr": 6022,
  "qmjA": 6023,
  "gAp": 6024,
  "aaAm": 6025,
  "fgn": 6026,
  "mnwH": 6027,
  "nDADA": 6028,
  "sjnw": 6029,
  "snDADAw": 6030,
  "DAa": 6031,
  "jwb": 6032,
  "Hrwr": 6033,
  "jnhmnj": 6034,
  "hbq": 6035,
  "sgm": 6036,
  "kmw": 6037,
  "hq": 6038,
  "Stt": 6039,
  "bsw": 6040,
  "zXi": 6041,
  "tmy": 6042,
  "Hdq": 6043,
  "tntn": 6044,
  "apSA": 6045,
  "Hnp": 6046,
  "bqn": 6047,
  "zpy": 6048,
  "dqA": 6049,
  "Hmk": 6050,
  "HArr": 6051,
  "qAhd": 6052,
  "nfd": 6053,
  "Szr": 6054,
  "aafi": 6055,
  "sTr": 6056,
  "Hbd": 6057,
  "yH": 6058,
  "Skr": 6059,
  "sbd": 6060,
  "AXp": 6061,
  "jStt": 6062,
  "khA": 6063,
  "DAhj": 6064,
  "ynktwn": 6065,
  "Dmtn": 6066,
  "njywbn": 6067,
  "hAwt": 6068,
  "mrHw": 6069,
  "wjyt": 6070,
  "Spy": 6071,
  "jAjr": 6072,
  "jnsj": 6073,
  "DArj": 6074,
  "jnwn": 6075,
  "sbtty": 6076,
  "drgy": 6077,
  "mhwt": 6078,
  "pdd": 6079,
  "hbj": 6080,
  "nag": 6081,
  "wADH": 6082,
  "Hkwn": 6083,
  "srwjj": 6084,
  "rkrk": 6085,
  "nHbw": 6086,
  "spna": 6087,
  "HAwr": 6088,
  "jwSS": 6089,
  "qrjA": 6090,
  "kki": 6091,
  "mhA": 6092,
  "nhdhd": 6093,
  "npApA": 6094,
  "Aht": 6095,
  "ntn": 6096,
  "bAi": 6097,
  "nHD": 6098,
  "bkn": 6099,
  "gmA": 6100,
  "gwS": 6101,
  "HAHA": 6102,
  "tmwt": 6103,
  "snwr": 6104,
  "Dnb": 6105,
  "jmjr": 6106,
  "mahwj": 6107,
  "Amaw": 6108,
  "nDz": 6109,
  "rdwt": 6110,
  "Hswt": 6111,
  "nqp": 6112,
  "wbAw": 6113,
  "pzgA": 6114,
  "hAdm": 6115,
  "HDnDn": 6116,
  "XAXA": 6117,
  "nhwnhw": 6118,
  "mxntj": 6119,
  "zxm": 6120,
  "sDdj": 6121,
  "nmja": 6122,
  "kHb": 6123,
  "rSpw": 6124,
  "znq": 6125,
  "fgA": 6126,
  "qHn": 6127,
  "qwHn": 6128,
  "ypgdd": 6129,
  "jrn": 6130,
  "az": 6131,
  "nHtA": 6132,
  "jrpw": 6133,
  "zSr": 6134,
  "wdnw": 6135,
  "XdXd": 6136,
  "tntm": 6137,
  "tntj": 6138,
  "Dfd": 6139,
  "twbn": 6140,
  "bjdj": 6141,
  "mnww": 6142,
  "jnf": 6143,
  "bdj": 6144,
  "TwTkn": 6145,
  "tAsw": 6146,
  "gAi": 6147,
  "apnn": 6148,
  "dHaHr": 6149,
  "hwhy": 6150,
  "prTrsw": 6151,
  "bart": 6152,
  "nry": 6153,
  "bTw": 6154,
  "bAd": 6155,
  "sjwj": 6156,
  "xASA": 6157,
  "pfss": 6158,
  "swgm": 6159,
  "nDa": 6160,
  "jpSnn": 6161,
  "prA": 6162,
  "rjwm": 6163,
  "wAnb": 6164,
  "jAjrt": 6165,
  "skp": 6166,
  "qtqt": 6167,
  "njDw": 6168,
  "mbj": 6169,
  "nsty": 6170,
  "bHH": 6171,
  "kff": 6172,
  "jdd": 6173,
  "aHi": 6174,
  "amd": 6175,
  "nDHDH": 6176,
  "wjAw": 6177,
  "DnD": 6178,
  "mhh": 6179,
  "sbtt": 6180,
  "jhmw": 6181,
  "swg": 6182,
  "xnsy": 6183,
  "tbt": 6184,
  "Aky": 6185,
  "nzp": 6186,
  "sSAj": 6187,
  "fnwd": 6188,
  "xxj": 6189,
  "it": 6190,
  "anj": 6191,
  "xftj": 6192,
  "sjAT": 6193,
  "Sai": 6194,
  "wara": 6195,
  "dnp": 6196,
  "sbg": 6197,
  "zjw": 6198,
  "xfti": 6199,
  "fngA": 6200,
  "wti": 6201,
  "jAl": 6202,
  "snrjw": 6203,
  "wrHw": 6204,
  "jhmn": 6205,
  "zwnj": 6206,
  "Atwtw": 6207,
  "TzTz": 6208,
  "jgAp": 6209,
  "mjwH": 6210,
  "msntjw": 6211,
  "jwgr": 6212,
  "znk": 6213,
  "zmAi": 6214,
  "jg": 6215,
  "paw": 6216,
  "Smai": 6217,
  "Dzf": 6218,
  "Hapi": 6219,
  "sjq": 6220,
  "wnmi": 6221,
  "Hdd": 6222,
  "hAmm": 6223,
  "apap": 6224,
  "Trt": 6225,
  "wrSS": 6226,
  "xri": 6227,
  "ywA": 6228,
  "Xk": 6229,
  "jAtj": 6230,
  "jnti": 6231,
  "rsi": 6232,
  "Hdt": 6233,
  "kkt": 6234,
  "tnpl": 6235,
  "sdw": 6236,
  "Xnnj": 6237,
  "HnswA": 6238,
  "Hnkz": 6239,
  "annt": 6240,
  "HwtA": 6241,
  "jbs": 6242,
  "psj": 6243,
  "jndb": 6244,
  "Tkm": 6245,
  "qfdn": 6246,
  "Snaa": 6247,
  "tkm": 6248,
  "pAs": 6249,
  "ngng": 6250,
  "kmm": 6251,
  "jAp": 6252,
  "sps": 6253,
  "hT": 6254,
  "xApl": 6255,
  "mmrm": 6256,
  "Hrst": 6257,
  "Anr": 6258,
  "sws": 6259,
  "htA": 6260,
  "Twynn": 6261,
  "HAywj": 6262,
  "twpl": 6263,
  "swpl": 6264,
  "mATA": 6265,
  "pln": 6266,
  "tkAw": 6267,
  "fdw": 6268,
  "jmntj": 6269,
  "twj": 6270,
  "sHqA": 6271,
  "jmnj": 6272,
  "Hdj": 6273,
  "bjb": 6274,
  "Aqdqd": 6275,
  "skmy": 6276,
  "man": 6277,
  "nqf": 6278,
  "twg": 6279,
  "nsq": 6280,
  "npd": 6281,
  "htht": 6282,
  "qHH": 6283,
  "mzHw": 6284,
  "Hnzk": 6285,
  "DHwti": 6286,
  "xbsy": 6287,
  "SAwAb": 6288,
  "xAbA": 6289,
  "Dfj": 6290,
  "mqn": 6291,
  "qAss": 6292,
  "jAHsj": 6293,
  "hAq": 6294,
  "jsdz": 6295,
  "mxnti": 6296,
  "ggA": 6297,
  "rkHy": 6298,
  "sHnn": 6299,
  "zkrj": 6300,
  "tiw": 6301,
  "nhn": 6302,
  "nbdd": 6303,
  "xrsH": 6304,
  "yAkb": 6305,
  "xnnj": 6306,
  "smtmt": 6307,
  "wAmm": 6308,
  "wTn": 6309,
  "wnpp": 6310,
  "gAg": 6311,
  "Axtj": 6312,
  "ib": 6313,
  "mxsf": 6314,
  "AXb": 6315,
  "najw": 6316,
  "ntnt": 6317,
  "sxnS": 6318,
  "Sptj": 6319,
  "sxbx": 6320,
  "pxt": 6321,
  "mnHH": 6322,
  "msms": 6323,
  "TpHw": 6324,
  "jmsT": 6325,
  "rDD": 6326,
  "rrk": 6327,
  "sxwd": 6328,
  "jksj": 6329,
  "Hnmnm": 6330,
  "jsDd": 6331,
  "HbD": 6332,
  "Axy": 6333,
  "zpw": 6334,
  "mAz": 6335,
  "HApp": 6336,
  "wjs": 6337,
  "jfr": 6338,
  "axnj": 6339,
  "dwr": 6340,
  "ywj": 6341,
  "mXnw": 6342,
  "gsti": 6343,
  "ady": 6344,
  "zbzb": 6345,
  "njn": 6346,
  "jArn": 6347,
  "btktk": 6348,
  "jAnrw": 6349,
  "wDf": 6350,
  "tAdu": 6351,
  "zqAi": 6352,
  "hTt": 6353,
  "dnb": 6354,
  "HwAHwA": 6355,
  "sisi": 6356,
  "jsDn": 6357,
  "kAjr": 6358,
  "nXX": 6359,
  "Dsrj": 6360,
  "wsaA": 6361,
  "jnktt": 6362,
  "xpnj": 6363,
  "mAui": 6364,
  "sxaa": 6365,
  "nhz": 6366,
  "aqAn": 6367,
  "jnki": 6368,
  "Srgt": 6369,
  "nngt": 6370,
  "kwrSgt": 6371,
  "rkty": 6372,
  "rpkt": 6373,
  "kxnt": 6374,
  "zrjw": 6375,
  "DaDa": 6376,
  "jnsi": 6377,
  "pSks": 6378,
  "prhq": 6379,
  "sqnq": 6380,
  "HrpgkSrSb": 6381,
  "nkj": 6382,
  "tAr": 6383,
  "nmmj": 6384,
  "Awjt": 6385,
  "jrhb": 6386,
  "snhprgn": 6387,
  "rhb": 6388,
  "njpt": 6389,
  "SrSr": 6390,
  "Sknsrhtw": 6391,
  "Hfy": 6392,
  "tjwn": 6393,
  "ASjH": 6394,
  "HAty": 6395,
  "nta": 6396,
  "hAtt": 6397,
  "tjypl": 6398,
  "axxA": 6399,
  "swhAw": 6400,
  "rhA": 6401,
  "sHaw": 6402,
  "ssnD": 6403,
  "wxn": 6404,
  "pntn": 6405,
  "bAbAy": 6406,
  "abAbA": 6407,
  "hAqAhAgA": 6408,
  "jqrs": 6409,
  "rbty": 6410,
  "xrstj": 6411,
  "brktTw": 6412,
  "mhAd": 6413,
  "knmm": 6414,
  "fnwt": 6415,
  "xndS": 6416,
  "ui": 6417,
  "HHi": 6418,
  "sak": 6419,
  "kwi": 6420,
  "jmAxy": 6421,
  "sxdi": 6422,
  "sDwj": 6423,
  "srmi": 6424,
  "Thm": 6425,
  "wnzj": 6426,
  "tpn": 6427,
  "sjsj": 6428,
  "sntmtm": 6429,
  "wnz": 6430,
  "qdqd": 6431,
  "ksnDm": 6432,
  "bSw": 6433,
  "bnana": 6434,
  "zmi": 6435,
  "rSS": 6436,
  "jxssf": 6437,
  "aHai": 6438,
  "sgAgA": 6439,
  "sAbs": 6440,
  "arrw": 6441,
  "sjmA": 6442,
  "tAnn": 6443,
  "wrk": 6444,
  "jbz": 6445,
  "Axx": 6446,
  "gAgAwj": 6447,
  "gAf": 6448,
  "rsn": 6449,
  "ndby": 6450,
  "ksA": 6451,
  "mnTA": 6452,
  "Tnu": 6453,
  "njwr": 6454,
  "sHs": 6455,
  "wdns": 6456,
  "Swwy": 6457,
  "nSy": 6458,
  "SAwb": 6459,
  "ftj": 6460,
  "jhb": 6461,
  "Ajrr": 6462,
  "smz": 6463,
  "ymm": 6464,
  "bgz": 6465,
  "snkn": 6466,
  "swtA": 6467,
  "xpA": 6468,
  "txnj": 6469,
  "yks": 6470,
  "ntkrty": 6471,
  "jryk": 6472,
  "kjryk": 6473,
  "ksyk": 6474,
  "Arktkstk": 6475,
  "njnkntkSr": 6476,
  "njnkn": 6477,
  "tjkSr": 6478,
  "rtsSk": 6479,
  "jnnm": 6480,
  "yrqy": 6481,
  "mrqt": 6482,
  "nsqbb": 6483,
  "tns": 6484,
  "SrStkt": 6485,
  "jshA": 6486,
  "sgdy": 6487,
  "rms": 6488,
  "Hrpl": 6489,
  "zAwt": 6490,
  "nu": 6491,
  "jnHA": 6492,
  "zanx": 6493,
  "Sry": 6494,
  "zrwx": 6495,
  "znaa": 6496,
  "bjj": 6497,
  "qqj": 6498,
  "jwdw": 6499,
  "tpty": 6500,
  "nHy": 6501,
  "xrnt": 6502,
  "is": 6503,
  "sip": 6504,
  "in": 6505,
  "rwDw": 6506,
  "iri": 6507,
  "bAki": 6508,
  "ir": 6509,
  "iry": 6510,
  "ia": 6511,
  "sATw": 6512,
  "imn": 6513,
  "niw": 6514,
  "iTi": 6515,
  "TAty": 6516,
  "idnw": 6517,
  "iwnw": 6518,
  "im": 6519,
  "mniw": 6520,
  "Hmty": 6521,
  "imy": 6522,
  "iwnA": 6523,
  "sniw": 6524,
  "bwpw": 6525,
  "iy": 6526,
  "qniw": 6527,
  "mHty": 6528,
  "mitt": 6529,
  "irm": 6530,
  "sxsw": 6531,
  "ix": 6532,
  "Axty": 6533,
  "aHwty": 6534,
  "HrH": 6535,
  "ink": 6536,
  "imH": 6537,
  "iny": 6538,
  "rxty": 6539,
  "iwf": 6540,
  "arSn": 6541,
  "ini": 6542,
  "ipwy": 6543,
  "DHwty": 6544,
  "itm": 6545,
  "ity": 6546,
  "nbty": 6547,
  "wpwty": 6548,
  "arqy": 6549,
  "irtiw": 6550,
  "iwn": 6551,
  "iHw": 6552,
  "irr": 6553,
  "iAw": 6554,
  "inn": 6555,
  "iTA": 6556,
  "nim": 6557,
  "twi": 6558,
  "aSq": 6559,
  "Hati": 6560,
  "bity": 6561,
  "pHty": 6562,
  "iAbt": 6563,
  "nbdw": 6564,
  "xrtw": 6565,
  "inr": 6566,
  "Hwty": 6567,
  "hwS": 6568,
  "iar": 6569,
  "iAby": 6570,
  "diw": 6571,
  "sba": 6572,
  "mity": 6573,
  "gDfD": 6574,
  "iA": 6575,
  "isw": 6576,
  "wADyt": 6577,
  "iqr": 6578,
  "biA": 6579,
  "Sgr": 6580,
  "wiA": 6581,
  "aHAwty": 6582,
  "bin": 6583,
  "xfty": 6584,
  "ptf": 6585,
  "DAyw": 6586,
  "mAi": 6587,
  "DHty": 6588,
  "ist": 6589,
  "qraw": 6590,
  "mnts": 6591,
  "dAiw": 6592,
  "imw": 6593,
  "imAx": 6594,
  "xpri": 6595,
  "dydy": 6596,
  "mnHt": 6597,
  "iT": 6598,
  "sfxy": 6599,
  "iwny": 6600,
  "Drty": 6601,
  "itH": 6602,
  "bwnA": 6603,
  "pHwy": 6604,
  "isyw": 6605,
  "ihi": 6606,
  "twiA": 6607,
  "niwy": 6608,
  "iTAy": 6609,
  "wrl": 6610,
  "qnr": 6611,
  "rnnwt": 6612,
  "Asy": 6613,
  "mymy": 6614,
  "iwd": 6615,
  "Hapy": 6616,
  "imnt": 6617,
  "iAd": 6618,
  "mDq": 6619,
  "inH": 6620,
  "mit": 6621,
  "psn": 6622,
  "qny": 6623,
  "Xry": 6624,
  "iwtn": 6625,
  "pSi": 6626,
  "pApA": 6627,
  "nqdd": 6628,
  "xAwty": 6629,
  "SmAy": 6630,
  "irT": 6631,
  "wHmw": 6632,
  "iway": 6633,
  "iwi": 6634,
  "iH": 6635,
  "wtnw": 6636,
  "imi": 6637,
  "arwt": 6638,
  "dnrg": 6639,
  "aHay": 6640,
  "irw": 6641,
  "inm": 6642,
  "gns": 6643,
  "dmi": 6644,
  "XpS": 6645,
  "xSb": 6646,
  "bAstt": 6647,
  "dHty": 6648,
  "ihy": 6649,
  "itn": 6650,
  "smHy": 6651,
  "igr": 6652,
  "Swyty": 6653,
  "sDmy": 6654,
  "iwty": 6655,
  "Hwaw": 6656,
  "qrsw": 6657,
  "ishA": 6658,
  "sbty": 6659,
  "bgi": 6660,
  "nqdy": 6661,
  "ird": 6662,
  "isf": 6663,
  "swmnw": 6664,
  "ihm": 6665,
  "spXrw": 6666,
  "imAw": 6667,
  "kAwty": 6668,
  "itrw": 6669,
  "siqr": 6670,
  "wiAwiA": 6671,
  "nis": 6672,
  "idb": 6673,
  "iaH": 6674,
  "ibht": 6675,
  "TmHw": 6676,
  "inw": 6677,
  "bST": 6678,
  "mky": 6679,
  "Hdby": 6680,
  "iwaw": 6681,
  "iwms": 6682,
  "biAity": 6683,
  "gAgAw": 6684,
  "mryty": 6685,
  "bik": 6686,
  "nTry": 6687,
  "iwa": 6688,
  "nDty": 6689,
  "ibA": 6690,
  "iAxw": 6691,
  "inq": 6692,
  "tSw": 6693,
  "bAky": 6694,
  "miam": 6695,
  "iwnn": 6696,
  "fnxw": 6697,
  "sxmty": 6698,
  "xtyw": 6699,
  "Dsrw": 6700,
  "btnw": 6701,
  "sipty": 6702,
  "nxbt": 6703,
  "iAb": 6704,
  "imnty": 6705,
  "wtxw": 6706,
  "mAatyw": 6707,
  "brs": 6708,
  "Hsmny": 6709,
  "irp": 6710,
  "psx": 6711,
  "iai": 6712,
  "mstyw": 6713,
  "hbny": 6714,
  "iwry": 6715,
  "Xrtyw": 6716,
  "rwti": 6717,
  "stxy": 6718,
  "xAsty": 6719,
  "hims": 6720,
  "qdby": 6721,
  "siA": 6722,
  "bAiry": 6723,
  "ifd": 6724,
  "yti": 6725,
  "DnDr": 6726,
  "hyn": 6727,
  "Sbtn": 6728,
  "twT": 6729,
  "narn": 6730,
  "ixx": 6731,
  "irir": 6732,
  "kAry": 6733,
  "wAHy": 6734,
  "inpw": 6735,
  "qsty": 6736,
  "qAmq": 6737,
  "ipw": 6738,
  "imny": 6739,
  "ags": 6740,
  "bit": 6741,
  "isi": 6742,
  "rti": 6743,
  "wtTw": 6744,
  "kbkb": 6745,
  "aHAty": 6746,
  "sDry": 6747,
  "Tpg": 6748,
  "nmHy": 6749,
  "pTy": 6750,
  "imr": 6751,
  "Haaw": 6752,
  "rHs": 6753,
  "Skra": 6754,
  "Hl": 6755,
  "isb": 6756,
  "mgr": 6757,
  "xrb": 6758,
  "tnp": 6759,
  "Smas": 6760,
  "mHws": 6761,
  "ngs": 6762,
  "nSi": 6763,
  "ATpw": 6764,
  "mXnty": 6765,
  "ipy": 6766,
  "mSpn": 6767,
  "hAms": 6768,
  "insi": 6769,
  "iqd": 6770,
  "Dss": 6771,
  "ipp": 6772,
  "mhd": 6773,
  "miw": 6774,
  "pgs": 6775,
  "irsw": 6776,
  "Xsy": 6777,
  "titi": 6778,
  "idniw": 6779,
  "anDty": 6780,
  "sdgi": 6781,
  "xbr": 6782,
  "biAy": 6783,
  "htm": 6784,
  "bAwy": 6785,
  "mXrw": 6786,
  "hAyt": 6787,
  "kyky": 6788,
  "SHq": 6789,
  "nmti": 6790,
  "Xpw": 6791,
  "pHti": 6792,
  "Trn": 6793,
  "ihw": 6794,
  "srty": 6795,
  "rwyt": 6796,
  "nSb": 6797,
  "mryn": 6798,
  "sXri": 6799,
  "Trs": 6800,
  "qrrty": 6801,
  "Xtti": 6802,
  "nApAAty": 6803,
  "pAwty": 6804,
  "sxra": 6805,
  "pipi": 6806,
  "isk": 6807,
  "dbxw": 6808,
  "wrn": 6809,
  "nmty": 6810,
  "fyt": 6811,
  "piAy": 6812,
  "Htpy": 6813,
  "bHdty": 6814,
  "tiSps": 6815,
  "aDmm": 6816,
  "isbr": 6817,
  "Axr": 6818,
  "sTty": 6819,
  "SAtytywA": 6820,
  "hrTT": 6821,
  "dnin": 6822,
  "isdd": 6823,
  "tpyw": 6824,
  "Har": 6825,
  "rtHty": 6826,
  "idn": 6827,
  "DAwt": 6828,
  "ntyw": 6829,
  "niA": 6830,
  "ipd": 6831,
  "imsk": 6832,
  "krkmS": 6833,
  "krk": 6834,
  "Aqw": 6835,
  "bry": 6836,
  "ibr": 6837,
  "raHqA": 6838,
  "ptt": 6839,
  "tAyty": 6840,
  "ipn": 6841,
  "raiA": 6842,
  "iSf": 6843,
  "xAySb": 6844,
  "TiTi": 6845,
  "ipA": 6846,
  "adt": 6847,
  "sbiw": 6848,
  "antyw": 6849,
  "txsy": 6850,
  "mAiw": 6851,
  "minA": 6852,
  "tbwn": 6853,
  "astrt": 6854,
  "rhny": 6855,
  "ibib": 6856,
  "ian": 6857,
  "iab": 6858,
  "sqnd": 6859,
  "Sra": 6860,
  "tnti": 6861,
  "mrp": 6862,
  "iknw": 6863,
  "pAqi": 6864,
  "nmi": 6865,
  "sxty": 6866,
  "stXy": 6867,
  "mntn": 6868,
  "knn": 6869,
  "wtnty": 6870,
  "kTt": 6871,
  "isp": 6872,
  "Hrp": 6873,
  "Tg": 6874,
  "krT": 6875,
  "mntD": 6876,
  "rHbw": 6877,
  "sgrT": 6878,
  "Dnr": 6879,
  "Dadd": 6880,
  "inhmn": 6881,
  "sid": 6882,
  "irs": 6883,
  "TAwm": 6884,
  "ind": 6885,
  "SsAw": 6886,
  "iAbty": 6887,
  "Xrty": 6888,
  "id": 6889,
  "nXr": 6890,
  "Hqq": 6891,
  "Hryw": 6892,
  "HAwty": 6893,
  "imA": 6894,
  "xnrty": 6895,
  "irwn": 6896,
  "qrqS": 6897,
  "hAyn": 6898,
  "isq": 6899,
  "mngbt": 6900,
  "Xryw": 6901,
  "tri": 6902,
  "Htrt": 6903,
  "aXnwty": 6904,
  "idg": 6905,
  "kAiA": 6906,
  "nwT": 6907,
  "prst": 6908,
  "mXtw": 6909,
  "dmHw": 6910,
  "Swty": 6911,
  "xtTn": 6912,
  "wrnr": 6913,
  "ihAyn": 6914,
  "inp": 6915,
  "bXn": 6916,
  "Tti": 6917,
  "Ddy": 6918,
  "brry": 6919,
  "rwt": 6920,
  "triA": 6921,
  "ims": 6922,
  "imAxw": 6923,
  "rbH": 6924,
  "tka": 6925,
  "irqs": 6926,
  "mrk": 6927,
  "dgy": 6928,
  "mqar": 6929,
  "xnrD": 6930,
  "kiry": 6931,
  "qDm": 6932,
  "SmaA": 6933,
  "wADi": 6934,
  "kArty": 6935,
  "nAmr": 6936,
  "iAkb": 6937,
  "mTw": 6938,
  "ppi": 6939,
  "iSrw": 6940,
  "Asr": 6941,
  "HDwy": 6942,
  "sibyn": 6943,
  "Hnr": 6944,
  "tis": 6945,
  "sbr": 6946,
  "Xnty": 6947,
  "iwr": 6948,
  "iwy": 6949,
  "knpwy": 6950,
  "xrwyw": 6951,
  "wtwA": 6952,
  "Xpt": 6953,
  "kftiw": 6954,
  "isy": 6955,
  "min": 6956,
  "wyn": 6957,
  "stAy": 6958,
  "kAfy": 6959,
  "gnwty": 6960,
  "wAsty": 6961,
  "iwsw": 6962,
  "tikt": 6963,
  "qDwdn": 6964,
  "ikrt": 6965,
  "HApwty": 6966,
  "ikn": 6967,
  "knmTwhr": 6968,
  "twf": 6969,
  "xnx": 6970,
  "irf": 6971,
  "Twfy": 6972,
  "kHs": 6973,
  "Dpr": 6974,
  "qDH": 6975,
  "tHs": 6976,
  "kAri": 6977,
  "hby": 6978,
  "itr": 6979,
  "Swbty": 6980,
  "tin": 6981,
  "ksbw": 6982,
  "nfrwsy": 6983,
  "idr": 6984,
  "iSS": 6985,
  "yptH": 6986,
  "agni": 6987,
  "biAi": 6988,
  "yan": 6989,
  "wSbty": 6990,
  "tqny": 6991,
  "nik": 6992,
  "iwH": 6993,
  "sXAy": 6994,
  "iwA": 6995,
  "mSy": 6996,
  "aDr": 6997,
  "iAwi": 6998,
  "tnhm": 6999,
  "pAHyw": 7000,
  "mnxw": 7001,
  "ixy": 7002,
  "Dra": 7003,
  "ihAy": 7004,
  "nSdy": 7005,
  "iwiw": 7006,
  "drw": 7007,
  "brq": 7008,
  "xwwy": 7009,
  "fiT": 7010,
  "sAsAw": 7011,
  "trr": 7012,
  "qnnA": 7013,
  "smk": 7014,
  "Sfdw": 7015,
  "mHbq": 7016,
  "strps": 7017,
  "iaa": 7018,
  "sAsw": 7019,
  "ipip": 7020,
  "iwS": 7021,
  "irnT": 7022,
  "nkp": 7023,
  "ift": 7024,
  "snA": 7025,
  "ii": 7026,
  "wiAs": 7027,
  "ynDm": 7028,
  "xAsy": 7029,
  "ikm": 7030,
  "drt": 7031,
  "pqpq": 7032,
  "inbw": 7033,
  "iyriA": 7034,
  "irnAm": 7035,
  "rbrn": 7036,
  "iaw": 7037,
  "ih": 7038,
  "bHnr": 7039,
  "irkt": 7040,
  "nax": 7041,
  "mwaD": 7042,
  "inHrt": 7043,
  "xdb": 7044,
  "itrr": 7045,
  "qri": 7046,
  "nsp": 7047,
  "isr": 7048,
  "srr": 7049,
  "mSayti": 7050,
  "gAHw": 7051,
  "iDA": 7052,
  "iAA": 7053,
  "Drti": 7054,
  "mkbr": 7055,
  "ybHy": 7056,
  "nsi": 7057,
  "wsTnw": 7058,
  "rnnw": 7059,
  "xby": 7060,
  "iwAiw": 7061,
  "xnri": 7062,
  "xTn": 7063,
  "hnA": 7064,
  "ikmw": 7065,
  "wtmtm": 7066,
  "rAHw": 7067,
  "pyiAy": 7068,
  "Tl": 7069,
  "spdw": 7070,
  "mHyt": 7071,
  "ipt": 7072,
  "mxt": 7073,
  "dqrw": 7074,
  "wAst": 7075,
  "stAH": 7076,
  "ywpA": 7077,
  "qaHt": 7078,
  "grgy": 7079,
  "bqyt": 7080,
  "mabAyw": 7081,
  "twtwiA": 7082,
  "Trb": 7083,
  "mntT": 7084,
  "kAbA": 7085,
  "xnmti": 7086,
  "xAnn": 7087,
  "sytw": 7088,
  "sAwy": 7089,
  "nyny": 7090,
  "wTsw": 7091,
  "sbtiw": 7092,
  "gwg": 7093,
  "bxt": 7094,
  "srnw": 7095,
  "aSa": 7096,
  "ihAfy": 7097,
  "tbnti": 7098,
  "SmS": 7099,
  "dHaa": 7100,
  "sppy": 7101,
  "idH": 7102,
  "SrS": 7103,
  "istrsk": 7104,
  "bHdt": 7105,
  "sAmw": 7106,
  "pDty": 7107,
  "mis": 7108,
  "ktm": 7109,
  "biwk": 7110,
  "win": 7111,
  "nsk": 7112,
  "rwty": 7113,
  "irtyw": 7114,
  "grp": 7115,
  "wSw": 7116,
  "HryA": 7117,
  "mskt": 7118,
  "yns": 7119,
  "DAtitAkAti": 7120,
  "bqy": 7121,
  "wSwS": 7122,
  "wnxw": 7123,
  "tHA": 7124,
  "ssAty": 7125,
  "piTA": 7126,
  "dgdg": 7127,
  "qDt": 7128,
  "mimi": 7129,
  "adn": 7130,
  "iSt": 7131,
  "idm": 7132,
  "brkt": 7133,
  "mkti": 7134,
  "siwt": 7135,
  "kmy": 7136,
  "SAmxAbw": 7137,
  "Drt": 7138,
  "ihbw": 7139,
  "Dpy": 7140,
  "myh": 7141,
  "qqi": 7142,
  "Sfdy": 7143,
  "Tmsw": 7144,
  "nAry": 7145,
  "SnTy": 7146,
  "wsrk": 7147,
  "sin": 7148,
  "bArst": 7149,
  "iniSn": 7150,
  "inHti": 7151,
  "sSnq": 7152,
  "mAayw": 7153,
  "iAi": 7154,
  "HmD": 7155,
  "bwhd": 7156,
  "mAtiwAhAr": 7157,
  "Xaqw": 7158,
  "pypw": 7159,
  "SAkA": 7160,
  "inxrtw": 7161,
  "F": 7162,
  "ibH": 7163,
  "aAfy": 7164,
  "aynn": 7165,
  "qmAy": 7166,
  "Hnrg": 7167,
  "mnhs": 7168,
  "iqrw": 7169,
  "mrri": 7170,
  "iDr": 7171,
  "DpindA": 7172,
  "Xnmww": 7173,
  "itt": 7174,
  "nfryw": 7175,
  "tinn": 7176,
  "inii": 7177,
  "dgAiw": 7178,
  "hAtyw": 7179,
  "drpw": 7180,
  "marwgnA": 7181,
  "gwtn": 7182,
  "iwnrA": 7183,
  "Tstn": 7184,
  "inty": 7185,
  "inrn": 7186,
  "pti": 7187,
  "agnn": 7188,
  "ispw": 7189,
  "aawi": 7190,
  "mqq": 7191,
  "mnHw": 7192,
  "sgbyn": 7193,
  "swbn": 7194,
  "mapw": 7195,
  "Dbi": 7196,
  "niwty": 7197,
  "iwnr": 7198,
  "xtAsAr": 7199,
  "iAds": 7200,
  "nHrH": 7201,
  "Hbsd": 7202,
  "fdk": 7203,
  "minb": 7204,
  "Tit": 7205,
  "rrty": 7206,
  "Driw": 7207,
  "sbAiw": 7208,
  "Aay": 7209,
  "nstnw": 7210,
  "mAwr": 7211,
  "yHm": 7212,
  "ibw": 7213,
  "xnrf": 7214,
  "HDnHDn": 7215,
  "gbgby": 7216,
  "ttrkiA": 7217,
  "iAty": 7218,
  "nTrwAs": 7219,
  "aDy": 7220,
  "qdnA": 7221,
  "nknk": 7222,
  "iqHw": 7223,
  "iwpy": 7224,
  "mAiwt": 7225,
  "xtAsArA": 7226,
  "iwAy": 7227,
  "mASqw": 7228,
  "Tnfy": 7229,
  "iyA": 7230,
  "THb": 7231,
  "ptri": 7232,
  "Tpr": 7233,
  "ikS": 7234,
  "pwpn": 7235,
  "pypnw": 7236,
  "qhq": 7237,
  "iptn": 7238,
  "Hiw": 7239,
  "Snwty": 7240,
  "sHtpy": 7241,
  "tinntw": 7242,
  "kwSn": 7243,
  "qrDn": 7244,
  "bai": 7245,
  "tAhArqA": 7246,
  "imm": 7247,
  "rgs": 7248,
  "kSr": 7249,
  "itrn": 7250,
  "qDwD": 7251,
  "HHy": 7252,
  "HfD": 7253,
  "HmAw": 7254,
  "kri": 7255,
  "kwsr": 7256,
  "iws": 7257,
  "waty": 7258,
  "tity": 7259,
  "Sqb": 7260,
  "psDy": 7261,
  "Dwt": 7262,
  "Sta": 7263,
  "tAwy": 7264,
  "qDD": 7265,
  "idy": 7266,
  "SkrS": 7267,
  "swrtk": 7268,
  "rid": 7269,
  "Ddnn": 7270,
  "qrn": 7271,
  "xSxS": 7272,
  "xnSw": 7273,
  "irwAT": 7274,
  "sgi": 7275,
  "bagA": 7276,
  "Hpq": 7277,
  "sHDw": 7278,
  "ihhy": 7279,
  "wnrn": 7280,
  "pDtiw": 7281,
  "anrki": 7282,
  "qnni": 7283,
  "nrH": 7284,
  "mntiw": 7285,
  "rxsn": 7286,
  "qDr": 7287,
  "Dram": 7288,
  "swbb": 7289,
  "afq": 7290,
  "hTi": 7291,
  "ppn": 7292,
  "Dp": 7293,
  "iAq": 7294,
  "mkr": 7295,
  "mnkr": 7296,
  "ikk": 7297,
  "mriA": 7298,
  "sxmy": 7299,
  "isHm": 7300,
  "sDty": 7301,
  "Slm": 7302,
  "stnb": 7303,
  "nfrty": 7304,
  "rri": 7305,
  "hsmq": 7306,
  "nmriw": 7307,
  "bky": 7308,
  "mib": 7309,
  "sHwn": 7310,
  "xnrT": 7311,
  "mhrn": 7312,
  "Sfyt": 7313,
  "Drpt": 7314,
  "kTm": 7315,
  "rbA": 7316,
  "gmHsw": 7317,
  "sAiA": 7318,
  "wDny": 7319,
  "ys": 7320,
  "mSm": 7321,
  "mSkn": 7322,
  "wrmr": 7323,
  "TAt": 7324,
  "krbr": 7325,
  "Amw": 7326,
  "iTyn": 7327,
  "nxs": 7328,
  "Hbrt": 7329,
  "stXi": 7330,
  "itrsg": 7331,
  "SAar": 7332,
  "iwT": 7333,
  "ibi": 7334,
  "Trx": 7335,
  "SSrm": 7336,
  "Hnf": 7337,
  "wnny": 7338,
  "inmk": 7339,
  "DpH": 7340,
  "mSSr": 7341,
  "kpr": 7342,
  "wAsrkn": 7343,
  "xppw": 7344,
  "itnw": 7345,
  "rAHwDAti": 7346,
  "hnh": 7347,
  "brk": 7348,
  "atxy": 7349,
  "Arwtibw": 7350,
  "bhd": 7351,
  "kASn": 7352,
  "manw": 7353,
  "bng": 7354,
  "idrm": 7355,
  "ianw": 7356,
  "Drp": 7357,
  "knwy": 7358,
  "sAhAr": 7359,
  "sqsn": 7360,
  "sXa": 7361,
  "wrktr": 7362,
  "ins": 7363,
  "Adw": 7364,
  "TiA": 7365,
  "bHrnkr": 7366,
  "tywt": 7367,
  "Sst": 7368,
  "rbi": 7369,
  "qAri": 7370,
  "ikATi": 7371,
  "iHa": 7372,
  "ismri": 7373,
  "Hdi": 7374,
  "bnty": 7375,
  "irn": 7376,
  "wsA": 7377,
  "strti": 7378,
  "Tnrk": 7379,
  "daq": 7380,
  "sdt": 7381,
  "ngAw": 7382,
  "srti": 7383,
  "xniw": 7384,
  "srdm": 7385,
  "bast": 7386,
  "sApArwrw": 7387,
  "aky": 7388,
  "hmsq": 7389,
  "imtwy": 7390,
  "aany": 7391,
  "iapw": 7392,
  "pdr": 7393,
  "sfD": 7394,
  "mwTnrA": 7395,
  "mtDi": 7396,
  "ngArw": 7397,
  "mAsAhArti": 7398,
  "wtmt": 7399,
  "iwti": 7400,
  "nTx": 7401,
  "xsy": 7402,
  "imywty": 7403,
  "Sdtt": 7404,
  "tiHsw": 7405,
  "bki": 7406,
  "yrdn": 7407,
  "Dft": 7408,
  "qDwr": 7409,
  "ynb": 7410,
  "nkftr": 7411,
  "gt": 7412,
  "xpn": 7413,
  "hwTn": 7414,
  "mHDr": 7415,
  "xpnpn": 7416,
  "par": 7417,
  "mAairt": 7418,
  "ik": 7419,
  "hf": 7420,
  "ynr": 7421,
  "nwdt": 7422,
  "wAyrn": 7423,
  "aamy": 7424,
  "inhA": 7425,
  "wnr": 7426,
  "irwt": 7427,
  "tkrbr": 7428,
  "SAbAkA": 7429,
  "mayA": 7430,
  "sds": 7431,
  "SAwA": 7432,
  "krxn": 7433,
  "dAy": 7434,
  "mAdy": 7435,
  "qDn": 7436,
  "dnn": 7437,
  "mtH": 7438,
  "xrtip": 7439,
  "imwty": 7440,
  "mDa": 7441,
  "TmHy": 7442,
  "ts": 7443,
  "hAnhA": 7444,
  "iAbi": 7445,
  "saiw": 7446,
  "dmDy": 7447,
  "SAbwti": 7448,
  "arrn": 7449,
  "sxtiw": 7450,
  "hmy": 7451,
  "sxrp": 7452,
  "wAhr": 7453,
  "inHw": 7454,
  "inh": 7455,
  "ipdw": 7456,
  "mSaw": 7457,
  "tsm": 7458,
  "DHy": 7459,
  "grpt": 7460,
  "bAiw": 7461,
  "pnS": 7462,
  "iAm": 7463,
  "rbsnn": 7464,
  "DAis": 7465,
  "iksp": 7466,
  "TwnA": 7467,
  "sqqt": 7468,
  "twbx": 7469,
  "ibSt": 7470,
  "xrps": 7471,
  "Aywr": 7472,
  "iyty": 7473,
  "xAsww": 7474,
  "xiswn": 7475,
  "qrnt": 7476,
  "bndw": 7477,
  "pyrq": 7478,
  "btyt": 7479,
  "yrA": 7480,
  "Dna": 7481,
  "Hmsy": 7482,
  "Dad": 7483,
  "irny": 7484,
  "ibs": 7485,
  "SrgH": 7486,
  "rHn": 7487,
  "sXw": 7488,
  "bStw": 7489,
  "mArw": 7490,
  "nmnmy": 7491,
  "mAArw": 7492,
  "qwq": 7493,
  "maHAw": 7494,
  "sTnw": 7495,
  "krmt": 7496,
  "xtr": 7497,
  "txr": 7498,
  "grb": 7499,
  "mSrr": 7500,
  "stfy": 7501,
  "Drr": 7502,
  "qnyw": 7503,
  "ngmgm": 7504,
  "iAdy": 7505,
  "nmA": 7506,
  "TAwrw": 7507,
  "IsD": 7508,
  "sbxn": 7509,
  "bqr": 7510,
  "tmHn": 7511,
  "ynq": 7512,
  "rnptw": 7513,
  "kADn": 7514,
  "dyhAqAtw": 7515,
  "ram": 7516,
  "tkt": 7517,
  "inrk": 7518,
  "ihpy": 7519,
  "irnn": 7520,
  "sxry": 7521,
  "hbwt": 7522,
  "Htb": 7523,
  "HqAw": 7524,
  "hstkt": 7525,
  "pra": 7526,
  "hwty": 7527,
  "Dmr": 7528,
  "Dbg": 7529,
  "SAty": 7530,
  "tmAw": 7531,
  "nTA": 7532,
  "xdm": 7533,
  "ygdy": 7534,
  "HbrDt": 7535,
  "iATw": 7536,
  "iHiH": 7537,
  "Dhy": 7538,
  "xssp": 7539,
  "imAt": 7540,
  "bniA": 7541,
  "nfwy": 7542,
  "snhs": 7543,
  "arfn": 7544,
  "irpw": 7545,
  "SSnq": 7546,
  "hwakt": 7547,
  "TmTm": 7548,
  "twHw": 7549,
  "Xaw": 7550,
  "bri": 7551,
  "tiwni": 7552,
  "Sir": 7553,
  "trq": 7554,
  "mSkb": 7555,
  "psr": 7556,
  "qAriw": 7557,
  "sqdw": 7558,
  "da": 7559,
  "rky": 7560,
  "intbs": 7561,
  "mnDt": 7562,
  "whr": 7563,
  "ihA": 7564,
  "Sar": 7565,
  "sxtyw": 7566,
  "TAfy": 7567,
  "nSiw": 7568,
  "dAi": 7569,
  "Dnrm": 7570,
  "sAqty": 7571,
  "SmSw": 7572,
  "itw": 7573,
  "ynw": 7574,
  "mayrA": 7575,
  "ttr": 7576,
  "rbgr": 7577,
  "stnwy": 7578,
  "wnyw": 7579,
  "rbS": 7580,
  "iwwA": 7581,
  "tnwy": 7582,
  "psDntyw": 7583,
  "waaw": 7584,
  "bDt": 7585,
  "pXX": 7586,
  "aip": 7587,
  "DDnn": 7588,
  "mSw": 7589,
  "Hfnw": 7590,
  "sTsw": 7591,
  "wDApw": 7592,
  "snxi": 7593,
  "ftti": 7594,
  "mwsS": 7595,
  "Sdr": 7596,
  "inA": 7597,
  "Hrhr": 7598,
  "sAyr": 7599,
  "Smy": 7600,
  "mrqDn": 7601,
  "xax": 7602,
  "mrqHt": 7603,
  "xftt": 7604,
  "gmw": 7605,
  "sDa": 7606,
  "isdyrktjw": 7607,
  "rwnA": 7608,
  "Sdm": 7609,
  "swywy": 7610,
  "Hnwy": 7611,
  "Ttr": 7612,
  "sHHy": 7613,
  "Att": 7614,
  "iyr": 7615,
  "sAswdsy": 7616,
  "iAy": 7617,
  "kTs": 7618,
  "rkt": 7619,
  "iTT": 7620,
  "iTm": 7621,
  "mTpr": 7622,
  "msti": 7623,
  "trmg": 7624,
  "bnri": 7625,
  "mkmr": 7626,
  "wrTt": 7627,
  "ta": 7628,
  "krt": 7629,
  "xrq": 7630,
  "xmnty": 7631,
  "Sbt": 7632,
  "tisw": 7633,
  "HrHr": 7634,
  "intnt": 7635,
  "Hyti": 7636,
  "kAsA": 7637,
  "krss": 7638,
  "HApt": 7639,
  "tpwiA": 7640,
  "mstH": 7641,
  "wdy": 7642,
  "Snbty": 7643,
  "ipq": 7644,
  "mwty": 7645,
  "mnr": 7646,
  "tyty": 7647,
  "dpx": 7648,
  "wrSw": 7649,
  "iSd": 7650,
  "yda": 7651,
  "Hwrn": 7652,
  "Dfr": 7653,
  "maiA": 7654,
  "psw": 7655,
  "qbaA": 7656,
  "swmyn": 7657,
  "STyt": 7658,
  "mTdt": 7659,
  "Smbr": 7660,
  "bHdw": 7661,
  "kAkmn": 7662,
  "skmkm": 7663,
  "iwnxwr": 7664,
  "sXrd": 7665,
  "ptti": 7666,
  "marsArA": 7667,
  "srwy": 7668,
  "DAwAti": 7669,
  "qgb": 7670,
  "HwAw": 7671,
  "bqa": 7672,
  "amD": 7673,
  "DfDfDf": 7674,
  "Smg": 7675,
  "ixny": 7676,
  "abaw": 7677,
  "pninrba": 7678,
  "ptiay": 7679,
  "iwh": 7680,
  "sqAH": 7681,
  "mxmx": 7682,
  "ThTh": 7683,
  "amq": 7684,
  "srn": 7685,
  "nsbi": 7686,
  "isxry": 7687,
  "sDHy": 7688,
  "sbqw": 7689,
  "wxAr": 7690,
  "ininnA": 7691,
  "ptHy": 7692,
  "iq": 7693,
  "mtri": 7694,
  "dhr": 7695,
  "Dnir": 7696,
  "Abnn": 7697,
  "mqry": 7698,
  "sxann": 7699,
  "dSA": 7700,
  "xAbAy": 7701,
  "knanw": 7702,
  "bTAwy": 7703,
  "iXA": 7704,
  "wAbwy": 7705,
  "xsDD": 7706,
  "gT": 7707,
  "Sgnn": 7708,
  "bgb": 7709,
  "ibsqb": 7710,
  "HfDA": 7711,
  "TrH": 7712,
  "srit": 7713,
  "iqnr": 7714,
  "qratm": 7715,
  "Daq": 7716,
  "smty": 7717,
  "mnTHt": 7718,
  "midA": 7719,
  "krs": 7720,
  "btin": 7721,
  "swgs": 7722,
  "axn": 7723,
  "tili": 7724,
  "tesub": 7725,
  "qAriA": 7726,
  "bns": 7727,
  "rSA": 7728,
  "imnw": 7729,
  "mqs": 7730,
  "awnH": 7731,
  "knf": 7732,
  "sif": 7733,
  "snri": 7734,
  "misy": 7735,
  "pit": 7736,
  "dndw": 7737,
  "inqfqf": 7738,
  "fyfy": 7739,
  "wATA": 7740,
  "xAtw": 7741,
  "swiA": 7742,
  "awty": 7743,
  "xmT": 7744,
  "wStiht": 7745,
  "wstirkni": 7746,
  "hrti": 7747,
  "istn": 7748,
  "rwiA": 7749,
  "kAnA": 7750,
  "mpsn": 7751,
  "swk": 7752,
  "kiA": 7753,
  "Awrtbi": 7754,
  "iyH": 7755,
  "idrn": 7756,
  "Ddpt": 7757,
  "hAdy": 7758,
  "wDr": 7759,
  "ntm": 7760,
  "rpH": 7761,
  "amAw": 7762,
  "nSmw": 7763,
  "sArwiA": 7764,
  "bpr": 7765,
  "wnis": 7766,
  "msnw": 7767,
  "isty": 7768,
  "grD": 7769,
  "tSf": 7770,
  "mhAr": 7771,
  "rwSww": 7772
}