{"<pad>": 0, "<unk>": 1, "hp": 2, "nAHA": 3, "apy": 4, "amA": 5, "mnH": 6, "jdnjnjw": 7, "pzS": 8, "Hrbs": 9, "sprw": 10, "ng": 11, "nxAwj": 12, "hpj": 13, "thh": 14, "mAmA": 15, "rD": 16, "tni": 17, "mt": 18, "mnqw": 19, "HAg": 20, "sXA": 21, "ssf": 22, "aan": 23, "mAaj": 24, "HrDtm": 25, "qnnj": 26, "rrj": 27, "mbb": 28, "bqbq": 29, "Att": 30, "trp": 31, "kjA": 32, "nAp": 33, "swpl": 34, "jsjy": 35, "HAdg": 36, "Tjw": 37, "sjmA": 38, "T": 39, "qjs": 40, "sfkk": 41, "hrw": 42, "nnt": 43, "mnts": 44, "snbj": 45, "kmnw": 46, "gD": 47, "Ttn": 48, "nHn": 49, "hss": 50, "wsTn": 51, "dAdA": 52, "bAgA": 53, "bz": 54, "sTj": 55, "saH": 56, "gnn": 57, "nmy": 58, "sanx": 59, "cke": 60, "mmrm": 61, "wAgi": 62, "kmtw": 63, "wHn": 64, "Ajw": 65, "smSrw": 66, "mqr": 67, "xtf": 68, "rAHs": 69, "swxAx": 70, "kmw": 71, "mgrt": 72, "zwA": 73, "aAgnj": 74, "zHy": 75, "Snatj": 76, "jwA": 77, "ATp": 78, "twn": 79, "Tf": 80, "wHAm": 81, "TwTw": 82, "mskA": 83, "gnm": 84, "bTi": 85, "stA": 86, "wbt": 87, "jbsA": 88, "dxj": 89, "Hpj": 90, "nSbSb": 91, "ffj": 92, "gsA": 93, "pAu": 94, "anbr": 95, "mwmw": 96, "snT": 97, "wSd": 98, "Trp": 99, "nDrw": 100, "pDww": 101, "nhAsi": 102, "zmAi": 103, "jhAb": 104, "snfj": 105, "sam": 106, "swAw": 107, "XArw": 108, "bnD": 109, "hnjt": 110, "bq": 111, "HAgg": 112, "sjrA": 113, "nHb": 114, "hA": 115, "nxwj": 116, "swn": 117, "tjA": 118, "SDtm": 119, "Dfy": 120, "sxpj": 121, "tbjn": 122, "wAmm": 123, "Haj": 124, "jqh": 125, "wtywt": 126, "kh": 127, "tjw": 128, "HnA": 129, "Tjm": 130, "z": 131, "kmj": 132, "Dnj": 133, "dmD": 134, "pAjs": 135, "rr": 136, "nws": 137, "wAxi": 138, "xnt": 139, "az": 140, "Sfi": 141, "tfrr": 142, "jkzj": 143, "qnbw": 144, "ag": 145, "jbH": 146, "rdj": 147, "ASr": 148, "bAb": 149, "anq": 150, "sdbw": 151, "ssnb": 152, "mnttn": 153, "xAy": 154, "aDAj": 155, "qnb": 156, "zbA": 157, "ity": 158, "qmnn": 159, "pzgA": 160, "xnwt": 161, "fdqA": 162, "mHtt": 163, "Hp": 164, "jSf": 165, "saHw": 166, "Xajw": 167, "mXnm": 168, "Dh": 169, "wkw": 170, "DAmAa": 171, "sAww": 172, "sSS": 173, "DAd": 174, "mgg": 175, "astj": 176, "sAr": 177, "Sbtj": 178, "zf": 179, "snTj": 180, "sDb": 181, "znfws": 182, "mntk": 183, "knjw": 184, "Snaw": 185, "HAb": 186, "tmtm": 187, "mxnti": 188, "snxx": 189, "ri": 190, "Xni": 191, "rtnw": 192, "mtA": 193, "wtn": 194, "sxAs": 195, "qAH": 196, "sAtj": 197, "zmnnw": 198, "nprj": 199, "nayA": 200, "jf": 201, "jhhy": 202, "jmbjj": 203, "snw": 204, "jjw": 205, "wnmy": 206, "THnw": 207, "nbj": 208, "dnjw": 209, "HmAg": 210, "tmm": 211, "hnqw": 212, "Hmm": 213, "tSjA": 214, "xApl": 215, "HAp": 216, "rg": 217, "jntw": 218, "mTn": 219, "nHrw": 220, "wjsj": 221, "Xrd": 222, "pDi": 223, "tkn": 224, "sbhA": 225, "jnhA": 226, "sjq": 227, "mxwj": 228, "jwdnb": 229, "smHi": 230, "SASA": 231, "Aaaj": 232, "nsq": 233, "bAgj": 234, "nna": 235, "baj": 236, "pzmTk": 237, "bxn": 238, "mi": 239, "xnmm": 240, "wrk": 241, "nmj": 242, "jkn": 243, "jgp": 244, "jbj": 245, "ktt": 246, "mxj": 247, "bzi": 248, "tnbwX": 249, "rDD": 250, "du": 251, "swtx": 252, "hAnn": 253, "rwjj": 254, "pgs": 255, "apS": 256, "hAqA": 257, "HnggA": 258, "rmny": 259, "sSrw": 260, "wHmj": 261, "bdydy": 262, "ntwr": 263, "Hsi": 264, "HAmw": 265, "txtx": 266, "kAj": 267, "dgm": 268, "tjHnw": 269, "Tstj": 270, "nxbxb": 271, "Ajrr": 272, "Hwn": 273, "jnbw": 274, "pqj": 275, "Tntj": 276, "aqA": 277, "xar": 278, "Aw": 279, "xtw": 280, "qrf": 281, "Hbsw": 282, "Hi": 283, "xwAsn": 284, "wxAxj": 285, "sma": 286, "htw": 287, "jbT": 288, "wst": 289, "jAkb": 290, "j": 291, "jsf": 292, "nfnfn": 293, "jmtj": 294, "Sr": 295, "awnw": 296, "Dwjw": 297, "raw": 298, "SAp": 299, "mtj": 300, "knknm": 301, "fnt": 302, "nby": 303, "tAy": 304, "hAn": 305, "zAt": 306, "mnz": 307, "jptn": 308, "nAyw": 309, "g": 310, "ani": 311, "qmH": 312, "xArw": 313, "mjnw": 314, "mm": 315, "Hpy": 316, "Aya": 317, "snhzy": 318, "whnn": 319, "gmj": 320, "THr": 321, "msDm": 322, "sStA": 323, "msA": 324, "Hwywy": 325, "mAjdy": 326, "bAwj": 327, "wAs": 328, "Hmz": 329, "atxww": 330, "Hnzk": 331, "qAqAw": 332, "jtm": 333, "sTHn": 334, "saq": 335, "jAby": 336, "nmtAw": 337, "XaA": 338, "smH": 339, "rhni": 340, "sXm": 341, "aqAy": 342, "Hnnj": 343, "bSb": 344, "qfn": 345, "rxjt": 346, "ndby": 347, "xjw": 348, "kAmw": 349, "arry": 350, "SbSb": 351, "wnDr": 352, "TAzz": 353, "xkr": 354, "bkA": 355, "Dp": 356, "tpH": 357, "bl": 358, "mAx": 359, "Hswy": 360, "gA": 361, "nfrw": 362, "antjw": 363, "zanx": 364, "wbd": 365, "hqs": 366, "twA": 367, "jwtjw": 368, "smAj": 369, "TAm": 370, "pAvy": 371, "Ddd": 372, "ntfjw": 373, "pHD": 374, "Au": 375, "pTH": 376, "sHA": 377, "kbnj": 378, "gAsf": 379, "xAi": 380, "qrD": 381, "Xsr": 382, "jnjw": 383, "Hwrw": 384, "Atwtw": 385, "hhy": 386, "mnmn": 387, "hpnw": 388, "sAbs": 389, "jzy": 390, "sed": 391, "ndr": 392, "nhAw": 393, "pjs": 394, "mjaHa": 395, "wDHj": 396, "nbA": 397, "sSAw": 398, "Xnwj": 399, "bTA": 400, "nhAA": 401, "kT": 402, "mann": 403, "Dprtj": 404, "wrSt": 405, "pxA": 406, "jTT": 407, "snq": 408, "xjxj": 409, "znbA": 410, "bwbw": 411, "ff": 412, "pSks": 413, "zAA": 414, "grg": 415, "smry": 416, "fnwt": 417, "xmy": 418, "XAj": 419, "pXrw": 420, "wAh": 421, "mDdw": 422, "jkAw": 423, "tfj": 424, "xma": 425, "AAj": 426, "sHmm": 427, "mwt": 428, "sAwi": 429, "xrd": 430, "dny": 431, "may": 432, "xjy": 433, "sHb": 434, "zjSj": 435, "wbnn": 436, "api": 437, "tjmwt": 438, "sHwr": 439, "pHrr": 440, "SdSd": 441, "sqbH": 442, "stwh": 443, "xAj": 444, "ngb": 445, "mHt": 446, "jmw": 447, "DSr": 448, "Hwi": 449, "ytpl": 450, "mAddwj": 451, "sjd": 452, "Ha": 453, "mr": 454, "swxt": 455, "wbw": 456, "twk": 457, "zty": 458, "aAa": 459, "pxy": 460, "rhb": 461, "wwj": 462, "TAzj": 463, "snnm": 464, "tbsTA": 465, "rhj": 466, "Tbn": 467, "TTw": 468, "t": 469, "Shr": 470, "sHDn": 471, "pwfj": 472, "sxpt": 473, "skm": 474, "anT": 475, "zxm": 476, "gmHj": 477, "SSt": 478, "nta": 479, "Sk": 480, "rkHw": 481, "nwAwA": 482, "maxnm": 483, "Hzmny": 484, "agt": 485, "wypl": 486, "aSgAjw": 487, "Any": 488, "hAbnj": 489, "Stjw": 490, "mDri": 491, "Dbn": 492, "drp": 493, "Szr": 494, "HDDwj": 495, "jrwtw": 496, "janw": 497, "sAbj": 498, "Tzi": 499, "jAxj": 500, "kmmr": 501, "Atjwt": 502, "qmd": 503, "anD": 504, "jpy": 505, "tjHw": 506, "mspr": 507, "nbu": 508, "Ddk": 509, "mrrw": 510, "HAt": 511, "nswy": 512, "THHwy": 513, "Snm": 514, "mHjw": 515, "AHt": 516, "wnSjw": 517, "sDAi": 518, "rnmm": 519, "swtwt": 520, "nSnj": 521, "aaj": 522, "smwn": 523, "aqAA": 524, "Hfrn": 525, "dfi": 526, "sbtty": 527, "ASb": 528, "rry": 529, "XAw": 530, "HD": 531, "Ts": 532, "gn": 533, "mntt": 534, "xrj": 535, "nnS": 536, "fk": 537, "hnr": 538, "ka": 539, "tjdu": 540, "mnf": 541, "rAy": 542, "Tmt": 543, "sfA": 544, "Dm": 545, "tnbX": 546, "kxnt": 547, "pDw": 548, "qAr": 549, "mzr": 550, "xpA": 551, "Xr": 552, "tHn": 553, "Thb": 554, "wy": 555, "Hrti": 556, "jqd": 557, "HDj": 558, "dpw": 559, "sndu": 560, "kAwj": 561, "afD": 562, "kttA": 563, "gS": 564, "jAbw": 565, "aAp": 566, "hAru": 567, "StA": 568, "rwi": 569, "SAq": 570, "mSd": 571, "Ab": 572, "bhks": 573, "jAaS": 574, "tjmHy": 575, "HsA": 576, "ry": 577, "drf": 578, "HApw": 579, "mnTA": 580, "Hnwn": 581, "nwH": 582, "arfwj": 583, "sgA": 584, "mtk": 585, "jAwj": 586, "nnSm": 587, "sft": 588, "san": 589, "nTHTH": 590, "aqy": 591, "wAwA": 592, "mpa": 593, "dd": 594, "mnTAm": 595, "wfAw": 596, "rDjnj": 597, "jm": 598, "sbjk": 599, "jwpT": 600, "ntri": 601, "bbj": 602, "ngA": 603, "sXnn": 604, "sqAs": 605, "nqw": 606, "bxnw": 607, "nDry": 608, "tjwjA": 609, "qrt": 610, "wAwt": 611, "sgrH": 612, "ypwy": 613, "mjdA": 614, "sbqA": 615, "pgA": 616, "mnDj": 617, "sar": 618, "wSm": 619, "sntmtm": 620, "thm": 621, "srwi": 622, "bTy": 623, "jzkn": 624, "znq": 625, "wnwn": 626, "jAHs": 627, "jnti": 628, "py": 629, "qqA": 630, "hAdmw": 631, "Spty": 632, "Xti": 633, "tsn": 634, "Hty": 635, "nTrj": 636, "mtrx": 637, "mAtw": 638, "hbAy": 639, "ja": 640, "wzf": 641, "jswA": 642, "jnj": 643, "wSS": 644, "Hrwr": 645, "tjkSr": 646, "msnb": 647, "sms": 648, "DArA": 649, "nfrww": 650, "dxw": 651, "mhAwt": 652, "rsj": 653, "spd": 654, "smn": 655, "jab": 656, "Szpp": 657, "bart": 658, "wabw": 659, "grh": 660, "awt": 661, "sx": 662, "njnkn": 663, "hjms": 664, "jTwTw": 665, "rs": 666, "zAj": 667, "nxj": 668, "Thn": 669, "jkjjt": 670, "mzA": 671, "AH": 672, "gAj": 673, "srp": 674, "snti": 675, "swnwn": 676, "mfkA": 677, "xaw": 678, "nSni": 679, "jz": 680, "Srjw": 681, "TknS": 682, "wzT": 683, "jwkjw": 684, "gy": 685, "jnn": 686, "zzj": 687, "ktkt": 688, "dwdy": 689, "ndb": 690, "SAd": 691, "bD": 692, "gbbtw": 693, "jdAt": 694, "dDw": 695, "yhy": 696, "bXs": 697, "fAt": 698, "mahn": 699, "gsm": 700, "spytkhrspsrmkk": 701, "mkt": 702, "Htptj": 703, "skp": 704, "Hq": 705, "jnHr": 706, "yAd": 707, "snj": 708, "dnb": 709, "txsj": 710, "rkrk": 711, "bSt": 712, "jbtj": 713, "strj": 714, "swx": 715, "qwj": 716, "kSwj": 717, "tjt": 718, "zAT": 719, "shrr": 720, "nAw": 721, "rmt": 722, "gr": 723, "mtrj": 724, "hapj": 725, "sqdd": 726, "gi": 727, "jAy": 728, "bj": 729, "mAz": 730, "mAq": 731, "qfA": 732, "wAS": 733, "sbAg": 734, "amaA": 735, "msHw": 736, "Hrty": 737, "ngg": 738, "xaa": 739, "qdd": 740, "qmjw": 741, "mmj": 742, "gH": 743, "HDHD": 744, "gmA": 745, "gAg": 746, "wSbw": 747, "ysHmw": 748, "xru": 749, "qtqt": 750, "xrs": 751, "jwdn": 752, "wAHw": 753, "zpr": 754, "sxtxt": 755, "pA": 756, "SAk": 757, "sHH": 758, "SmAj": 759, "nAhA": 760, "wbx": 761, "sDwy": 762, "Tnr": 763, "sngr": 764, "tfi": 765, "Smt": 766, "nbsj": 767, "wna": 768, "rki": 769, "kAf": 770, "rksw": 771, "Tstn": 772, "ssbq": 773, "wnDw": 774, "wbnw": 775, "tAr": 776, "Dfa": 777, "Hpp": 778, "bT": 779, "gAs": 780, "hAbhAb": 781, "bn": 782, "sbtj": 783, "Srr": 784, "nSfSf": 785, "wjpl": 786, "nnn": 787, "jnb": 788, "rmnw": 789, "sdnm": 790, "mzH": 791, "fq": 792, "nxt": 793, "jnDw": 794, "Tjrf": 795, "manx": 796, "jmAxwt": 797, "hsh": 798, "ankk": 799, "sxdxd": 800, "SrStkt": 801, "hdd": 802, "xmi": 803, "ssjw": 804, "amaa": 805, "jna": 806, "mnw": 807, "kAhA": 808, "Haawy": 809, "rjwd": 810, "jAbb": 811, "qAa": 812, "jbAj": 813, "sDmj": 814, "sTA": 815, "fqA": 816, "knkn": 817, "jnd": 818, "wAHj": 819, "ajw": 820, "Arktkstk": 821, "djA": 822, "tfnw": 823, "bjdj": 824, "gAHsy": 825, "wtA": 826, "jdb": 827, "mhh": 828, "bAgsw": 829, "jr": 830, "pj": 831, "whAb": 832, "kAw": 833, "ssjb": 834, "ppw": 835, "wDA": 836, "manfw": 837, "DAjw": 838, "hkA": 839, "mwy": 840, "hbnw": 841, "gAHs": 842, "tbs": 843, "jaa": 844, "stAw": 845, "gAA": 846, "AqA": 847, "prt": 848, "gmH": 849, "txbs": 850, "xAwt": 851, "zAr": 852, "Xp": 853, "AXa": 854, "Tjwj": 855, "tHwj": 856, "ax": 857, "HArr": 858, "mw": 859, "hArpwy": 860, "TjTj": 861, "sTn": 862, "xfA": 863, "DHwt": 864, "prdtxy": 865, "jbn": 866, "nTz": 867, "nxjx": 868, "znnw": 869, "nHr": 870, "sHtm": 871, "prwj": 872, "Htpwt": 873, "zk": 874, "nbwi": 875, "sXkr": 876, "snDm": 877, "nxf": 878, "btbt": 879, "jnty": 880, "dhyn": 881, "nmtj": 882, "Hmsj": 883, "saqw": 884, "wh": 885, "Axw": 886, "Twfj": 887, "mDwj": 888, "rpH": 889, "tty": 890, "bAq": 891, "mXdtj": 892, "Spnn": 893, "ftk": 894, "jknw": 895, "Dsrt": 896, "dbn": 897, "txf": 898, "stjmw": 899, "snhA": 900, "Xnw": 901, "mktr": 902, "ADA": 903, "jaar": 904, "hbt": 905, "sjAT": 906, "Hzw": 907, "fx": 908, "mhAw": 909, "sXt": 910, "xdxd": 911, "Tsw": 912, "wsH": 913, "ktty": 914, "Dz": 915, "wxAx": 916, "mat": 917, "sbxbx": 918, "xsd": 919, "TwTkn": 920, "zHj": 921, "sAks": 922, "tnr": 923, "TH": 924, "km": 925, "wnSw": 926, "snni": 927, "HwtA": 928, "Tkr": 929, "aXnwtj": 930, "mstwj": 931, "kbs": 932, "pAwtjw": 933, "wnx": 934, "zAS": 935, "rxy": 936, "StT": 937, "ksbw": 938, "fgA": 939, "jnr": 940, "Srj": 941, "jkA": 942, "btS": 943, "zjzj": 944, "ndsds": 945, "jsDn": 946, "kAhs": 947, "mdj": 948, "atx": 949, "dbHn": 950, "xaj": 951, "nAtw": 952, "pHwj": 953, "whs": 954, "tAHy": 955, "nbdd": 956, "Sam": 957, "Saw": 958, "srw": 959, "nXmH": 960, "ASjH": 961, "tjHwA": 962, "Stp": 963, "stb": 964, "sXk": 965, "nfA": 966, "Ay": 967, "zbn": 968, "jwg": 969, "whn": 970, "TrTr": 971, "sxnj": 972, "wHay": 973, "jnmm": 974, "ajmw": 975, "xsD": 976, "zmn": 977, "bnbn": 978, "Tkm": 979, "spAt": 980, "Ssr": 981, "sfT": 982, "sHAp": 983, "qi": 984, "zbw": 985, "sqHA": 986, "sdS": 987, "tfn": 988, "Hfd": 989, "qf": 990, "tt": 991, "Xrw": 992, "tnhA": 993, "AXp": 994, "jdw": 995, "sbn": 996, "qrjA": 997, "XAXA": 998, "ti": 999, "ntnw": 1000, "tby": 1001, "mrkbt": 1002, "SnT": 1003, "watt": 1004, "Tnt": 1005, "pX": 1006, "msH": 1007, "Hdj": 1008, "Txrry": 1009, "zwrj": 1010, "jssj": 1011, "Hmwt": 1012, "twri": 1013, "sbAq": 1014, "hAf": 1015, "qAd": 1016, "yw": 1017, "jswt": 1018, "SSd": 1019, "Xdbw": 1020, "rmT": 1021, "mdwy": 1022, "xAns": 1023, "ssA": 1024, "sdbH": 1025, "Spsi": 1026, "xtm": 1027, "msms": 1028, "kb": 1029, "dHr": 1030, "SAasx": 1031, "THsb": 1032, "hAtt": 1033, "nkn": 1034, "jsTwy": 1035, "rb": 1036, "bAgs": 1037, "Sbnw": 1038, "bjA": 1039, "snf": 1040, "ssim": 1041, "HAm": 1042, "hhb": 1043, "Hpd": 1044, "awAi": 1045, "jjj": 1046, "ntwtn": 1047, "Ak": 1048, "jnit": 1049, "Xs": 1050, "y": 1051, "HnHn": 1052, "pgg": 1053, "pDD": 1054, "ndm": 1055, "jdi": 1056, "kpnA": 1057, "tjwj": 1058, "swt": 1059, "smAaw": 1060, "rTn": 1061, "prhq": 1062, "rnwy": 1063, "mjt": 1064, "kfA": 1065, "txj": 1066, "thi": 1067, "DAhA": 1068, "jbhy": 1069, "bjnw": 1070, "wf": 1071, "jrtA": 1072, "DfD": 1073, "qrr": 1074, "bjm": 1075, "nkt": 1076, "nkj": 1077, "bnu": 1078, "hAwv": 1079, "Hmj": 1080, "qAjw": 1081, "dn": 1082, "TApr": 1083, "sfnw": 1084, "andw": 1085, "isj": 1086, "jxm": 1087, "bgA": 1088, "dgg": 1089, "nSw": 1090, "pHt": 1091, "kAy": 1092, "npt": 1093, "snxt": 1094, "jSfj": 1095, "AwAr": 1096, "jwpAt": 1097, "nAr": 1098, "dHj": 1099, "wnS": 1100, "Datt": 1101, "jqrs": 1102, "bHs": 1103, "jksj": 1104, "jten": 1105, "dHA": 1106, "wxr": 1107, "Dj": 1108, "hdp": 1109, "snyt": 1110, "nnwt": 1111, "brktTw": 1112, "ky": 1113, "kAwy": 1114, "jwh": 1115, "Tyw": 1116, "fAkA": 1117, "xAst": 1118, "Sdn": 1119, "ab": 1120, "ankkw": 1121, "wan": 1122, "rnw": 1123, "XAbb": 1124, "twjA": 1125, "Hwsw": 1126, "ktktj": 1127, "wgm": 1128, "Dzf": 1129, "wgAy": 1130, "zXr": 1131, "tj": 1132, "xrxr": 1133, "fAg": 1134, "dmdy": 1135, "wAi": 1136, "AmA": 1137, "wxd": 1138, "Dbwj": 1139, "SAdb": 1140, "jry": 1141, "Snp": 1142, "jHw": 1143, "sAhd": 1144, "qAbH": 1145, "whh": 1146, "jntj": 1147, "dgj": 1148, "baHj": 1149, "jwAy": 1150, "krA": 1151, "hbj": 1152, "tAdu": 1153, "xrr": 1154, "Sti": 1155, "swsr": 1156, "HsAw": 1157, "TjA": 1158, "mwnf": 1159, "Ddn": 1160, "dbdb": 1161, "Hmy": 1162, "rdn": 1163, "tmmw": 1164, "swni": 1165, "mqn": 1166, "sdAwg": 1167, "irA": 1168, "pwyj": 1169, "sdA": 1170, "bngA": 1171, "Smd": 1172, "dnw": 1173, "fnf": 1174, "pfj": 1175, "bjAy": 1176, "nhm": 1177, "SASAa": 1178, "ya": 1179, "Damw": 1180, "qtS": 1181, "prj": 1182, "snk": 1183, "aHaw": 1184, "twrj": 1185, "Abi": 1186, "sXrj": 1187, "jara": 1188, "zzHA": 1189, "yrmt": 1190, "bwj": 1191, "qy": 1192, "xbx": 1193, "mAy": 1194, "wSt": 1195, "twnj": 1196, "srq": 1197, "Hnky": 1198, "Sdd": 1199, "xA": 1200, "rwjw": 1201, "jnHw": 1202, "mam": 1203, "SAyt": 1204, "Hnk": 1205, "rmy": 1206, "tr": 1207, "nmwy": 1208, "jSnn": 1209, "sjar": 1210, "sks": 1211, "TrH": 1212, "jsbj": 1213, "nb": 1214, "sTAw": 1215, "fxx": 1216, "wDAy": 1217, "man": 1218, "mST": 1219, "jsjsj": 1220, "whb": 1221, "nxtj": 1222, "sjn": 1223, "jDj": 1224, "bqA": 1225, "rz": 1226, "kmH": 1227, "srjw": 1228, "naw": 1229, "dmjr": 1230, "Hjkn": 1231, "ksnDm": 1232, "THn": 1233, "zSw": 1234, "Hpt": 1235, "xti": 1236, "qbHw": 1237, "stwt": 1238, "bjAbA": 1239, "nDmj": 1240, "Tnf": 1241, "khA": 1242, "Tm": 1243, "jrtn": 1244, "amy": 1245, "jAxi": 1246, "sHAw": 1247, "Dwwj": 1248, "wv": 1249, "jdd": 1250, "wHy": 1251, "spnj": 1252, "szf": 1253, "mabA": 1254, "jdr": 1255, "jny": 1256, "awn": 1257, "gbw": 1258, "sjAd": 1259, "srdd": 1260, "pwgA": 1261, "gAnnj": 1262, "jwsA": 1263, "aDw": 1264, "gbd": 1265, "qnn": 1266, "xAxA": 1267, "bjnrj": 1268, "psj": 1269, "wAsjr": 1270, "sxi": 1271, "dAdAjw": 1272, "sawA": 1273, "jAs": 1274, "wjAw": 1275, "swrj": 1276, "ssnD": 1277, "Sbn": 1278, "afn": 1279, "hATs": 1280, "dHdH": 1281, "SAjw": 1282, "zAu": 1283, "bzj": 1284, "hbjw": 1285, "kmry": 1286, "ntAsn": 1287, "tS": 1288, "xmmj": 1289, "znk": 1290, "wdnw": 1291, "Snay": 1292, "dAng": 1293, "xAwi": 1294, "xpnn": 1295, "tqf": 1296, "Tnu": 1297, "srpt": 1298, "sxp": 1299, "bHbH": 1300, "nbdjw": 1301, "sArt": 1302, "jAT": 1303, "jxj": 1304, "tjr": 1305, "Sfdj": 1306, "stjHn": 1307, "nxnw": 1308, "jzhn": 1309, "akk": 1310, "kdu": 1311, "asa": 1312, "wpi": 1313, "sn": 1314, "rhr": 1315, "wmtj": 1316, "jnby": 1317, "bnrj": 1318, "wrSS": 1319, "Sna": 1320, "AxAx": 1321, "XpA": 1322, "sHt": 1323, "xrw": 1324, "spp": 1325, "nwb": 1326, "Aab": 1327, "HtAw": 1328, "gg": 1329, "ssx": 1330, "xz": 1331, "mnty": 1332, "sAbw": 1333, "SD": 1334, "sxai": 1335, "kmt": 1336, "jmnH": 1337, "znf": 1338, "ksm": 1339, "ndj": 1340, "mTA": 1341, "Dmj": 1342, "xri": 1343, "nSj": 1344, "sDfA": 1345, "mAfd": 1346, "jptwt": 1347, "mjb": 1348, "Hri": 1349, "hftj": 1350, "sisi": 1351, "Hmtj": 1352, "sdn": 1353, "mAwA": 1354, "Htpt": 1355, "DrDry": 1356, "smsr": 1357, "nrA": 1358, "Sms": 1359, "jh": 1360, "psD": 1361, "wSa": 1362, "nhs": 1363, "HApj": 1364, "swrH": 1365, "Hngg": 1366, "tSr": 1367, "aSA": 1368, "aztrt": 1369, "rdH": 1370, "btk": 1371, "nhmh": 1372, "znb": 1373, "sSj": 1374, "tbi": 1375, "psst": 1376, "qj": 1377, "fnT": 1378, "fqAw": 1379, "sjpd": 1380, "bStj": 1381, "nrr": 1382, "Dn": 1383, "jgAp": 1384, "jxnm": 1385, "snrjw": 1386, "kmkm": 1387, "SAmst": 1388, "snx": 1389, "tmw": 1390, "wbtj": 1391, "dfD": 1392, "sbHw": 1393, "wDD": 1394, "wzm": 1395, "rns": 1396, "smdt": 1397, "Dws": 1398, "sSmm": 1399, "pry": 1400, "tjm": 1401, "TAi": 1402, "jmby": 1403, "arqi": 1404, "sAwq": 1405, "DHwtt": 1406, "jwaa": 1407, "sASr": 1408, "Hby": 1409, "xxwj": 1410, "ssbi": 1411, "faA": 1412, "sr": 1413, "tbh": 1414, "qdr": 1415, "jwj": 1416, "DAssw": 1417, "sAxAx": 1418, "Smjw": 1419, "kff": 1420, "wpl": 1421, "sqjj": 1422, "Ahm": 1423, "aHi": 1424, "xnw": 1425, "gnf": 1426, "rbty": 1427, "pny": 1428, "HHj": 1429, "grj": 1430, "wAx": 1431, "pXd": 1432, "nqr": 1433, "bDAw": 1434, "SS": 1435, "thr": 1436, "qstj": 1437, "yy": 1438, "msdm": 1439, "sAx": 1440, "jt": 1441, "jdwt": 1442, "wgAg": 1443, "nSnn": 1444, "kjryk": 1445, "baTn": 1446, "dwi": 1447, "sbAy": 1448, "psmvk": 1449, "wss": 1450, "twnn": 1451, "marj": 1452, "nHti": 1453, "yHj": 1454, "mnm": 1455, "sak": 1456, "TAb": 1457, "mjzt": 1458, "maDA": 1459, "sgrA": 1460, "mAui": 1461, "Swj": 1462, "xtmw": 1463, "dsr": 1464, "nfrs": 1465, "fy": 1466, "rwwj": 1467, "bkAw": 1468, "syfy": 1469, "wDAj": 1470, "jqA": 1471, "plt": 1472, "ngAgA": 1473, "AnAn": 1474, "jmr": 1475, "htt": 1476, "nDm": 1477, "Xkrt": 1478, "qdj": 1479, "sAXb": 1480, "sjArr": 1481, "zw": 1482, "bh": 1483, "qnw": 1484, "xpr": 1485, "by": 1486, "Hwry": 1487, "nHsi": 1488, "nwtwt": 1489, "jwhA": 1490, "najw": 1491, "qAjA": 1492, "xAd": 1493, "Aaab": 1494, "sAb": 1495, "sTT": 1496, "SwSy": 1497, "jrTw": 1498, "bAD": 1499, "sqAy": 1500, "zrjw": 1501, "jpf": 1502, "smx": 1503, "Xt": 1504, "hAtj": 1505, "anb": 1506, "nbD": 1507, "wAgS": 1508, "pSnj": 1509, "ptn": 1510, "Snd": 1511, "nDnDtj": 1512, "TzTz": 1513, "Sby": 1514, "njpt": 1515, "nr": 1516, "bAn": 1517, "jSp": 1518, "qAHA": 1519, "xprw": 1520, "ATA": 1521, "kDn": 1522, "dpH": 1523, "mnjA": 1524, "rmm": 1525, "pfss": 1526, "btw": 1527, "v": 1528, "wnzj": 1529, "nri": 1530, "qdw": 1531, "npr": 1532, "jnwn": 1533, "dbb": 1534, "fsw": 1535, "Srdn": 1536, "gsti": 1537, "zmzrj": 1538, "mry": 1539, "TAry": 1540, "zz": 1541, "sjnw": 1542, "jxrqyn": 1543, "sdx": 1544, "nzp": 1545, "wAHwAH": 1546, "hnd": 1547, "sdwx": 1548, "ssT": 1549, "pndn": 1550, "bHsw": 1551, "bsk": 1552, "kft": 1553, "DiDi": 1554, "mHm": 1555, "tjpl": 1556, "HAfy": 1557, "jDi": 1558, "SATw": 1559, "Xi": 1560, "sATw": 1561, "mss": 1562, "mHnw": 1563, "mtAw": 1564, "abw": 1565, "wrSy": 1566, "Dddi": 1567, "swdn": 1568, "Sndy": 1569, "kAwt": 1570, "arrw": 1571, "mATA": 1572, "sgAgA": 1573, "xfAA": 1574, "pns": 1575, "dA": 1576, "rAm": 1577, "sww": 1578, "xtA": 1579, "sbdS": 1580, "btn": 1581, "aqa": 1582, "dmm": 1583, "Abxx": 1584, "smnn": 1585, "Agg": 1586, "nHtA": 1587, "wsaA": 1588, "Sdw": 1589, "zi": 1590, "njAjA": 1591, "hAd": 1592, "DAhy": 1593, "wD": 1594, "gsj": 1595, "Atj": 1596, "jSst": 1597, "txbw": 1598, "Twj": 1599, "bjwk": 1600, "sbbA": 1601, "jwdj": 1602, "rdy": 1603, "Snwy": 1604, "Tnfj": 1605, "Dan": 1606, "zmAy": 1607, "mnjnjw": 1608, "grS": 1609, "xAtb": 1610, "nww": 1611, "msjw": 1612, "sjw": 1613, "Hsbw": 1614, "DHA": 1615, "bHni": 1616, "jbAn": 1617, "rT": 1618, "arq": 1619, "gAp": 1620, "srsw": 1621, "wtx": 1622, "hkr": 1623, "mnDm": 1624, "ntfj": 1625, "bwAw": 1626, "HDtj": 1627, "aAmj": 1628, "msm": 1629, "hy": 1630, "axnj": 1631, "nHA": 1632, "nwd": 1633, "gju": 1634, "ywpl": 1635, "nDmt": 1636, "sthb": 1637, "Hts": 1638, "tktk": 1639, "xDy": 1640, "nXs": 1641, "Xdr": 1642, "kaf": 1643, "nhdh": 1644, "qdb": 1645, "Spj": 1646, "sHAi": 1647, "snhprgn": 1648, "sSm": 1649, "apw": 1650, "xmai": 1651, "nh": 1652, "xAnn": 1653, "mnwy": 1654, "StSt": 1655, "njAj": 1656, "sxAw": 1657, "xpp": 1658, "mnws": 1659, "stAH": 1660, "Htp": 1661, "wnu": 1662, "npw": 1663, "sxar": 1664, "wjs": 1665, "smAr": 1666, "nznzn": 1667, "AXb": 1668, "Hbb": 1669, "Hrpl": 1670, "msS": 1671, "mAHw": 1672, "fs": 1673, "txi": 1674, "mtwn": 1675, "TAwt": 1676, "Hzj": 1677, "sxwd": 1678, "gAgA": 1679, "kAjA": 1680, "nwa": 1681, "gfnw": 1682, "bASA": 1683, "sAjw": 1684, "nxp": 1685, "Dwjwj": 1686, "gAbgA": 1687, "Tny": 1688, "AbAb": 1689, "Dnd": 1690, "rSpw": 1691, "nxx": 1692, "zAtA": 1693, "tjwt": 1694, "swtA": 1695, "ddn": 1696, "znn": 1697, "aAgAs": 1698, "sxwi": 1699, "fD": 1700, "swH": 1701, "SwAw": 1702, "srsr": 1703, "xnD": 1704, "nwDw": 1705, "maXr": 1706, "Hatj": 1707, "wgAp": 1708, "zmr": 1709, "sAwty": 1710, "nsj": 1711, "rrk": 1712, "mjnj": 1713, "sSA": 1714, "sthi": 1715, "qry": 1716, "jst": 1717, "zkr": 1718, "zjf": 1719, "sps": 1720, "Amaw": 1721, "mtr": 1722, "Ssy": 1723, "mgs": 1724, "ntt": 1725, "mrj": 1726, "jwstn": 1727, "Tst": 1728, "mnfr": 1729, "hrt": 1730, "thb": 1731, "Ddb": 1732, "jzwt": 1733, "bX": 1734, "Hrrj": 1735, "Hnwy": 1736, "tAwj": 1737, "swgA": 1738, "snHw": 1739, "xnsA": 1740, "sqb": 1741, "sfn": 1742, "sgnn": 1743, "wrj": 1744, "Hftn": 1745, "dnxnx": 1746, "zSp": 1747, "sxwy": 1748, "sbAw": 1749, "sqAHA": 1750, "pds": 1751, "aana": 1752, "axi": 1753, "fay": 1754, "Sry": 1755, "nni": 1756, "HntAsw": 1757, "kAt": 1758, "Swi": 1759, "jmHD": 1760, "sAq": 1761, "Sdty": 1762, "jbi": 1763, "aX": 1764, "aHaj": 1765, "bAbAwt": 1766, "mswt": 1767, "jbs": 1768, "wDb": 1769, "mHi": 1770, "sxaa": 1771, "rtH": 1772, "zATw": 1773, "Xsi": 1774, "qwHn": 1775, "nwt": 1776, "qAb": 1777, "dSdS": 1778, "szwn": 1779, "wmnj": 1780, "jAzn": 1781, "hwr": 1782, "jbTrs": 1783, "bjw": 1784, "xn": 1785, "xtxt": 1786, "Hmu": 1787, "Abdj": 1788, "SnTT": 1789, "dpy": 1790, "aH": 1791, "sxwA": 1792, "jttj": 1793, "ndfdf": 1794, "pH": 1795, "bdd": 1796, "gb": 1797, "jaAw": 1798, "Xbt": 1799, "tfjw": 1800, "njywbn": 1801, "XAi": 1802, "sfw": 1803, "gsw": 1804, "pnw": 1805, "snwy": 1806, "qAs": 1807, "zmi": 1808, "Tmy": 1809, "jmHw": 1810, "gbi": 1811, "wng": 1812, "TAtjw": 1813, "grm": 1814, "gAHy": 1815, "xmnw": 1816, "qbH": 1817, "qnj": 1818, "msD": 1819, "bAj": 1820, "nTb": 1821, "nfr": 1822, "shAd": 1823, "zmj": 1824, "drj": 1825, "jyAyi": 1826, "spA": 1827, "nA": 1828, "anxy": 1829, "hms": 1830, "Dhw": 1831, "Dsw": 1832, "nSny": 1833, "Tms": 1834, "Hms": 1835, "nHj": 1836, "wft": 1837, "nTrw": 1838, "Snaa": 1839, "sxntjw": 1840, "Tnh": 1841, "nwjw": 1842, "Afj": 1843, "prT": 1844, "wyt": 1845, "xam": 1846, "kfj": 1847, "msDn": 1848, "jnbj": 1849, "wHa": 1850, "nhmhm": 1851, "dbd": 1852, "Hwj": 1853, "tnj": 1854, "rTw": 1855, "nnjw": 1856, "awtj": 1857, "Snjs": 1858, "Sfnw": 1859, "mhj": 1860, "dDhDw": 1861, "DrT": 1862, "mab": 1863, "Hjp": 1864, "aAgsw": 1865, "yAkb": 1866, "Snw": 1867, "db": 1868, "masw": 1869, "bwi": 1870, "sXnk": 1871, "twr": 1872, "amg": 1873, "Dri": 1874, "Hbsy": 1875, "kz": 1876, "pxAjw": 1877, "mSaq": 1878, "bxx": 1879, "gAdA": 1880, "yt": 1881, "Hrjw": 1882, "pat": 1883, "Hbd": 1884, "jrpw": 1885, "xnmw": 1886, "Sfa": 1887, "bAH": 1888, "dqr": 1889, "Ati": 1890, "nHsj": 1891, "jk": 1892, "rjwhA": 1893, "mAnw": 1894, "njn": 1895, "bAdnw": 1896, "psjw": 1897, "dpwy": 1898, "nts": 1899, "Thnw": 1900, "Hnytj": 1901, "Ddf": 1902, "Saq": 1903, "xsb": 1904, "snn": 1905, "hAbt": 1906, "TAwy": 1907, "ST": 1908, "sdni": 1909, "xbs": 1910, "hAr": 1911, "SAmy": 1912, "nqa": 1913, "jfn": 1914, "xAa": 1915, "smd": 1916, "sxd": 1917, "hbn": 1918, "pntn": 1919, "sgdy": 1920, "Hnr": 1921, "wSb": 1922, "nHd": 1923, "zSi": 1924, "HnbAbA": 1925, "Hwfrj": 1926, "tbH": 1927, "jAa": 1928, "gbgb": 1929, "wxa": 1930, "sXAw": 1931, "anty": 1932, "qAmd": 1933, "Swwy": 1934, "smar": 1935, "msi": 1936, "Srw": 1937, "nah": 1938, "gsr": 1939, "Tktn": 1940, "Tkn": 1941, "THnn": 1942, "drgy": 1943, "xdp": 1944, "dmy": 1945, "Hnmm": 1946, "Dwi": 1947, "sXAww": 1948, "yjy": 1949, "Abu": 1950, "Hnrg": 1951, "Sat": 1952, "bAjAwk": 1953, "xpd": 1954, "pzd": 1955, "rHb": 1956, "mhn": 1957, "mjw": 1958, "ntn": 1959, "jdA": 1960, "nhsi": 1961, "jdHw": 1962, "pAxAty": 1963, "jzk": 1964, "jd": 1965, "mhAd": 1966, "abSw": 1967, "Trw": 1968, "dwA": 1969, "Hrst": 1970, "bAd": 1971, "Hbnn": 1972, "pjp": 1973, "nbnb": 1974, "swtj": 1975, "rwrw": 1976, "ngsgs": 1977, "dbHt": 1978, "tAytj": 1979, "dqq": 1980, "hbnj": 1981, "gAHsj": 1982, "Hwnj": 1983, "bnS": 1984, "nd": 1985, "tjwn": 1986, "hm": 1987, "jv": 1988, "DfA": 1989, "dfn": 1990, "sntj": 1991, "sHwj": 1992, "AxA": 1993, "tjSs": 1994, "srfy": 1995, "rssj": 1996, "HHy": 1997, "Trt": 1998, "wwtj": 1999, "zwf": 2000, "Ahwt": 2001, "xntt": 2002, "HDi": 2003, "Hry": 2004, "XAp": 2005, "md": 2006, "sdj": 2007, "dgAs": 2008, "SAw": 2009, "kjwy": 2010, "wrH": 2011, "pn": 2012, "mjA": 2013, "mkHAy": 2014, "abAA": 2015, "jwnn": 2016, "sX": 2017, "p": 2018, "rjw": 2019, "zxzx": 2020, "zAHm": 2021, "zH": 2022, "jfdj": 2023, "ktjA": 2024, "ksw": 2025, "kfAy": 2026, "xfa": 2027, "nhi": 2028, "am": 2029, "wnb": 2030, "xnfw": 2031, "zwj": 2032, "aab": 2033, "qrAjw": 2034, "hAy": 2035, "sAry": 2036, "tgA": 2037, "XtXt": 2038, "tX": 2039, "zxA": 2040, "afAy": 2041, "wrS": 2042, "ksj": 2043, "ngi": 2044, "rrn": 2045, "gsgs": 2046, "jH": 2047, "snwH": 2048, "Hntj": 2049, "HbA": 2050, "gsfn": 2051, "ASrt": 2052, "hnhn": 2053, "fngA": 2054, "Hnkw": 2055, "mHw": 2056, "tkA": 2057, "jwy": 2058, "zHp": 2059, "mjwH": 2060, "Ad": 2061, "ta": 2062, "axmt": 2063, "ttt": 2064, "wab": 2065, "nwn": 2066, "xwn": 2067, "sbH": 2068, "Sty": 2069, "swHw": 2070, "sxrw": 2071, "sDa": 2072, "gbty": 2073, "awy": 2074, "swS": 2075, "maxA": 2076, "mrHrt": 2077, "dpt": 2078, "Hwr": 2079, "wdfj": 2080, "sHrj": 2081, "jwrr": 2082, "jpA": 2083, "ytw": 2084, "nqp": 2085, "SmAm": 2086, "mXn": 2087, "HAwy": 2088, "kkwy": 2089, "mSp": 2090, "nmsy": 2091, "tyt": 2092, "spna": 2093, "pnjAt": 2094, "jsy": 2095, "rbw": 2096, "Dry": 2097, "ssxm": 2098, "bs": 2099, "HnTj": 2100, "bwAy": 2101, "aHwtj": 2102, "nHrwj": 2103, "wgAs": 2104, "Spn": 2105, "xnmsw": 2106, "xy": 2107, "tkk": 2108, "wT": 2109, "kAm": 2110, "zwnw": 2111, "Hap": 2112, "wADwAD": 2113, "sjnd": 2114, "zTtt": 2115, "jAsj": 2116, "jpwy": 2117, "didi": 2118, "kkw": 2119, "mnzA": 2120, "nbw": 2121, "dH": 2122, "bhA": 2123, "wj": 2124, "Hbnnt": 2125, "gspw": 2126, "jsi": 2127, "rwy": 2128, "aAD": 2129, "sbg": 2130, "DdDd": 2131, "hjj": 2132, "nSjw": 2133, "qmjA": 2134, "sbS": 2135, "nhzj": 2136, "jww": 2137, "stt": 2138, "TA": 2139, "sqnn": 2140, "Hny": 2141, "mrrj": 2142, "zpj": 2143, "Dhwt": 2144, "sSn": 2145, "mSS": 2146, "xpS": 2147, "jbd": 2148, "qrnr": 2149, "pAyw": 2150, "sqdi": 2151, "Aj": 2152, "mjmj": 2153, "thAm": 2154, "jbrj": 2155, "Hapi": 2156, "Akw": 2157, "sws": 2158, "jmAxw": 2159, "kAvy": 2160, "wS": 2161, "nH": 2162, "hnnj": 2163, "qmAw": 2164, "mty": 2165, "dij": 2166, "aDAw": 2167, "wDAi": 2168, "hnwy": 2169, "amAm": 2170, "HAHA": 2171, "saSA": 2172, "hnj": 2173, "dSrr": 2174, "sdg": 2175, "wb": 2176, "aDdj": 2177, "sH": 2178, "HTT": 2179, "snHH": 2180, "zSpl": 2181, "XsA": 2182, "xAbb": 2183, "TnHr": 2184, "nmtA": 2185, "jTf": 2186, "skn": 2187, "jp": 2188, "nqm": 2189, "Tfw": 2190, "bsbs": 2191, "gAS": 2192, "Sa": 2193, "swh": 2194, "bdn": 2195, "sxnjw": 2196, "qdm": 2197, "rwr": 2198, "AwS": 2199, "apAy": 2200, "jnxj": 2201, "mn": 2202, "bAi": 2203, "sdd": 2204, "agAy": 2205, "txn": 2206, "pzx": 2207, "dAj": 2208, "shr": 2209, "sAgnn": 2210, "sgAbw": 2211, "swnswn": 2212, "tm": 2213, "nHs": 2214, "jmk": 2215, "wHm": 2216, "mbA": 2217, "sHai": 2218, "kfAwj": 2219, "nhdhd": 2220, "mTAi": 2221, "snjhA": 2222, "kkwt": 2223, "znS": 2224, "stni": 2225, "xAs": 2226, "jzj": 2227, "bdS": 2228, "snfi": 2229, "Abdww": 2230, "ntAi": 2231, "zA": 2232, "aAh": 2233, "rq": 2234, "kftjw": 2235, "tmAa": 2236, "mafk": 2237, "sfnd": 2238, "Abwy": 2239, "zAAw": 2240, "mDA": 2241, "xb": 2242, "jkjk": 2243, "fjw": 2244, "mtny": 2245, "hAbu": 2246, "tkAt": 2247, "wxA": 2248, "jmAxj": 2249, "Ark": 2250, "bSi": 2251, "tjy": 2252, "jwi": 2253, "mnxt": 2254, "tjtwy": 2255, "jrir": 2256, "bak": 2257, "baba": 2258, "dAr": 2259, "nfj": 2260, "Sknsrhtw": 2261, "DAH": 2262, "nbsbs": 2263, "xntw": 2264, "pHn": 2265, "zmz": 2266, "Hmt": 2267, "jAtt": 2268, "wxAwy": 2269, "swAwA": 2270, "fntj": 2271, "kAnw": 2272, "amt": 2273, "jTAw": 2274, "xwz": 2275, "Dma": 2276, "zam": 2277, "SAwAb": 2278, "wg": 2279, "smnw": 2280, "ssDm": 2281, "ramrskny": 2282, "jtt": 2283, "mads": 2284, "bqn": 2285, "wxn": 2286, "sxwsj": 2287, "aHAw": 2288, "tmj": 2289, "bjk": 2290, "jmsT": 2291, "pnd": 2292, "nDrjw": 2293, "srmi": 2294, "sdm": 2295, "wAxx": 2296, "hpA": 2297, "msk": 2298, "Htr": 2299, "mnwH": 2300, "SAwy": 2301, "Han": 2302, "nHD": 2303, "stX": 2304, "aqw": 2305, "stnm": 2306, "msxt": 2307, "srA": 2308, "xrstj": 2309, "mqj": 2310, "jHdjy": 2311, "jAtj": 2312, "jwp": 2313, "Axf": 2314, "jAhreszeit": 2315, "sxry": 2316, "qwr": 2317, "qmhm": 2318, "Sdjw": 2319, "tHwt": 2320, "tjmA": 2321, "mntst": 2322, "jmAx": 2323, "dHAy": 2324, "tmAm": 2325, "mar": 2326, "pt": 2327, "zwnT": 2328, "jrt": 2329, "msbb": 2330, "jwnry": 2331, "rfrf": 2332, "btktk": 2333, "tkr": 2334, "DD": 2335, "sXy": 2336, "sgAy": 2337, "adw": 2338, "nny": 2339, "sp": 2340, "snHmy": 2341, "nxi": 2342, "jstn": 2343, "jwpw": 2344, "khAb": 2345, "Dfd": 2346, "Spssj": 2347, "jay": 2348, "xsbb": 2349, "rSu": 2350, "wnt": 2351, "pdH": 2352, "ThA": 2353, "rsf": 2354, "dp": 2355, "HAtjw": 2356, "kSkS": 2357, "nry": 2358, "msxA": 2359, "skr": 2360, "maXAw": 2361, "sSwA": 2362, "HrTs": 2363, "rTm": 2364, "amAmw": 2365, "mtf": 2366, "sanxy": 2367, "ddwn": 2368, "sTsi": 2369, "gHs": 2370, "sTy": 2371, "SArS": 2372, "Sftw": 2373, "nnm": 2374, "mxnm": 2375, "mnHH": 2376, "skmm": 2377, "Sww": 2378, "jkr": 2379, "prrT": 2380, "tff": 2381, "ntAj": 2382, "mHDm": 2383, "Xnnw": 2384, "wtT": 2385, "xsAy": 2386, "wdHw": 2387, "aDn": 2388, "aam": 2389, "rwSA": 2390, "zb": 2391, "swbA": 2392, "tbt": 2393, "Hsk": 2394, "mnn": 2395, "jzzy": 2396, "mAaad": 2397, "fnwd": 2398, "zfT": 2399, "sHAj": 2400, "sdmt": 2401, "qbb": 2402, "jTt": 2403, "On": 2404, "Sbw": 2405, "vw": 2406, "ywA": 2407, "msdr": 2408, "mTAm": 2409, "nkjw": 2410, "jqqn": 2411, "tAsw": 2412, "wnw": 2413, "ski": 2414, "Agbj": 2415, "bss": 2416, "DAhAy": 2417, "swAD": 2418, "ywt": 2419, "zfnw": 2420, "dkn": 2421, "xbAy": 2422, "hrr": 2423, "aDr": 2424, "pAy": 2425, "XAA": 2426, "hq": 2427, "apA": 2428, "bnj": 2429, "AwAw": 2430, "jhmw": 2431, "sArd": 2432, "smsw": 2433, "jaj": 2434, "mny": 2435, "bAt": 2436, "sHri": 2437, "Hngj": 2438, "snm": 2439, "jft": 2440, "snhp": 2441, "nj": 2442, "Twn": 2443, "mjkA": 2444, "kA": 2445, "Tnfy": 2446, "Hdq": 2447, "nsqbb": 2448, "jnp": 2449, "xfaw": 2450, "jmTj": 2451, "HaA": 2452, "SAT": 2453, "nsyw": 2454, "HTt": 2455, "ahr": 2456, "Agsw": 2457, "rprp": 2458, "jhy": 2459, "jA": 2460, "dnj": 2461, "kAp": 2462, "sbb": 2463, "yrqy": 2464, "swhi": 2465, "jmntw": 2466, "Hfy": 2467, "bAtA": 2468, "jmAy": 2469, "TATA": 2470, "ak": 2471, "mby": 2472, "mzmz": 2473, "pqr": 2474, "DAi": 2475, "AbA": 2476, "zaH": 2477, "hs": 2478, "bxnt": 2479, "yi": 2480, "arf": 2481, "Hmi": 2482, "TAty": 2483, "jArr": 2484, "hnt": 2485, "xwy": 2486, "DAn": 2487, "Xnm": 2488, "hj": 2489, "jpATj": 2490, "Dam": 2491, "bAkjwj": 2492, "jHty": 2493, "rnpwt": 2494, "mAA": 2495, "wnD": 2496, "wawf": 2497, "jw": 2498, "shri": 2499, "hAq": 2500, "SAbdj": 2501, "ksy": 2502, "ngAfj": 2503, "nngt": 2504, "ztt": 2505, "jrhb": 2506, "qAi": 2507, "qA": 2508, "ngAjj": 2509, "bwp": 2510, "DdHw": 2511, "pr": 2512, "HAd": 2513, "nbq": 2514, "jyAj": 2515, "tjn": 2516, "wsS": 2517, "wawy": 2518, "dbHw": 2519, "mHn": 2520, "arw": 2521, "bny": 2522, "tdu": 2523, "mkA": 2524, "ntf": 2525, "jAbi": 2526, "xAswt": 2527, "jAkw": 2528, "htA": 2529, "xbtj": 2530, "zxn": 2531, "nhpw": 2532, "jTAy": 2533, "pAv": 2534, "makA": 2535, "jwtj": 2536, "swtn": 2537, "dt": 2538, "jzi": 2539, "mshrt": 2540, "Dba": 2541, "AmjA": 2542, "snwx": 2543, "dhA": 2544, "whA": 2545, "jwAdj": 2546, "jzzj": 2547, "nqrqr": 2548, "txb": 2549, "jAxx": 2550, "kw": 2551, "xwAw": 2552, "aAb": 2553, "qrjw": 2554, "aqj": 2555, "sndtj": 2556, "Xnj": 2557, "bAbAy": 2558, "hAmm": 2559, "jrrx": 2560, "Tsi": 2561, "Dwy": 2562, "sSp": 2563, "mjnAj": 2564, "wx": 2565, "jpd": 2566, "msw": 2567, "fkw": 2568, "djw": 2569, "qrst": 2570, "psi": 2571, "pAwtj": 2572, "df": 2573, "dndn": 2574, "tjdwj": 2575, "twAw": 2576, "jkrT": 2577, "xnmt": 2578, "xpSj": 2579, "bgAs": 2580, "Ddtw": 2581, "fdw": 2582, "Hmgj": 2583, "Hkwn": 2584, "msj": 2585, "jki": 2586, "bbn": 2587, "TAA": 2588, "myt": 2589, "sxnw": 2590, "jsT": 2591, "mrry": 2592, "aft": 2593, "aaf": 2594, "ps": 2595, "rxxt": 2596, "qrjs": 2597, "rAr": 2598, "rjd": 2599, "Hnp": 2600, "rApr": 2601, "swnnw": 2602, "zSzS": 2603, "qdwt": 2604, "srH": 2605, "sStAw": 2606, "hrj": 2607, "xndS": 2608, "afd": 2609, "aAgAsw": 2610, "wSr": 2611, "wtwt": 2612, "jtHw": 2613, "wAyp": 2614, "ytt": 2615, "twrp": 2616, "dAjw": 2617, "Tnm": 2618, "anp": 2619, "stp": 2620, "wgi": 2621, "snkn": 2622, "jAds": 2623, "HAwr": 2624, "HjH": 2625, "jAfAf": 2626, "AbDw": 2627, "Swyt": 2628, "znh": 2629, "bb": 2630, "jHtj": 2631, "manxjw": 2632, "xnpj": 2633, "wdn": 2634, "nqf": 2635, "bi": 2636, "ywm": 2637, "pwn": 2638, "jrm": 2639, "Tmrw": 2640, "smtmt": 2641, "wsjr": 2642, "whAnj": 2643, "nsty": 2644, "sHd": 2645, "jptntj": 2646, "zx": 2647, "Atw": 2648, "XAk": 2649, "szwr": 2650, "xrpw": 2651, "nmst": 2652, "Xny": 2653, "wDrT": 2654, "Ah": 2655, "mqq": 2656, "Srd": 2657, "kmwj": 2658, "TAmwt": 2659, "jspA": 2660, "AbD": 2661, "zntw": 2662, "jxjx": 2663, "Hkn": 2664, "jnhmnj": 2665, "Sai": 2666, "saHa": 2667, "jsDd": 2668, "Haa": 2669, "Tftn": 2670, "Hzt": 2671, "jryk": 2672, "xry": 2673, "DAyj": 2674, "dSi": 2675, "baH": 2676, "dHrj": 2677, "mnDr": 2678, "sdSr": 2679, "zrj": 2680, "Xnmw": 2681, "aprw": 2682, "jzp": 2683, "ay": 2684, "rwn": 2685, "nwnw": 2686, "nti": 2687, "kkj": 2688, "Spt": 2689, "mAaw": 2690, "why": 2691, "TAy": 2692, "Trr": 2693, "wm": 2694, "sTAz": 2695, "rmn": 2696, "Dr": 2697, "zAhl": 2698, "wrSu": 2699, "TAnj": 2700, "jn": 2701, "HmAm": 2702, "kAkA": 2703, "xwA": 2704, "TAtn": 2705, "rpkt": 2706, "rsw": 2707, "swjb": 2708, "jtwr": 2709, "aff": 2710, "rwjA": 2711, "jdmj": 2712, "wrSww": 2713, "Hmaw": 2714, "sfrnfr": 2715, "whAn": 2716, "nkA": 2717, "kArj": 2718, "wDbw": 2719, "mSa": 2720, "pjA": 2721, "xd": 2722, "ty": 2723, "jg": 2724, "Xzj": 2725, "jji": 2726, "npnp": 2727, "Tsm": 2728, "snsw": 2729, "mAwD": 2730, "mrjw": 2731, "swg": 2732, "wAtmAm": 2733, "qD": 2734, "mddw": 2735, "pwaa": 2736, "Hnbw": 2737, "sHsH": 2738, "mAxwt": 2739, "qAm": 2740, "stpp": 2741, "mDH": 2742, "nm": 2743, "stjw": 2744, "Hww": 2745, "wAgj": 2746, "tjwrj": 2747, "hbnn": 2748, "wASS": 2749, "Xpn": 2750, "pHr": 2751, "skt": 2752, "xntj": 2753, "sbi": 2754, "mAj": 2755, "xbz": 2756, "TAn": 2757, "nxnj": 2758, "jsdn": 2759, "Xrr": 2760, "xpj": 2761, "hbAq": 2762, "plj": 2763, "inb": 2764, "mzw": 2765, "sjpy": 2766, "wH": 2767, "xpSy": 2768, "jnA": 2769, "Dtf": 2770, "smAmA": 2771, "Sdy": 2772, "jwbw": 2773, "DnD": 2774, "xswD": 2775, "HDD": 2776, "ray": 2777, "dy": 2778, "nkjkj": 2779, "TAr": 2780, "jwb": 2781, "jwn": 2782, "Daa": 2783, "bt": 2784, "sjAw": 2785, "Sft": 2786, "kpA": 2787, "nss": 2788, "kmAd": 2789, "sqfn": 2790, "Adf": 2791, "mstA": 2792, "krj": 2793, "SA": 2794, "TbTb": 2795, "htp": 2796, "ssj": 2797, "bjtj": 2798, "mXnw": 2799, "dz": 2800, "grw": 2801, "mdnj": 2802, "mDAy": 2803, "aAaA": 2804, "sAmt": 2805, "sdwn": 2806, "jmp": 2807, "wgAj": 2808, "At": 2809, "sxx": 2810, "kAhAb": 2811, "pAz": 2812, "ph": 2813, "th": 2814, "nngj": 2815, "Hptj": 2816, "pAs": 2817, "bDn": 2818, "ib": 2819, "Spsy": 2820, "Afa": 2821, "sAd": 2822, "ntkrty": 2823, "jmjr": 2824, "msd": 2825, "Hmww": 2826, "xfxf": 2827, "rdm": 2828, "stm": 2829, "ptjrA": 2830, "bjf": 2831, "pgz": 2832, "kzn": 2833, "sndt": 2834, "msdd": 2835, "wDAw": 2836, "sHa": 2837, "msDmw": 2838, "Xar": 2839, "dgw": 2840, "SfSf": 2841, "TArj": 2842, "ssnj": 2843, "SnDt": 2844, "xi": 2845, "annw": 2846, "nSz": 2847, "xAx": 2848, "SsSs": 2849, "rjrj": 2850, "qrH": 2851, "nht": 2852, "Amm": 2853, "pjpj": 2854, "tjttjt": 2855, "twAhA": 2856, "Tj": 2857, "kfAw": 2858, "ssi": 2859, "mmw": 2860, "Ddv": 2861, "hkj": 2862, "Hsy": 2863, "jAjrt": 2864, "Atpw": 2865, "hhj": 2866, "nAxs": 2867, "Hj": 2868, "jHA": 2869, "rwh": 2870, "agnj": 2871, "ds": 2872, "xtp": 2873, "smAy": 2874, "ynam": 2875, "sDHw": 2876, "Hdb": 2877, "pAwj": 2878, "qmq": 2879, "ra": 2880, "krHt": 2881, "knm": 2882, "pHtj": 2883, "SpT": 2884, "bHd": 2885, "zbb": 2886, "Hqrr": 2887, "skmyt": 2888, "wnmi": 2889, "Hzmn": 2890, "Hf": 2891, "Spst": 2892, "xnf": 2893, "njtjt": 2894, "gAgAwj": 2895, "jdH": 2896, "sxw": 2897, "bgs": 2898, "jmHj": 2899, "SAnS": 2900, "tjd": 2901, "nxA": 2902, "aXy": 2903, "gArwtj": 2904, "zmA": 2905, "jbSk": 2906, "amj": 2907, "jpyw": 2908, "Xk": 2909, "Hzjj": 2910, "hArpw": 2911, "gsmt": 2912, "sDwj": 2913, "awDr": 2914, "Twf": 2915, "rrm": 2916, "tAtA": 2917, "anar": 2918, "wAm": 2919, "Hwraw": 2920, "xpxp": 2921, "mtrtw": 2922, "njwj": 2923, "qrs": 2924, "aA": 2925, "nywnrmt": 2926, "jnsj": 2927, "stS": 2928, "jsyf": 2929, "rpt": 2930, "xpTt": 2931, "ssbj": 2932, "sTw": 2933, "sjsn": 2934, "Dnw": 2935, "mS": 2936, "wvH": 2937, "smz": 2938, "aAi": 2939, "Sfd": 2940, "jrs": 2941, "Awy": 2942, "HnT": 2943, "xwfw": 2944, "HknH": 2945, "StAy": 2946, "SAj": 2947, "Ahb": 2948, "mrwt": 2949, "gaga": 2950, "qmAy": 2951, "nsr": 2952, "Aqdqd": 2953, "HbD": 2954, "jj": 2955, "mntyw": 2956, "dmj": 2957, "xAD": 2958, "gAu": 2959, "nwHH": 2960, "THH": 2961, "hi": 2962, "Tbw": 2963, "sAh": 2964, "tbw": 2965, "wrrw": 2966, "Add": 2967, "mdnw": 2968, "bsw": 2969, "nhr": 2970, "hAnw": 2971, "ttj": 2972, "sfx": 2973, "wrdw": 2974, "tx": 2975, "AwA": 2976, "sHaw": 2977, "qm": 2978, "Hknkn": 2979, "jAk": 2980, "wrt": 2981, "sHnw": 2982, "sSwi": 2983, "jzr": 2984, "Asb": 2985, "bAbj": 2986, "Sdi": 2987, "xni": 2988, "bax": 2989, "pst": 2990, "ws": 2991, "sTAs": 2992, "xAsw": 2993, "HmAgA": 2994, "ztp": 2995, "sgAb": 2996, "njDw": 2997, "bAby": 2998, "sjqr": 2999, "jtjtj": 3000, "wTz": 3001, "bd": 3002, "rrw": 3003, "sSnj": 3004, "Swbw": 3005, "xty": 3006, "Tsjs": 3007, "duw": 3008, "jgAj": 3009, "dmw": 3010, "Xty": 3011, "htpw": 3012, "Swt": 3013, "wi": 3014, "SaD": 3015, "aDdjw": 3016, "AHAHj": 3017, "hdhd": 3018, "anwnA": 3019, "qmAH": 3020, "Hjpy": 3021, "dkA": 3022, "DHw": 3023, "Tmzj": 3024, "snhj": 3025, "spxA": 3026, "Aa": 3027, "TjAtj": 3028, "jwnwj": 3029, "zr": 3030, "sXb": 3031, "rnsj": 3032, "pAwa": 3033, "gwsA": 3034, "zwn": 3035, "TtTt": 3036, "snsnj": 3037, "bnjA": 3038, "Di": 3039, "szn": 3040, "bk": 3041, "mnk": 3042, "sdi": 3043, "xbD": 3044, "Tz": 3045, "SrSr": 3046, "nAjrrf": 3047, "snhd": 3048, "nai": 3049, "jntsn": 3050, "SsA": 3051, "Day": 3052, "nnk": 3053, "mDAt": 3054, "SAbdy": 3055, "sDH": 3056, "Tkw": 3057, "bjt": 3058, "qrq": 3059, "abAbA": 3060, "DApr": 3061, "jAXb": 3062, "swSA": 3063, "Sm": 3064, "mAtj": 3065, "zAhr": 3066, "Agbgb": 3067, "wvi": 3068, "twt": 3069, "jAi": 3070, "wA": 3071, "XnXn": 3072, "Abw": 3073, "tSA": 3074, "qra": 3075, "tfy": 3076, "swnu": 3077, "sHwA": 3078, "Thi": 3079, "aXnw": 3080, "hAkr": 3081, "nbHw": 3082, "mDd": 3083, "jfdi": 3084, "nfaj": 3085, "Sp": 3086, "ai": 3087, "dx": 3088, "Hzp": 3089, "Trry": 3090, "nfd": 3091, "Ti": 3092, "plv": 3093, "mnTw": 3094, "dnd": 3095, "mrw": 3096, "knwy": 3097, "mdt": 3098, "jtnw": 3099, "Dnr": 3100, "pfs": 3101, "Hwa": 3102, "rtn": 3103, "psH": 3104, "HAdj": 3105, "afa": 3106, "agA": 3107, "qdf": 3108, "jAwy": 3109, "Tw": 3110, "qAj": 3111, "mTnw": 3112, "rDt": 3113, "rDw": 3114, "tAxb": 3115, "baHt": 3116, "Trf": 3117, "jsp": 3118, "wSn": 3119, "mnjn": 3120, "zAtw": 3121, "mnhz": 3122, "bAkjw": 3123, "sHAb": 3124, "dmg": 3125, "xmAA": 3126, "nz": 3127, "sDr": 3128, "sxwnw": 3129, "yhj": 3130, "n": 3131, "wDH": 3132, "DjDj": 3133, "hbu": 3134, "smnmn": 3135, "tjHs": 3136, "zXA": 3137, "tpn": 3138, "zAww": 3139, "Ahw": 3140, "TwjA": 3141, "ssm": 3142, "jzw": 3143, "mA": 3144, "Tzt": 3145, "jfr": 3146, "Xkr": 3147, "qn": 3148, "twj": 3149, "bnf": 3150, "sT": 3151, "wbny": 3152, "www": 3153, "sSy": 3154, "SfS": 3155, "xnxn": 3156, "XawAy": 3157, "bdj": 3158, "Hnwt": 3159, "Da": 3160, "TAs": 3161, "tjntjn": 3162, "sjwj": 3163, "dw": 3164, "Sbnn": 3165, "ywj": 3166, "Tmj": 3167, "dAs": 3168, "Tntt": 3169, "mntj": 3170, "tnA": 3171, "AHAH": 3172, "aS": 3173, "rTnw": 3174, "pnj": 3175, "nsyt": 3176, "spXr": 3177, "mtjw": 3178, "myv": 3179, "mhw": 3180, "sbjn": 3181, "btA": 3182, "sjnn": 3183, "sdy": 3184, "jHyty": 3185, "jkk": 3186, "Xnmt": 3187, "sAwt": 3188, "sns": 3189, "hAqAhAgA": 3190, "bx": 3191, "kyrSt": 3192, "Spssy": 3193, "wsfA": 3194, "mdHw": 3195, "aHAwtj": 3196, "hAhw": 3197, "mnx": 3198, "qnd": 3199, "mAjs": 3200, "stjS": 3201, "tpy": 3202, "xbn": 3203, "mAr": 3204, "gp": 3205, "snTri": 3206, "Dnn": 3207, "pdd": 3208, "ntwt": 3209, "Dnwd": 3210, "tra": 3211, "ytj": 3212, "tntj": 3213, "Hddy": 3214, "naAD": 3215, "HAy": 3216, "jnhrm": 3217, "xbd": 3218, "whAjw": 3219, "pfsi": 3220, "ana": 3221, "krkr": 3222, "aAm": 3223, "stXj": 3224, "mSrw": 3225, "hmhm": 3226, "zwr": 3227, "swab": 3228, "jzf": 3229, "apj": 3230, "sDj": 3231, "tjms": 3232, "TmAm": 3233, "D": 3234, "xS": 3235, "jnki": 3236, "THHwt": 3237, "dqa": 3238, "ywn": 3239, "zft": 3240, "jAnrw": 3241, "Xms": 3242, "Hn": 3243, "SAs": 3244, "mnd": 3245, "nhAp": 3246, "ama": 3247, "rqrq": 3248, "znaa": 3249, "xAz": 3250, "Hmsy": 3251, "rsn": 3252, "trj": 3253, "mhwt": 3254, "tmwt": 3255, "jHt": 3256, "si": 3257, "grs": 3258, "gnA": 3259, "Anr": 3260, "DrD": 3261, "mkAtj": 3262, "mahAw": 3263, "kpn": 3264, "kApw": 3265, "jnktt": 3266, "sSmw": 3267, "pnn": 3268, "jri": 3269, "skmy": 3270, "mntw": 3271, "sxAx": 3272, "shp": 3273, "nDd": 3274, "sntr": 3275, "qAwr": 3276, "jTmw": 3277, "saD": 3278, "Ddfy": 3279, "twynn": 3280, "pwjw": 3281, "nu": 3282, "xwj": 3283, "Sf": 3284, "sHq": 3285, "txy": 3286, "pAa": 3287, "anbw": 3288, "smxA": 3289, "mwv": 3290, "rqw": 3291, "sbky": 3292, "Asby": 3293, "ntwf": 3294, "TAz": 3295, "twx": 3296, "bgAy": 3297, "AjT": 3298, "nHbw": 3299, "sHjwr": 3300, "gmHw": 3301, "maA": 3302, "pAqt": 3303, "jnrT": 3304, "jgr": 3305, "DH": 3306, "wp": 3307, "jbsqb": 3308, "jsS": 3309, "tf": 3310, "nAjArf": 3311, "xwi": 3312, "sdw": 3313, "wbs": 3314, "waA": 3315, "fgn": 3316, "hdn": 3317, "TT": 3318, "mtmt": 3319, "Abd": 3320, "xfxftj": 3321, "jfj": 3322, "swDA": 3323, "Snt": 3324, "hAbn": 3325, "kwms": 3326, "qbA": 3327, "smw": 3328, "gmi": 3329, "zSj": 3330, "mrqSt": 3331, "mHwy": 3332, "snH": 3333, "pxAd": 3334, "ktxj": 3335, "jddj": 3336, "Hdt": 3337, "snhqrg": 3338, "nAn": 3339, "gbtjw": 3340, "A": 3341, "xmt": 3342, "ntwjw": 3343, "Thw": 3344, "nbi": 3345, "jnnk": 3346, "bdbd": 3347, "sXrr": 3348, "wmt": 3349, "rnj": 3350, "kt": 3351, "wnwtj": 3352, "saHA": 3353, "sxAy": 3354, "pHd": 3355, "jzz": 3356, "mnsjw": 3357, "nDmm": 3358, "STy": 3359, "stnj": 3360, "arfj": 3361, "bnw": 3362, "wDa": 3363, "qbwH": 3364, "pnqA": 3365, "pSs": 3366, "qfdr": 3367, "nDsj": 3368, "wsj": 3369, "Afy": 3370, "msdmt": 3371, "nhd": 3372, "snHm": 3373, "mfk": 3374, "Hsp": 3375, "tHwA": 3376, "maH": 3377, "pna": 3378, "nrjw": 3379, "Htm": 3380, "jSS": 3381, "bAbAt": 3382, "nxbw": 3383, "Tn": 3384, "aby": 3385, "dut": 3386, "nDmnDm": 3387, "batn": 3388, "nswt": 3389, "tyj": 3390, "rSS": 3391, "bArs": 3392, "jATrn": 3393, "Amsw": 3394, "xny": 3395, "Drww": 3396, "Spi": 3397, "jTy": 3398, "tyr": 3399, "sndw": 3400, "swr": 3401, "abt": 3402, "jSd": 3403, "wAg": 3404, "rkH": 3405, "anDw": 3406, "jSrw": 3407, "dHAwj": 3408, "mtn": 3409, "snwt": 3410, "dbjw": 3411, "ssH": 3412, "nxtv": 3413, "wAHy": 3414, "mHsHs": 3415, "wpw": 3416, "Am": 3417, "njm": 3418, "Tmzw": 3419, "jbdj": 3420, "swjw": 3421, "nbjw": 3422, "nssq": 3423, "nxs": 3424, "mrx": 3425, "aanj": 3426, "rAsx": 3427, "zHzH": 3428, "rS": 3429, "bAS": 3430, "xsbt": 3431, "hwj": 3432, "gAsA": 3433, "bAbAw": 3434, "xD": 3435, "Tnw": 3436, "Ajs": 3437, "naS": 3438, "xwzw": 3439, "nDj": 3440, "wnjwn": 3441, "xArj": 3442, "ann": 3443, "annx": 3444, "xnz": 3445, "HwAw": 3446, "aqi": 3447, "aDj": 3448, "sXAk": 3449, "xdi": 3450, "sAm": 3451, "Drn": 3452, "qmy": 3453, "jnnA": 3454, "Hnmt": 3455, "rpw": 3456, "rArAmw": 3457, "gnX": 3458, "HAtw": 3459, "jrw": 3460, "smsm": 3461, "jxma": 3462, "snhsi": 3463, "pf": 3464, "ady": 3465, "wjyt": 3466, "jmj": 3467, "smnx": 3468, "tjmy": 3469, "qAqA": 3470, "knj": 3471, "wnsj": 3472, "wskw": 3473, "Daaj": 3474, "Sxpi": 3475, "jsb": 3476, "rtsSk": 3477, "Dndr": 3478, "kknm": 3479, "ATi": 3480, "qs": 3481, "ft": 3482, "ssAA": 3483, "sAi": 3484, "XsAy": 3485, "jmm": 3486, "kAwtj": 3487, "xsfi": 3488, "srf": 3489, "HmATT": 3490, "syf": 3491, "xsbD": 3492, "ngj": 3493, "wjdu": 3494, "nsy": 3495, "tpl": 3496, "rnpy": 3497, "jhbw": 3498, "SnDw": 3499, "mHy": 3500, "Tt": 3501, "jqrj": 3502, "bpA": 3503, "jaq": 3504, "mbj": 3505, "jsh": 3506, "snTi": 3507, "DrjDr": 3508, "ware": 3509, "wDy": 3510, "wjt": 3511, "apr": 3512, "dqw": 3513, "maHa": 3514, "tftf": 3515, "hbq": 3516, "Xrm": 3517, "xp": 3518, "bjr": 3519, "aAy": 3520, "jaanjj": 3521, "jwAj": 3522, "swAgA": 3523, "Xsj": 3524, "tk": 3525, "msDi": 3526, "abS": 3527, "xbt": 3528, "Tpw": 3529, "jArj": 3530, "sxpi": 3531, "xnnj": 3532, "jmms": 3533, "sqbb": 3534, "ntA": 3535, "sfr": 3536, "nswyt": 3537, "Awnj": 3538, "ntw": 3539, "hwv": 3540, "tmH": 3541, "Xnwnn": 3542, "rx": 3543, "rhnj": 3544, "aq": 3545, "Hnnw": 3546, "sxbxb": 3547, "stj": 3548, "rxj": 3549, "Tmss": 3550, "sDt": 3551, "wgA": 3552, "wHmm": 3553, "nSd": 3554, "xsdD": 3555, "Asx": 3556, "kbb": 3557, "Hna": 3558, "snD": 3559, "wbA": 3560, "xmx": 3561, "SnSn": 3562, "Hzk": 3563, "xbbj": 3564, "StAw": 3565, "Hsr": 3566, "snt": 3567, "mstAw": 3568, "byA": 3569, "gAfj": 3570, "Dnb": 3571, "rnT": 3572, "fA": 3573, "wni": 3574, "amjA": 3575, "nbs": 3576, "mhA": 3577, "hAv": 3578, "jmzw": 3579, "zpi": 3580, "mXt": 3581, "aAf": 3582, "nk": 3583, "tAj": 3584, "dbA": 3585, "jhAm": 3586, "mnsA": 3587, "nkAj": 3588, "Hnw": 3589, "Verb": 3590, "Xby": 3591, "apSA": 3592, "TnA": 3593, "pDpD": 3594, "XAr": 3595, "bw": 3596, "nfrwys": 3597, "kwrSgt": 3598, "DAsj": 3599, "wgAsw": 3600, "xrwy": 3601, "bS": 3602, "nDr": 3603, "nnj": 3604, "jsq": 3605, "jrx": 3606, "hAkjr": 3607, "ntb": 3608, "rwx": 3609, "wgAw": 3610, "SAbwd": 3611, "qnf": 3612, "bwt": 3613, "kbn": 3614, "rjwm": 3615, "DADA": 3616, "tkm": 3617, "rms": 3618, "swqj": 3619, "jwawHa": 3620, "maSr": 3621, "nbt": 3622, "gs": 3623, "snxn": 3624, "gsn": 3625, "wDf": 3626, "dryS": 3627, "Swy": 3628, "swASj": 3629, "bAgi": 3630, "pnz": 3631, "Dab": 3632, "Hai": 3633, "Dxn": 3634, "msr": 3635, "wAjT": 3636, "snsn": 3637, "mnwr": 3638, "kHss": 3639, "xnr": 3640, "njs": 3641, "nnA": 3642, "sdH": 3643, "HAj": 3644, "nxwy": 3645, "jra": 3646, "sHwtm": 3647, "TbAw": 3648, "jmAm": 3649, "naj": 3650, "qtm": 3651, "msnSd": 3652, "jAj": 3653, "ssnDm": 3654, "HrHr": 3655, "qaH": 3656, "nsSm": 3657, "ttA": 3658, "wHA": 3659, "mAs": 3660, "pd": 3661, "mHH": 3662, "ntS": 3663, "dpHw": 3664, "swnx": 3665, "jti": 3666, "aaAm": 3667, "mhr": 3668, "xwD": 3669, "mSA": 3670, "sasa": 3671, "jrtjw": 3672, "Atf": 3673, "kni": 3674, "pl": 3675, "yna": 3676, "Hapj": 3677, "mtm": 3678, "tiw": 3679, "afA": 3680, "zn": 3681, "xws": 3682, "zAwj": 3683, "tjHwj": 3684, "Hqt": 3685, "mjnn": 3686, "baA": 3687, "fT": 3688, "jbb": 3689, "mHwn": 3690, "Awsw": 3691, "hrp": 3692, "psDi": 3693, "jmn": 3694, "nki": 3695, "AD": 3696, "sjm": 3697, "HwAHwA": 3698, "jmpy": 3699, "pg": 3700, "xrnt": 3701, "ntTn": 3702, "ad": 3703, "xbw": 3704, "jAjr": 3705, "zTA": 3706, "kzi": 3707, "njk": 3708, "DArj": 3709, "snd": 3710, "xbb": 3711, "maHA": 3712, "prw": 3713, "px": 3714, "sjr": 3715, "yd": 3716, "xarw": 3717, "wnmw": 3718, "wbAw": 3719, "nXX": 3720, "qa": 3721, "bwA": 3722, "Awmw": 3723, "mtw": 3724, "nwA": 3725, "rwD": 3726, "pltk": 3727, "jqn": 3728, "SAi": 3729, "nTn": 3730, "Drf": 3731, "jtx": 3732, "jnnw": 3733, "qnjw": 3734, "jnz": 3735, "TsjA": 3736, "jnnt": 3737, "gAwA": 3738, "SAsw": 3739, "mHwt": 3740, "dmA": 3741, "twnpj": 3742, "wDAA": 3743, "jpp": 3744, "tbhA": 3745, "kTn": 3746, "Ary": 3747, "tjtj": 3748, "npAt": 3749, "jrd": 3750, "zbi": 3751, "Dt": 3752, "bjTtw": 3753, "SdA": 3754, "nq": 3755, "rhd": 3756, "nty": 3757, "zxnn": 3758, "kn": 3759, "DrDr": 3760, "at": 3761, "nXa": 3762, "mxw": 3763, "xAm": 3764, "rSni": 3765, "mHr": 3766, "TAj": 3767, "Xnk": 3768, "jbA": 3769, "br": 3770, "sfg": 3771, "srd": 3772, "HAq": 3773, "jms": 3774, "msy": 3775, "Htrj": 3776, "wAD": 3777, "sAH": 3778, "swDb": 3779, "nzA": 3780, "sDAHy": 3781, "HmAmy": 3782, "sqn": 3783, "xr": 3784, "DbDb": 3785, "nwx": 3786, "wrs": 3787, "ny": 3788, "Hwra": 3789, "mskj": 3790, "Axt": 3791, "jrmj": 3792, "sxA": 3793, "HAgj": 3794, "zmT": 3795, "zfn": 3796, "tjkj": 3797, "zjw": 3798, "kp": 3799, "jAdt": 3800, "nma": 3801, "Dbw": 3802, "nSAw": 3803, "spS": 3804, "hd": 3805, "sxwsi": 3806, "fdtj": 3807, "jks": 3808, "Snwj": 3809, "HAaa": 3810, "wgg": 3811, "Adm": 3812, "sHqr": 3813, "mnfA": 3814, "sAk": 3815, "pw": 3816, "Hsb": 3817, "DAfj": 3818, "wti": 3819, "xsft": 3820, "pyr": 3821, "jAp": 3822, "fkA": 3823, "Hqn": 3824, "mntjw": 3825, "nqd": 3826, "Hzz": 3827, "mj": 3828, "Ttwj": 3829, "AhAm": 3830, "Snn": 3831, "agw": 3832, "knk": 3833, "krjw": 3834, "mstr": 3835, "jxw": 3836, "aqAn": 3837, "tv": 3838, "pss": 3839, "swhj": 3840, "dgAsAj": 3841, "sDdw": 3842, "Hwwt": 3843, "xzA": 3844, "mabAy": 3845, "hbhb": 3846, "Smay": 3847, "wHs": 3848, "hAdm": 3849, "snty": 3850, "wTs": 3851, "sbHy": 3852, "swsn": 3853, "XTb": 3854, "hwhw": 3855, "Smsi": 3856, "Tzm": 3857, "syw": 3858, "mrd": 3859, "dnhnt": 3860, "jTs": 3861, "ssr": 3862, "sSkr": 3863, "xmn": 3864, "tbA": 3865, "swgm": 3866, "bnjw": 3867, "nmmj": 3868, "Ams": 3869, "rsy": 3870, "tTj": 3871, "jy": 3872, "rpa": 3873, "xntSj": 3874, "psd": 3875, "whj": 3876, "sxsx": 3877, "jzn": 3878, "pwj": 3879, "hAbwj": 3880, "Hkw": 3881, "nDn": 3882, "pqn": 3883, "swd": 3884, "jfd": 3885, "snyj": 3886, "xnfy": 3887, "dr": 3888, "nay": 3889, "DdA": 3890, "Hdp": 3891, "SpA": 3892, "tAtmw": 3893, "qmHw": 3894, "shAi": 3895, "ATt": 3896, "knH": 3897, "rwd": 3898, "nyS": 3899, "znw": 3900, "mzj": 3901, "maxrma": 3902, "stn": 3903, "DAj": 3904, "njnkntkSr": 3905, "jkw": 3906, "papa": 3907, "spy": 3908, "jwnw": 3909, "naHr": 3910, "Hwtj": 3911, "sra": 3912, "zSS": 3913, "tpHw": 3914, "Smyk": 3915, "nwj": 3916, "sTnj": 3917, "tjypl": 3918, "wtjjA": 3919, "dwr": 3920, "HT": 3921, "snS": 3922, "kafw": 3923, "msdj": 3924, "jx": 3925, "Ddi": 3926, "ddj": 3927, "wty": 3928, "Spsj": 3929, "amw": 3930, "Snwnw": 3931, "fg": 3932, "Sri": 3933, "xwjt": 3934, "dD": 3935, "sbd": 3936, "pAD": 3937, "wdH": 3938, "mhwj": 3939, "mxn": 3940, "sbAqq": 3941, "Hnb": 3942, "xnti": 3943, "XAs": 3944, "tAry": 3945, "Apt": 3946, "snz": 3947, "mSrA": 3948, "wpp": 3949, "Xsw": 3950, "snDADA": 3951, "hru": 3952, "plw": 3953, "skAp": 3954, "nx": 3955, "aAA": 3956, "HAywj": 3957, "wdpw": 3958, "tyjj": 3959, "jrn": 3960, "XAb": 3961, "Hsm": 3962, "wtr": 3963, "xAA": 3964, "qmqm": 3965, "wTn": 3966, "wz": 3967, "aSgAj": 3968, "HAqAj": 3969, "sjdd": 3970, "Awr": 3971, "ksyk": 3972, "dAjr": 3973, "HnTi": 3974, "zTz": 3975, "wSAwSA": 3976, "jnf": 3977, "Srm": 3978, "Hjfg": 3979, "aSj": 3980, "sSmj": 3981, "pyA": 3982, "Snat": 3983, "jrA": 3984, "zt": 3985, "brt": 3986, "hnn": 3987, "srS": 3988, "tjwnrw": 3989, "wDfA": 3990, "qmj": 3991, "Ahd": 3992, "Hnti": 3993, "nt": 3994, "rHw": 3995, "afAj": 3996, "wDaa": 3997, "twhA": 3998, "swst": 3999, "ybb": 4000, "Snf": 4001, "jdt": 4002, "Hrj": 4003, "sSAA": 4004, "sd": 4005, "Snsw": 4006, "sHrjw": 4007, "tAm": 4008, "xAyb": 4009, "mHny": 4010, "nn": 4011, "sAAw": 4012, "znhy": 4013, "nhAjs": 4014, "kwy": 4015, "qrw": 4016, "Spsw": 4017, "mhAj": 4018, "jsHmw": 4019, "wsr": 4020, "Hz": 4021, "tfw": 4022, "aa": 4023, "sHnn": 4024, "wATj": 4025, "ptAH": 4026, "ndw": 4027, "dHAj": 4028, "sDd": 4029, "sdgAw": 4030, "wxAS": 4031, "mndm": 4032, "qaw": 4033, "Df": 4034, "ajn": 4035, "httj": 4036, "zXAw": 4037, "arar": 4038, "fdq": 4039, "str": 4040, "mSr": 4041, "Sfn": 4042, "rhAn": 4043, "Hnks": 4044, "ytx": 4045, "sqrj": 4046, "XsAj": 4047, "gmgm": 4048, "sjkn": 4049, "snbw": 4050, "bA": 4051, "Hmw": 4052, "bjnr": 4053, "mkk": 4054, "nxy": 4055, "jby": 4056, "xASA": 4057, "DarA": 4058, "sbA": 4059, "ru": 4060, "sSt": 4061, "agn": 4062, "grt": 4063, "prjs": 4064, "kAS": 4065, "gAi": 4066, "rkty": 4067, "Ttf": 4068, "sxni": 4069, "wsSA": 4070, "sdHr": 4071, "bjAi": 4072, "xAt": 4073, "sswnu": 4074, "jaDm": 4075, "njA": 4076, "rxyw": 4077, "bTw": 4078, "nDmw": 4079, "pay": 4080, "Tb": 4081, "snDADAw": 4082, "sb": 4083, "mHA": 4084, "SAbd": 4085, "xftw": 4086, "jHdj": 4087, "qnm": 4088, "skj": 4089, "tfAj": 4090, "Xb": 4091, "aDi": 4092, "snHA": 4093, "dni": 4094, "gAnn": 4095, "jStA": 4096, "HHtjtjsw": 4097, "Tsj": 4098, "nXnm": 4099, "yk": 4100, "SnS": 4101, "prxj": 4102, "jty": 4103, "msxn": 4104, "smtr": 4105, "jpSnn": 4106, "wdb": 4107, "jTj": 4108, "tjH": 4109, "Stb": 4110, "nHnj": 4111, "Hfn": 4112, "mx": 4113, "sHr": 4114, "SAjs": 4115, "aHar": 4116, "HmAmw": 4117, "bxb": 4118, "anTj": 4119, "msdi": 4120, "sDwi": 4121, "ksb": 4122, "Drj": 4123, "srm": 4124, "sbqj": 4125, "jqAt": 4126, "msDr": 4127, "xAbw": 4128, "jbr": 4129, "nDADA": 4130, "HApp": 4131, "rnpt": 4132, "rSw": 4133, "jsmA": 4134, "rdw": 4135, "jmAw": 4136, "jT": 4137, "SAmswt": 4138, "nwD": 4139, "Ap": 4140, "saA": 4141, "tHt": 4142, "qbqb": 4143, "Ttw": 4144, "sAt": 4145, "stw": 4146, "tbtb": 4147, "hAmty": 4148, "praA": 4149, "Hnwtj": 4150, "msT": 4151, "qrHt": 4152, "Hknw": 4153, "Tp": 4154, "Sma": 4155, "sXi": 4156, "bnr": 4157, "jxn": 4158, "jtf": 4159, "znzn": 4160, "DAjs": 4161, "mwj": 4162, "Ajr": 4163, "sxntj": 4164, "gnb": 4165, "pnTw": 4166, "Awjt": 4167, "Abdw": 4168, "msjn": 4169, "smAw": 4170, "sAy": 4171, "jwgr": 4172, "bdH": 4173, "xbss": 4174, "Azx": 4175, "xmm": 4176, "ktj": 4177, "HqAt": 4178, "rwhAwj": 4179, "Hsqq": 4180, "rby": 4181, "qba": 4182, "TAu": 4183, "qwqw": 4184, "mzHw": 4185, "wDn": 4186, "nqjw": 4187, "xnww": 4188, "wDd": 4189, "ptx": 4190, "jwAw": 4191, "bAnd": 4192, "mAD": 4193, "Smaw": 4194, "anxw": 4195, "Tss": 4196, "nhwnhw": 4197, "shA": 4198, "ptpt": 4199, "xnms": 4200, "nfrydj": 4201, "amd": 4202, "Ayt": 4203, "wsrkn": 4204, "nHpw": 4205, "dgAw": 4206, "nHy": 4207, "Adj": 4208, "TAtj": 4209, "sfd": 4210, "sxAxj": 4211, "awj": 4212, "nrAw": 4213, "pAw": 4214, "smj": 4215, "rxs": 4216, "jwpy": 4217, "sjTn": 4218, "dmdj": 4219, "DAa": 4220, "Hmk": 4221, "paa": 4222, "ba": 4223, "fd": 4224, "tAS": 4225, "sAkA": 4226, "zxi": 4227, "sbx": 4228, "mzi": 4229, "aXn": 4230, "rrmi": 4231, "smAA": 4232, "sbj": 4233, "mrr": 4234, "Ama": 4235, "ADw": 4236, "sdf": 4237, "wrbg": 4238, "wstnj": 4239, "sgg": 4240, "mgA": 4241, "bH": 4242, "Tzz": 4243, "Adw": 4244, "wSby": 4245, "Sptj": 4246, "rSwy": 4247, "SpS": 4248, "zbj": 4249, "jAkm": 4250, "Hrw": 4251, "jpn": 4252, "yks": 4253, "smtj": 4254, "DsDs": 4255, "mkw": 4256, "jxy": 4257, "jhb": 4258, "znSS": 4259, "mfx": 4260, "DA": 4261, "rqAy": 4262, "pAfj": 4263, "tmA": 4264, "SdH": 4265, "pra": 4266, "znH": 4267, "tms": 4268, "nDs": 4269, "Tpj": 4270, "tATnn": 4271, "qdy": 4272, "nhzi": 4273, "rkHy": 4274, "stpw": 4275, "bStA": 4276, "TmTj": 4277, "mAjw": 4278, "Arw": 4279, "rd": 4280, "jnm": 4281, "wnDj": 4282, "HqA": 4283, "mnj": 4284, "pryj": 4285, "xnp": 4286, "wpwt": 4287, "aSaS": 4288, "yHA": 4289, "xsff": 4290, "ytpA": 4291, "jndb": 4292, "kS": 4293, "Hrr": 4294, "mktw": 4295, "nmw": 4296, "mht": 4297, "wfA": 4298, "mnnw": 4299, "Hnm": 4300, "dgs": 4301, "jptf": 4302, "mSdd": 4303, "sAjr": 4304, "tks": 4305, "mnjw": 4306, "ha": 4307, "mAa": 4308, "rpy": 4309, "psDn": 4310, "nhn": 4311, "jAxw": 4312, "jAHsj": 4313, "smy": 4314, "sSsAw": 4315, "wADj": 4316, "ngAi": 4317, "kfa": 4318, "jkrjt": 4319, "jkj": 4320, "TArw": 4321, "Hbi": 4322, "rsu": 4323, "wawa": 4324, "Xtb": 4325, "dAb": 4326, "mdn": 4327, "bjtt": 4328, "jAm": 4329, "tnt": 4330, "yA": 4331, "mq": 4332, "gwf": 4333, "Arr": 4334, "pwi": 4335, "ydu": 4336, "Hrs": 4337, "Dbt": 4338, "xntjw": 4339, "nbpl": 4340, "nxrxr": 4341, "zpA": 4342, "HAtt": 4343, "mst": 4344, "rqil": 4345, "wgp": 4346, "hmAA": 4347, "wjwj": 4348, "HfAw": 4349, "DrDrj": 4350, "THs": 4351, "Hbnbn": 4352, "jstw": 4353, "drdn": 4354, "sSs": 4355, "wfj": 4356, "bAk": 4357, "psHw": 4358, "snjnjw": 4359, "fAA": 4360, "dfA": 4361, "qnbt": 4362, "nTrt": 4363, "sAtw": 4364, "HApt": 4365, "Ar": 4366, "jsm": 4367, "msnT": 4368, "pxd": 4369, "xpnj": 4370, "xww": 4371, "nDtj": 4372, "jaH": 4373, "abXbX": 4374, "snsi": 4375, "jmA": 4376, "Ahy": 4377, "mDw": 4378, "ptrj": 4379, "qH": 4380, "znj": 4381, "tb": 4382, "nxta": 4383, "jrk": 4384, "Dbb": 4385, "xbxb": 4386, "HAwt": 4387, "Ty": 4388, "Ttj": 4389, "spAi": 4390, "anx": 4391, "fktt": 4392, "antA": 4393, "tzm": 4394, "dbtj": 4395, "gf": 4396, "sskA": 4397, "sSzp": 4398, "tntn": 4399, "shtht": 4400, "Hkk": 4401, "rhn": 4402, "aAj": 4403, "kbnw": 4404, "s": 4405, "mnhp": 4406, "rnpj": 4407, "swai": 4408, "sbkA": 4409, "SwA": 4410, "bgz": 4411, "wjv": 4412, "nxAxA": 4413, "rbrt": 4414, "sksky": 4415, "mmy": 4416, "Hng": 4417, "fwt": 4418, "xmj": 4419, "jbpl": 4420, "nhrjn": 4421, "swj": 4422, "jwf": 4423, "prr": 4424, "jrj": 4425, "sxa": 4426, "wAb": 4427, "tyw": 4428, "sdAdA": 4429, "gmm": 4430, "Tjrr": 4431, "tnH": 4432, "Hdd": 4433, "ht": 4434, "mnfy": 4435, "ara": 4436, "jyH": 4437, "twtn": 4438, "wbdj": 4439, "hAnA": 4440, "bjn": 4441, "Stt": 4442, "Tzmy": 4443, "pHry": 4444, "smAwj": 4445, "jrT": 4446, "HAr": 4447, "mnHp": 4448, "jspw": 4449, "Tndu": 4450, "dAg": 4451, "zmjn": 4452, "mAjr": 4453, "gsy": 4454, "HwA": 4455, "sfi": 4456, "SAmw": 4457, "mSay": 4458, "mAv": 4459, "aw": 4460, "XAm": 4461, "swy": 4462, "jS": 4463, "ntj": 4464, "Xma": 4465, "hn": 4466, "whi": 4467, "wdns": 4468, "wnT": 4469, "Xri": 4470, "mDAjw": 4471, "pfy": 4472, "sDrjw": 4473, "nbyt": 4474, "dmAw": 4475, "axtwy": 4476, "tjtw": 4477, "skA": 4478, "wsrt": 4479, "saba": 4480, "xrp": 4481, "Ss": 4482, "jAdj": 4483, "jbjw": 4484, "sjf": 4485, "mtt": 4486, "prtm": 4487, "snfrw": 4488, "Snb": 4489, "rj": 4490, "jwH": 4491, "kAn": 4492, "ddy": 4493, "nzr": 4494, "marq": 4495, "DHwti": 4496, "wnz": 4497, "sjrAtj": 4498, "sAw": 4499, "Htpwj": 4500, "tA": 4501, "aaw": 4502, "HntA": 4503, "ypl": 4504, "nbb": 4505, "jTw": 4506, "Sntt": 4507, "Xpj": 4508, "bDA": 4509, "sDsr": 4510, "fsi": 4511, "sHny": 4512, "maw": 4513, "xAaa": 4514, "mjy": 4515, "sjAdi": 4516, "mDt": 4517, "Ttwtj": 4518, "jxssf": 4519, "rjA": 4520, "sja": 4521, "rk": 4522, "sbnrj": 4523, "SSnq": 4524, "jyAy": 4525, "jqr": 4526, "xwns": 4527, "sHD": 4528, "kj": 4529, "kyj": 4530, "gAbi": 4531, "wHwf": 4532, "jSj": 4533, "dq": 4534, "nAk": 4535, "mjam": 4536, "Sz": 4537, "pwrm": 4538, "psg": 4539, "fr": 4540, "txnj": 4541, "nwi": 4542, "nzn": 4543, "zAwt": 4544, "rst": 4545, "Hma": 4546, "qtA": 4547, "jwd": 4548, "dDA": 4549, "rwDt": 4550, "bkn": 4551, "sbnw": 4552, "nDHy": 4553, "dh": 4554, "bnana": 4555, "qbsw": 4556, "wnmj": 4557, "sbjA": 4558, "sjwi": 4559, "HtA": 4560, "nmja": 4561, "spt": 4562, "SDm": 4563, "hnq": 4564, "fnx": 4565, "Tjs": 4566, "jAsy": 4567, "spHw": 4568, "TpH": 4569, "mndyw": 4570, "nDsw": 4571, "sDdi": 4572, "jsdd": 4573, "wSA": 4574, "hwi": 4575, "Trm": 4576, "rxt": 4577, "yar": 4578, "pxs": 4579, "jpw": 4580, "abA": 4581, "mhi": 4582, "pnana": 4583, "swAA": 4584, "sbt": 4585, "mjtt": 4586, "wpt": 4587, "jwApT": 4588, "nag": 4589, "pAt": 4590, "xnmy": 4591, "nf": 4592, "mAmw": 4593, "HDb": 4594, "mjnA": 4595, "dri": 4596, "wxdw": 4597, "mxA": 4598, "rhm": 4599, "jni": 4600, "pxpx": 4601, "Hmsi": 4602, "jbjb": 4603, "rkjw": 4604, "Aaanj": 4605, "hmh": 4606, "sbT": 4607, "mdwi": 4608, "Aht": 4609, "jai": 4610, "sAA": 4611, "SAS": 4612, "pHs": 4613, "SAqA": 4614, "jAt": 4615, "jbkA": 4616, "rsi": 4617, "msDd": 4618, "wDnw": 4619, "dbdj": 4620, "sTf": 4621, "Dar": 4622, "Skr": 4623, "mstt": 4624, "rmnj": 4625, "mrHw": 4626, "mzwr": 4627, "znnj": 4628, "gwT": 4629, "sqq": 4630, "nsA": 4631, "tjwr": 4632, "rSwj": 4633, "dqA": 4634, "xAwj": 4635, "mnt": 4636, "Sbd": 4637, "hdm": 4638, "rqi": 4639, "wDt": 4640, "nwdj": 4641, "sDdj": 4642, "HTA": 4643, "wdA": 4644, "mds": 4645, "Sjk": 4646, "Ax": 4647, "jptw": 4648, "Sddj": 4649, "swtX": 4650, "wsir": 4651, "sdwA": 4652, "mSn": 4653, "Tbww": 4654, "Dd": 4655, "DbA": 4656, "qby": 4657, "jmDr": 4658, "smAm": 4659, "bzn": 4660, "jwtw": 4661, "nTr": 4662, "TmA": 4663, "StAdj": 4664, "jmbw": 4665, "mstj": 4666, "jana": 4667, "DHaa": 4668, "wxAw": 4669, "stwA": 4670, "fn": 4671, "pzf": 4672, "Hws": 4673, "zpw": 4674, "rdwj": 4675, "bsj": 4676, "nmrT": 4677, "xprpw": 4678, "nbHH": 4679, "aXb": 4680, "shbu": 4681, "sAp": 4682, "ASy": 4683, "knmw": 4684, "nTri": 4685, "mSwS": 4686, "mjs": 4687, "jmt": 4688, "jaHw": 4689, "Hh": 4690, "zkrj": 4691, "DbAw": 4692, "Sn": 4693, "mjr": 4694, "wbb": 4695, "apnn": 4696, "jzt": 4697, "mnSd": 4698, "sxwn": 4699, "DdT": 4700, "wSAm": 4701, "Apd": 4702, "srwx": 4703, "Tntm": 4704, "bHn": 4705, "Tsb": 4706, "nAS": 4707, "shAj": 4708, "ggwi": 4709, "duj": 4710, "njsw": 4711, "wrr": 4712, "sq": 4713, "Snbb": 4714, "mjm": 4715, "Sfy": 4716, "jsj": 4717, "srs": 4718, "dfj": 4719, "sSAj": 4720, "qdjw": 4721, "TwA": 4722, "bnnt": 4723, "qHH": 4724, "sD": 4725, "pAgjs": 4726, "zy": 4727, "mai": 4728, "ynktwn": 4729, "ajaj": 4730, "DAw": 4731, "jrtj": 4732, "sAsA": 4733, "Hzi": 4734, "XAn": 4735, "sXn": 4736, "aAmw": 4737, "nfry": 4738, "yv": 4739, "rDi": 4740, "sHpt": 4741, "waH": 4742, "mrsw": 4743, "StAi": 4744, "HkA": 4745, "sjs": 4746, "sHs": 4747, "ary": 4748, "sSrr": 4749, "mf": 4750, "HtAy": 4751, "dsj": 4752, "tfpt": 4753, "xpx": 4754, "jhj": 4755, "aDjaDj": 4756, "gwA": 4757, "ssn": 4758, "nhy": 4759, "qHqH": 4760, "pAx": 4761, "Hb": 4762, "sdgA": 4763, "jnsi": 4764, "gAb": 4765, "snDt": 4766, "swSr": 4767, "xnty": 4768, "Axy": 4769, "sHwi": 4770, "nkAkA": 4771, "msn": 4772, "kfAt": 4773, "Snwtj": 4774, "mtrw": 4775, "mnq": 4776, "jAtf": 4777, "TAw": 4778, "axw": 4779, "sjwy": 4780, "mdAm": 4781, "jhAy": 4782, "xsf": 4783, "kASy": 4784, "zni": 4785, "xpi": 4786, "bAst": 4787, "DAma": 4788, "hnjnj": 4789, "HHw": 4790, "pz": 4791, "snmH": 4792, "and": 4793, "Harw": 4794, "Dsf": 4795, "Drw": 4796, "Hnsk": 4797, "nkAw": 4798, "bAA": 4799, "sxws": 4800, "wAy": 4801, "xpn": 4802, "wdf": 4803, "bnrnj": 4804, "Spsjt": 4805, "nDA": 4806, "mjtrw": 4807, "jwrrj": 4808, "jwrj": 4809, "sxpp": 4810, "snnj": 4811, "npD": 4812, "Htw": 4813, "TmH": 4814, "swgs": 4815, "sqj": 4816, "aSAw": 4817, "srwD": 4818, "jwSS": 4819, "mnhD": 4820, "Hpr": 4821, "bar": 4822, "Axi": 4823, "sS": 4824, "qfqfA": 4825, "Dw": 4826, "Aft": 4827, "nT": 4828, "mrwH": 4829, "axm": 4830, "jAw": 4831, "Ayw": 4832, "sxy": 4833, "qnt": 4834, "wrm": 4835, "tfnt": 4836, "ytwt": 4837, "wxrt": 4838, "Hsbd": 4839, "jknS": 4840, "jrwv": 4841, "pHw": 4842, "sHtp": 4843, "rqAjw": 4844, "zxr": 4845, "jsx": 4846, "waa": 4847, "bAg": 4848, "pAxd": 4849, "Stw": 4850, "anws": 4851, "Xpd": 4852, "bjAk": 4853, "sky": 4854, "nHtm": 4855, "gstj": 4856, "Smat": 4857, "mAT": 4858, "sTni": 4859, "mxAy": 4860, "dwAww": 4861, "rh": 4862, "mand": 4863, "wnpp": 4864, "Xaa": 4865, "swAww": 4866, "amAT": 4867, "jAyd": 4868, "zpy": 4869, "qw": 4870, "mH": 4871, "rat": 4872, "wt": 4873, "sjpj": 4874, "mna": 4875, "xnrj": 4876, "kSj": 4877, "SAbw": 4878, "nxr": 4879, "fss": 4880, "mb": 4881, "mja": 4882, "wAr": 4883, "Srgt": 4884, "thn": 4885, "qrqr": 4886, "sSnw": 4887, "HarA": 4888, "whAy": 4889, "mAay": 4890, "tnHw": 4891, "bSj": 4892, "Xn": 4893, "jrHnn": 4894, "sjdi": 4895, "Snj": 4896, "Amy": 4897, "DAhj": 4898, "nzw": 4899, "xzAw": 4900, "sswnw": 4901, "qhA": 4902, "wADH": 4903, "rSrS": 4904, "mti": 4905, "sqdj": 4906, "my": 4907, "kSjw": 4908, "jxx": 4909, "sHApw": 4910, "dgAj": 4911, "tpty": 4912, "qAy": 4913, "bAw": 4914, "sxf": 4915, "wrry": 4916, "jbh": 4917, "Diw": 4918, "qAss": 4919, "jmy": 4920, "swnw": 4921, "nwr": 4922, "wnn": 4923, "pri": 4924, "abb": 4925, "Xmn": 4926, "X": 4927, "mAww": 4928, "dxd": 4929, "jTAj": 4930, "jDH": 4931, "sart": 4932, "jhhj": 4933, "ui": 4934, "agi": 4935, "wtjw": 4936, "Tsy": 4937, "ftt": 4938, "nSf": 4939, "Xrdw": 4940, "makHA": 4941, "rnn": 4942, "gAw": 4943, "Stnw": 4944, "xAp": 4945, "sAwj": 4946, "sjAt": 4947, "rsfj": 4948, "rdwt": 4949, "Abj": 4950, "nHrnHr": 4951, "twbn": 4952, "Swwj": 4953, "ks": 4954, "gbj": 4955, "Agb": 4956, "wdd": 4957, "wat": 4958, "sfxw": 4959, "gry": 4960, "iw": 4961, "kfn": 4962, "ntk": 4963, "kHb": 4964, "ntrw": 4965, "xrm": 4966, "wjA": 4967, "mntwk": 4968, "arr": 4969, "add": 4970, "wwt": 4971, "snTr": 4972, "sswsn": 4973, "jaawj": 4974, "Spss": 4975, "jhby": 4976, "sm": 4977, "sAdd": 4978, "jhA": 4979, "xnmj": 4980, "zj": 4981, "nfa": 4982, "xfj": 4983, "HaAw": 4984, "xtjw": 4985, "sDAy": 4986, "wai": 4987, "pjTA": 4988, "Aq": 4989, "mDqt": 4990, "hAmw": 4991, "sjH": 4992, "xwx": 4993, "ptry": 4994, "Xnt": 4995, "qmAmw": 4996, "nHt": 4997, "sHmy": 4998, "hAwy": 4999, "rww": 5000, "gbb": 5001, "jAd": 5002, "yj": 5003, "nktj": 5004, "nhw": 5005, "xAb": 5006, "hmT": 5007, "Az": 5008, "bST": 5009, "mkjw": 5010, "TTj": 5011, "Smi": 5012, "jnnm": 5013, "kd": 5014, "Hsmn": 5015, "whAs": 5016, "jDrj": 5017, "Dsnw": 5018, "jmtwy": 5019, "wSAA": 5020, "sA": 5021, "sqd": 5022, "xAmm": 5023, "saa": 5024, "rxw": 5025, "jbHw": 5026, "mjAz": 5027, "pgAjs": 5028, "maSd": 5029, "sxsf": 5030, "ftj": 5031, "mdd": 5032, "sSsA": 5033, "wsx": 5034, "axx": 5035, "xrS": 5036, "jAbD": 5037, "tSi": 5038, "tnm": 5039, "ananxj": 5040, "Twynn": 5041, "Htpj": 5042, "sarq": 5043, "matn": 5044, "zSn": 5045, "mntf": 5046, "tww": 5047, "wnxwj": 5048, "mjni": 5049, "manA": 5050, "zbnbn": 5051, "dgAm": 5052, "mrrt": 5053, "rkt": 5054, "kAjr": 5055, "nyw": 5056, "mAH": 5057, "tjnrw": 5058, "mjnbjw": 5059, "jnjwy": 5060, "fAw": 5061, "jrjt": 5062, "srwd": 5063, "gngn": 5064, "Hnq": 5065, "Awi": 5066, "xmxm": 5067, "gah": 5068, "ttw": 5069, "sswn": 5070, "nSzz": 5071, "xbi": 5072, "DddnnA": 5073, "DAmw": 5074, "aqwj": 5075, "bg": 5076, "rrmw": 5077, "Ttt": 5078, "Hpn": 5079, "nmt": 5080, "zm": 5081, "jsfj": 5082, "Tjf": 5083, "sbw": 5084, "sny": 5085, "aAt": 5086, "tmpsy": 5087, "na": 5088, "jSr": 5089, "waf": 5090, "Abt": 5091, "sAHw": 5092, "qzn": 5093, "jnw": 5094, "kAi": 5095, "sxnn": 5096, "Safj": 5097, "sSd": 5098, "shru": 5099, "kkwj": 5100, "xptT": 5101, "fkk": 5102, "Dsr": 5103, "DfAw": 5104, "Adp": 5105, "npl": 5106, "hArw": 5107, "jHa": 5108, "HbH": 5109, "gAH": 5110, "kAr": 5111, "mxnt": 5112, "kpnj": 5113, "smi": 5114, "dpwHw": 5115, "wnSj": 5116, "k": 5117, "jnD": 5118, "nAt": 5119, "nSn": 5120, "xai": 5121, "Stj": 5122, "Tzy": 5123, "bby": 5124, "dgi": 5125, "Tfjw": 5126, "wjw": 5127, "xabi": 5128, "jbw": 5129, "dmAa": 5130, "sAtA": 5131, "ndy": 5132, "aAg": 5133, "Hbnnw": 5134, "aAgs": 5135, "an": 5136, "dnD": 5137, "sHw": 5138, "antw": 5139, "HTAwj": 5140, "gnw": 5141, "vr": 5142, "pAwytj": 5143, "jnjn": 5144, "Hknj": 5145, "rxtj": 5146, "pwtrj": 5147, "mxt": 5148, "try": 5149, "xa": 5150, "jnT": 5151, "mnhsi": 5152, "wnjs": 5153, "atrf": 5154, "tbn": 5155, "dwAw": 5156, "jAl": 5157, "tjHA": 5158, "srDy": 5159, "sAqA": 5160, "nxb": 5161, "snTrj": 5162, "dm": 5163, "sj": 5164, "maq": 5165, "knw": 5166, "tjS": 5167, "swAH": 5168, "xnDr": 5169, "tjwnj": 5170, "wd": 5171, "rri": 5172, "pHww": 5173, "bHw": 5174, "sDA": 5175, "nHa": 5176, "xDw": 5177, "mjnb": 5178, "jgg": 5179, "SmA": 5180, "Hk": 5181, "qnq": 5182, "nw": 5183, "mxtm": 5184, "dg": 5185, "XA": 5186, "rt": 5187, "H": 5188, "anxt": 5189, "dwAy": 5190, "pAar": 5191, "sqrqr": 5192, "mdwj": 5193, "HAtj": 5194, "gjw": 5195, "pfA": 5196, "wstn": 5197, "rnpi": 5198, "a": 5199, "mrS": 5200, "Sfj": 5201, "wbg": 5202, "np": 5203, "STn": 5204, "mAd": 5205, "ssmt": 5206, "snh": 5207, "prwx": 5208, "rmw": 5209, "nhq": 5210, "jHwn": 5211, "kfi": 5212, "AjwAj": 5213, "fAi": 5214, "ASrw": 5215, "Hss": 5216, "Hpa": 5217, "zAy": 5218, "jmAA": 5219, "dpj": 5220, "zrm": 5221, "ntnt": 5222, "sAhh": 5223, "kmA": 5224, "qmA": 5225, "twti": 5226, "bnn": 5227, "mryt": 5228, "nhrn": 5229, "Hnnksty": 5230, "jmjrrk": 5231, "wDw": 5232, "Trwrw": 5233, "mDAj": 5234, "sti": 5235, "TnTA": 5236, "mrH": 5237, "rdHw": 5238, "aHm": 5239, "pp": 5240, "Smj": 5241, "mnww": 5242, "mndjdj": 5243, "jzs": 5244, "gm": 5245, "sw": 5246, "drr": 5247, "wSbwj": 5248, "hArp": 5249, "naa": 5250, "jpl": 5251, "Si": 5252, "djfn": 5253, "jaS": 5254, "dgAy": 5255, "sSr": 5256, "wdi": 5257, "saDA": 5258, "sSdAw": 5259, "mdpl": 5260, "swhAw": 5261, "Smai": 5262, "pzn": 5263, "kry": 5264, "l": 5265, "Dbay": 5266, "twg": 5267, "Sfu": 5268, "mkHA": 5269, "snjy": 5270, "qdS": 5271, "amam": 5272, "Aww": 5273, "rmrm": 5274, "dgAsA": 5275, "mntwf": 5276, "sgAp": 5277, "wDj": 5278, "HmA": 5279, "Smw": 5280, "mjtr": 5281, "jAr": 5282, "Xmm": 5283, "mama": 5284, "jStt": 5285, "jaf": 5286, "Xrt": 5287, "As": 5288, "Dq": 5289, "gwS": 5290, "DHwtj": 5291, "nHm": 5292, "qAbs": 5293, "Htjs": 5294, "sDAj": 5295, "bAbwj": 5296, "kfkfA": 5297, "mh": 5298, "Saf": 5299, "npj": 5300, "mnS": 5301, "wnp": 5302, "sTzi": 5303, "whAsj": 5304, "aafi": 5305, "sbjw": 5306, "sAXbw": 5307, "aHa": 5308, "jmskA": 5309, "sry": 5310, "zmAm": 5311, "tnn": 5312, "qdfA": 5313, "waAwj": 5314, "Ddj": 5315, "djb": 5316, "DaDa": 5317, "stpt": 5318, "Hab": 5319, "nar": 5320, "subst": 5321, "njwjw": 5322, "xns": 5323, "nbjbj": 5324, "knmm": 5325, "TAwj": 5326, "rSj": 5327, "yn": 5328, "sTz": 5329, "sArj": 5330, "rmnn": 5331, "jAwi": 5332, "Hrtj": 5333, "Hmtjw": 5334, "nxnm": 5335, "dj": 5336, "jwnt": 5337, "jHj": 5338, "nX": 5339, "wjT": 5340, "nAb": 5341, "DAt": 5342, "ApH": 5343, "rfr": 5344, "wsi": 5345, "axjw": 5346, "Swb": 5347, "aSjw": 5348, "tu": 5349, "xtn": 5350, "sjnj": 5351, "pnA": 5352, "smsi": 5353, "nDdnDd": 5354, "jmntj": 5355, "Xam": 5356, "pAd": 5357, "sjzy": 5358, "Afd": 5359, "gfw": 5360, "twhr": 5361, "fky": 5362, "jAhA": 5363, "spw": 5364, "Hnkt": 5365, "DHa": 5366, "ssw": 5367, "krAStw": 5368, "jwt": 5369, "sst": 5370, "bsn": 5371, "bty": 5372, "qai": 5373, "SnDd": 5374, "anw": 5375, "wsf": 5376, "xAw": 5377, "msSA": 5378, "psS": 5379, "Hbs": 5380, "Hfnn": 5381, "xAr": 5382, "ank": 5383, "mHnk": 5384, "HAa": 5385, "Hbnnwt": 5386, "tny": 5387, "njt": 5388, "DAr": 5389, "Xnnj": 5390, "smAmw": 5391, "DAbH": 5392, "zSSn": 5393, "Sj": 5394, "nmr": 5395, "xbA": 5396, "psgA": 5397, "sxnm": 5398, "khw": 5399, "ww": 5400, "tndu": 5401, "Hnkz": 5402, "rDy": 5403, "nxjw": 5404, "awAy": 5405, "jAH": 5406, "byt": 5407, "awg": 5408, "sxntt": 5409, "xf": 5410, "zAw": 5411, "sAg": 5412, "wDHw": 5413, "jmAxy": 5414, "aSg": 5415, "jdy": 5416, "jnq": 5417, "HHi": 5418, "xAf": 5419, "mahwj": 5420, "jpt": 5421, "nxn": 5422, "sHqA": 5423, "ki": 5424, "Aby": 5425, "XT": 5426, "Hsj": 5427, "wADy": 5428, "dby": 5429, "qnqn": 5430, "wpS": 5431, "wADAD": 5432, "snwr": 5433, "mHj": 5434, "HAk": 5435, "jnpw": 5436, "thA": 5437, "krxm": 5438, "Hsq": 5439, "mAgs": 5440, "jrr": 5441, "XpAw": 5442, "jmbj": 5443, "kwi": 5444, "nArf": 5445, "Ht": 5446, "sbjwk": 5447, "pgAs": 5448, "tpj": 5449, "sAqH": 5450, "xdbw": 5451, "bjj": 5452, "jHjj": 5453, "mak": 5454, "jsw": 5455, "xs": 5456, "wTnt": 5457, "jnqA": 5458, "wsfi": 5459, "HfA": 5460, "Xrj": 5461, "mstjw": 5462, "dgA": 5463, "Hni": 5464, "jaanj": 5465, "iHy": 5466, "HpHp": 5467, "nhjs": 5468, "tns": 5469, "DAs": 5470, "Stm": 5471, "xAbA": 5472, "bkk": 5473, "sfxj": 5474, "Hnny": 5475, "sbgA": 5476, "ptj": 5477, "HkAht": 5478, "bHz": 5479, "xnjt": 5480, "dgAys": 5481, "hpAT": 5482, "wTsA": 5483, "wAsm": 5484, "smAjr": 5485, "jmH": 5486, "spHt": 5487, "sAn": 5488, "aHA": 5489, "ksA": 5490, "bAkw": 5491, "qaHj": 5492, "Dfi": 5493, "tpA": 5494, "Xz": 5495, "mkrjw": 5496, "jnbA": 5497, "tSjw": 5498, "dSr": 5499, "qq": 5500, "xnsw": 5501, "Tnnt": 5502, "jyjj": 5503, "sty": 5504, "kpny": 5505, "manD": 5506, "gAbg": 5507, "tp": 5508, "nxAx": 5509, "wa": 5510, "jtj": 5511, "jSs": 5512, "smntw": 5513, "zSzSt": 5514, "jpwj": 5515, "dhn": 5516, "Hzr": 5517, "HyA": 5518, "tbX": 5519, "St": 5520, "qAA": 5521, "janj": 5522, "rp": 5523, "Asq": 5524, "tpr": 5525, "Djw": 5526, "xzd": 5527, "Sni": 5528, "mttj": 5529, "jAb": 5530, "mtwk": 5531, "nDHaDHa": 5532, "sdp": 5533, "abnx": 5534, "snnT": 5535, "SAr": 5536, "wfjH": 5537, "tAf": 5538, "wpj": 5539, "jnHAs": 5540, "smjw": 5541, "mAwj": 5542, "mAX": 5543, "aAw": 5544, "ngy": 5545, "baHw": 5546, "jntnt": 5547, "tpt": 5548, "djf": 5549, "njAw": 5550, "tjSps": 5551, "Ddm": 5552, "Hnn": 5553, "HAww": 5554, "dnH": 5555, "jTi": 5556, "anH": 5557, "brbr": 5558, "ant": 5559, "ma": 5560, "Afr": 5561, "zbnw": 5562, "kaka": 5563, "js": 5564, "dxn": 5565, "xsbd": 5566, "ssfj": 5567, "wyw": 5568, "aHb": 5569, "dnp": 5570, "jq": 5571, "Dsjw": 5572, "kD": 5573, "Stbw": 5574, "rss": 5575, "wra": 5576, "skty": 5577, "nHp": 5578, "Hfdi": 5579, "Hjy": 5580, "Spw": 5581, "htht": 5582, "An": 5583, "HzA": 5584, "dmAm": 5585, "xarj": 5586, "nhA": 5587, "mtAy": 5588, "mjnyw": 5589, "mjz": 5590, "jrrpx": 5591, "Dswj": 5592, "wsxt": 5593, "wAxj": 5594, "wAnr": 5595, "sxti": 5596, "nDw": 5597, "bbw": 5598, "twh": 5599, "S": 5600, "spH": 5601, "Sdnw": 5602, "DAbqbq": 5603, "mk": 5604, "sHnj": 5605, "sjsj": 5606, "TAt": 5607, "Awj": 5608, "nrj": 5609, "nxv": 5610, "pbx": 5611, "spr": 5612, "jmjm": 5613, "hApl": 5614, "jsr": 5615, "pT": 5616, "apap": 5617, "Tpnpn": 5618, "sSwASwA": 5619, "qHj": 5620, "bwSA": 5621, "wAwAj": 5622, "Hm": 5623, "ssAi": 5624, "trrk": 5625, "tAnn": 5626, "Hpapa": 5627, "jbt": 5628, "tAHn": 5629, "annt": 5630, "wSi": 5631, "jarw": 5632, "AX": 5633, "zwnj": 5634, "prx": 5635, "xwsi": 5636, "zAi": 5637, "jmar": 5638, "gnHs": 5639, "Try": 5640, "agrtb": 5641, "rAjs": 5642, "mndf": 5643, "kns": 5644, "rH": 5645, "DAb": 5646, "jSsj": 5647, "pa": 5648, "maxf": 5649, "sbgs": 5650, "jtfA": 5651, "Ads": 5652, "HH": 5653, "qhwj": 5654, "maAa": 5655, "wxyx": 5656, "bwpwy": 5657, "qAjs": 5658, "Hnyt": 5659, "jss": 5660, "nttwtj": 5661, "nfrwysw": 5662, "rsst": 5663, "sxdy": 5664, "sspd": 5665, "awa": 5666, "pggA": 5667, "Aky": 5668, "DAD": 5669, "sTp": 5670, "DAty": 5671, "jsd": 5672, "dAp": 5673, "qfAw": 5674, "Hnkwt": 5675, "ddw": 5676, "tnTA": 5677, "srmw": 5678, "wsh": 5679, "mmtj": 5680, "prA": 5681, "xnsy": 5682, "krp": 5683, "DwDw": 5684, "Tfj": 5685, "mTpn": 5686, "abab": 5687, "jkm": 5688, "Daw": 5689, "snjnj": 5690, "Xaq": 5691, "mAwi": 5692, "Ssp": 5693, "mXr": 5694, "jws": 5695, "mT": 5696, "tmS": 5697, "pxt": 5698, "xdd": 5699, "nsjsj": 5700, "THHw": 5701, "mrjj": 5702, "sqdy": 5703, "fndy": 5704, "nSp": 5705, "ppy": 5706, "aba": 5707, "jsn": 5708, "kf": 5709, "nsAA": 5710, "rqA": 5711, "yH": 5712, "xprS": 5713, "bAy": 5714, "qrjaw": 5715, "sbq": 5716, "Hawjy": 5717, "mHa": 5718, "nhAy": 5719, "tjnH": 5720, "pAwr": 5721, "nmtt": 5722, "jsds": 5723, "sab": 5724, "jmti": 5725, "sHyH": 5726, "SAa": 5727, "jmjxnt": 5728, "mnD": 5729, "SAf": 5730, "Hrt": 5731, "trw": 5732, "wrD": 5733, "bAgAy": 5734, "mtnw": 5735, "mHtj": 5736, "Ag": 5737, "pzH": 5738, "jbz": 5739, "nft": 5740, "jHy": 5741, "nvr": 5742, "Sntj": 5743, "tbj": 5744, "swD": 5745, "pwy": 5746, "tw": 5747, "rSnw": 5748, "zwT": 5749, "wrww": 5750, "sSwAS": 5751, "ban": 5752, "mAwt": 5753, "ksk": 5754, "swbx": 5755, "mxAjw": 5756, "Hst": 5757, "rdt": 5758, "jtrw": 5759, "Xdi": 5760, "wtnt": 5761, "ap": 5762, "xt": 5763, "sswrj": 5764, "kwj": 5765, "hAbq": 5766, "sksn": 5767, "mard": 5768, "jwa": 5769, "mnqb": 5770, "sand": 5771, "hAw": 5772, "Aaa": 5773, "spi": 5774, "mXrj": 5775, "tkkj": 5776, "smA": 5777, "wdj": 5778, "amm": 5779, "Dww": 5780, "jshAb": 5781, "rxss": 5782, "Dhn": 5783, "gbA": 5784, "Hjm": 5785, "sSpw": 5786, "XAy": 5787, "srqy": 5788, "npAwt": 5789, "zby": 5790, "msnH": 5791, "jsfy": 5792, "nbsy": 5793, "snaa": 5794, "qAmy": 5795, "snb": 5796, "jwtn": 5797, "xwrr": 5798, "jwm": 5799, "gj": 5800, "wnTr": 5801, "mAm": 5802, "HwAA": 5803, "snwd": 5804, "wnj": 5805, "wry": 5806, "nDri": 5807, "sbk": 5808, "any": 5809, "rSy": 5810, "HDd": 5811, "axxA": 5812, "tjmHw": 5813, "Ds": 5814, "Sny": 5815, "wADw": 5816, "shd": 5817, "gAbw": 5818, "Szm": 5819, "wAnb": 5820, "kss": 5821, "awAw": 5822, "sSw": 5823, "zmy": 5824, "Xpa": 5825, "bAs": 5826, "tkkw": 5827, "nD": 5828, "jAq": 5829, "xbsy": 5830, "sjwr": 5831, "ntr": 5832, "Dnm": 5833, "Hyy": 5834, "HAi": 5835, "xfnn": 5836, "qwTAt": 5837, "jsqA": 5838, "wny": 5839, "kmm": 5840, "txw": 5841, "HmHm": 5842, "XnX": 5843, "swmt": 5844, "jmmj": 5845, "Sbb": 5846, "hpnn": 5847, "sxm": 5848, "thwh": 5849, "jkb": 5850, "swhA": 5851, "njw": 5852, "tpnn": 5853, "jwjw": 5854, "nTstn": 5855, "msyw": 5856, "djdj": 5857, "qni": 5858, "sfxx": 5859, "Ai": 5860, "SAAw": 5861, "SAy": 5862, "aSm": 5863, "knmwt": 5864, "nxnx": 5865, "aHw": 5866, "hwt": 5867, "nhp": 5868, "mrm": 5869, "sqA": 5870, "Drjw": 5871, "SAdA": 5872, "jrp": 5873, "npy": 5874, "sagA": 5875, "jmnj": 5876, "wtTw": 5877, "nbH": 5878, "jhmn": 5879, "axy": 5880, "wr": 5881, "nhAj": 5882, "sgb": 5883, "dmd": 5884, "ksi": 5885, "jttw": 5886, "Say": 5887, "Hqrj": 5888, "xfti": 5889, "TnH": 5890, "Hr": 5891, "stH": 5892, "rnpw": 5893, "xtmt": 5894, "xmny": 5895, "kSw": 5896, "wDi": 5897, "qfq": 5898, "rHr": 5899, "sDfAw": 5900, "mrt": 5901, "xrt": 5902, "jnk": 5903, "Spv": 5904, "aHwwtj": 5905, "Smmy": 5906, "HAty": 5907, "HDAs": 5908, "wAT": 5909, "shAw": 5910, "qAhd": 5911, "khb": 5912, "dbH": 5913, "rxjw": 5914, "SAwb": 5915, "fw": 5916, "sajw": 5917, "zAb": 5918, "nHni": 5919, "Tnnj": 5920, "jAtjw": 5921, "Af": 5922, "npd": 5923, "sk": 5924, "bnDy": 5925, "xfx": 5926, "wafw": 5927, "smDd": 5928, "HdD": 5929, "sri": 5930, "sTt": 5931, "Tby": 5932, "thAb": 5933, "nfw": 5934, "Ssm": 5935, "DAtj": 5936, "ybw": 5937, "DnH": 5938, "jAA": 5939, "tXs": 5940, "btq": 5941, "sxxts": 5942, "Tfrr": 5943, "h": 5944, "ppj": 5945, "pAi": 5946, "gATA": 5947, "xftj": 5948, "nbd": 5949, "xsA": 5950, "dHrjw": 5951, "bqs": 5952, "Htj": 5953, "TpHw": 5954, "gASj": 5955, "makw": 5956, "whnj": 5957, "jqm": 5958, "sDf": 5959, "wAp": 5960, "snbb": 5961, "swrx": 5962, "aqn": 5963, "sAHn": 5964, "Smsj": 5965, "mgw": 5966, "ftft": 5967, "bwn": 5968, "msxAA": 5969, "jwq": 5970, "hAj": 5971, "nbDbD": 5972, "nst": 5973, "zAn": 5974, "Hmzi": 5975, "afAw": 5976, "qtAj": 5977, "sgr": 5978, "qsj": 5979, "ssD": 5980, "jHTj": 5981, "spdd": 5982, "mzt": 5983, "nDz": 5984, "xfd": 5985, "sdmj": 5986, "xj": 5987, "zbzb": 5988, "jgA": 5989, "sxwz": 5990, "XsAw": 5991, "nmaw": 5992, "HDnw": 5993, "tjsw": 5994, "smnj": 5995, "rqy": 5996, "wAj": 5997, "mAyw": 5998, "rmAmj": 5999, "xnsAy": 6000, "tjwtj": 6001, "sssw": 6002, "hT": 6003, "nDH": 6004, "mdw": 6005, "antj": 6006, "jtw": 6007, "aAd": 6008, "tAyw": 6009, "sHjH": 6010, "sHjHt": 6011, "gAbgAb": 6012, "wsy": 6013, "Sns": 6014, "wnwt": 6015, "DAf": 6016, "smHr": 6017, "xsr": 6018, "sndm": 6019, "pHts": 6020, "hAk": 6021, "sjdn": 6022, "qmAm": 6023, "qqj": 6024, "nhj": 6025, "aDA": 6026, "Ajj": 6027, "aawj": 6028, "qrja": 6029, "bSd": 6030, "mfAk": 6031, "hTt": 6032, "Hnpnsw": 6033, "wArx": 6034, "jhh": 6035, "jbx": 6036, "sTnn": 6037, "HDw": 6038, "dupl": 6039, "wk": 6040, "mntsn": 6041, "znt": 6042, "wpy": 6043, "wara": 6044, "jnt": 6045, "snpw": 6046, "mtrwy": 6047, "Smsw": 6048, "spdD": 6049, "TAhmw": 6050, "mhy": 6051, "kHkH": 6052, "jsbA": 6053, "djn": 6054, "zX": 6055, "jAbt": 6056, "rDj": 6057, "Dfj": 6058, "wnnt": 6059, "khAbw": 6060, "fAj": 6061, "jmnw": 6062, "hpn": 6063, "Hwy": 6064, "saAi": 6065, "XAwj": 6066, "nHrj": 6067, "mTT": 6068, "xay": 6069, "sjni": 6070, "DAA": 6071, "wHaw": 6072, "xprr": 6073, "srrT": 6074, "Sdt": 6075, "zSA": 6076, "nkk": 6077, "tpi": 6078, "tH": 6079, "tAn": 6080, "gAbsbs": 6081, "xnrt": 6082, "sTi": 6083, "jsA": 6084, "nHi": 6085, "ktx": 6086, "HkAw": 6087, "jAtw": 6088, "THnHn": 6089, "nsns": 6090, "jwms": 6091, "nDa": 6092, "mjH": 6093, "snxbxb": 6094, "qbjw": 6095, "jmnt": 6096, "bAkj": 6097, "snwxt": 6098, "dwDw": 6099, "Hjw": 6100, "swxA": 6101, "jsk": 6102, "kwjw": 6103, "paw": 6104, "mxntj": 6105, "wAwAw": 6106, "Darj": 6107, "rf": 6108, "mHv": 6109, "wzS": 6110, "bSS": 6111, "mxsf": 6112, "pS": 6113, "nHmm": 6114, "tjj": 6115, "mkAH": 6116, "swti": 6117, "jnH": 6118, "nXrXr": 6119, "Hswt": 6120, "nDnD": 6121, "Thm": 6122, "Trj": 6123, "AkAj": 6124, "rmi": 6125, "oder": 6126, "nfrt": 6127, "rwjAj": 6128, "psDj": 6129, "Axj": 6130, "HAw": 6131, "sSjsA": 6132, "wtj": 6133, "krSt": 6134, "qsn": 6135, "jdn": 6136, "Axb": 6137, "Hbn": 6138, "hjp": 6139, "XdXd": 6140, "jrksndrs": 6141, "jmS": 6142, "snfxfx": 6143, "nxw": 6144, "jAmAm": 6145, "whAj": 6146, "ptH": 6147, "jtjw": 6148, "smAwi": 6149, "aSi": 6150, "ATw": 6151, "hr": 6152, "dnm": 6153, "xxw": 6154, "kywy": 6155, "Tnj": 6156, "kr": 6157, "kAhb": 6158, "HAqA": 6159, "mHs": 6160, "xpwS": 6161, "dS": 6162, "hAwt": 6163, "dwn": 6164, "mawH": 6165, "jwrw": 6166, "xw": 6167, "qAn": 6168, "par": 6169, "aXi": 6170, "Hfj": 6171, "annxj": 6172, "mri": 6173, "mmjt": 6174, "bsA": 6175, "zwzw": 6176, "ym": 6177, "wAH": 6178, "xpnw": 6179, "sAj": 6180, "HA": 6181, "Snty": 6182, "npApA": 6183, "msx": 6184, "dks": 6185, "ztj": 6186, "srD": 6187, "x": 6188, "saAy": 6189, "drjw": 6190, "mxr": 6191, "rdi": 6192, "HrpgkSrSb": 6193, "tAH": 6194, "jns": 6195, "Tni": 6196, "rrwj": 6197, "qd": 6198, "rau": 6199, "xmr": 6200, "Dy": 6201, "wn": 6202, "nDrj": 6203, "xnn": 6204, "Sayd": 6205, "xdy": 6206, "Twt": 6207, "mAwy": 6208, "jwpj": 6209, "sntrj": 6210, "mks": 6211, "aDd": 6212, "mXAw": 6213, "sgrg": 6214, "wtt": 6215, "hapy": 6216, "jwsw": 6217, "snjk": 6218, "tAwf": 6219, "pnq": 6220, "spAwt": 6221, "msq": 6222, "wjn": 6223, "mD": 6224, "jAdr": 6225, "nhAm": 6226, "zqAi": 6227, "jan": 6228, "mg": 6229, "sfj": 6230, "rpj": 6231, "jdjj": 6232, "aApp": 6233, "rkm": 6234, "wHmy": 6235, "jwTw": 6236, "Hsw": 6237, "nSS": 6238, "w": 6239, "ns": 6240, "nsb": 6241, "dfdj": 6242, "kAkAj": 6243, "SsdA": 6244, "khbw": 6245, "wsdn": 6246, "sqnq": 6247, "jhm": 6248, "sabA": 6249, "Ddt": 6250, "dbw": 6251, "jmAxt": 6252, "pAqr": 6253, "sAD": 6254, "fAk": 6255, "jar": 6256, "nwAn": 6257, "pxr": 6258, "knr": 6259, "nbtj": 6260, "nfAj": 6261, "snnw": 6262, "snfr": 6263, "hnm": 6264, "wrw": 6265, "jdx": 6266, "DHtj": 6267, "Ddtj": 6268, "qfdn": 6269, "zbT": 6270, "xwzi": 6271, "wDfi": 6272, "rw": 6273, "nDf": 6274, "HnwH": 6275, "hAb": 6276, "stf": 6277, "zkzk": 6278, "m": 6279, "gz": 6280, "AgAp": 6281, "sxwt": 6282, "b": 6283, "bAbA": 6284, "jmny": 6285, "msAD": 6286, "hAi": 6287, "njwr": 6288, "njnj": 6289, "baHi": 6290, "DbAj": 6291, "ptr": 6292, "HDn": 6293, "dns": 6294, "nAjrf": 6295, "wgs": 6296, "sxpr": 6297, "xxm": 6298, "rjj": 6299, "swtS": 6300, "mqAHA": 6301, "snjt": 6302, "TmpAw": 6303, "tjam": 6304, "hrrm": 6305, "bSw": 6306, "rrAwj": 6307, "swAi": 6308, "SASAy": 6309, "nTT": 6310, "Axx": 6311, "jwsdn": 6312, "jHm": 6313, "AHA": 6314, "sswr": 6315, "nsrt": 6316, "sxdi": 6317, "wADt": 6318, "ntbw": 6319, "rxz": 6320, "skAw": 6321, "jwdw": 6322, "szbi": 6323, "hAbw": 6324, "xnws": 6325, "mni": 6326, "Hnty": 6327, "jdm": 6328, "mnh": 6329, "npA": 6330, "sDdm": 6331, "mSnT": 6332, "wnf": 6333, "bfn": 6334, "ssbt": 6335, "Hfnw": 6336, "sqr": 6337, "knz": 6338, "AkA": 6339, "dmdm": 6340, "AS": 6341, "Azb": 6342, "rsfy": 6343, "maqA": 6344, "Xa": 6345, "Sq": 6346, "nAHAj": 6347, "qHn": 6348, "fdi": 6349, "jwr": 6350, "smHj": 6351, "zT": 6352, "jxxj": 6353, "jdnw": 6354, "Su": 6355, "nara": 6356, "snjw": 6357, "zSr": 6358, "jrf": 6359, "jhAjj": 6360, "mrHnn": 6361, "Hpw": 6362, "jtr": 6363, "rSp": 6364, "jdAm": 6365, "nDD": 6366, "sxt": 6367, "nDdDd": 6368, "sxnt": 6369, "tjs": 6370, "srwjj": 6371, "znT": 6372, "jsdz": 6373, "q": 6374, "hnw": 6375, "wrd": 6376, "tT": 6377, "fa": 6378, "qaHw": 6379, "wnm": 6380, "xft": 6381, "wrx": 6382, "qb": 6383, "Sw": 6384, "xpw": 6385, "nxT": 6386, "qrj": 6387, "bhnj": 6388, "nbAbA": 6389, "jmntt": 6390, "twtw": 6391, "pjAy": 6392, "Tbb": 6393, "txt": 6394, "jxr": 6395, "hAA": 6396, "xAbs": 6397, "jDd": 6398, "mjk": 6399, "wAww": 6400, "Szp": 6401, "mAat": 6402, "ip": 6403, "qt": 6404, "Db": 6405, "nHsy": 6406, "jAD": 6407, "sDw": 6408, "jaA": 6409, "Dwj": 6410, "jArn": 6411, "znHm": 6412, "nSm": 6413, "xnj": 6414, "mdA": 6415, "nS": 6416, "gHsA": 6417, "nSA": 6418, "npi": 6419, "nDy": 6420, "wtw": 6421, "Hjjj": 6422, "gsp": 6423, "rAw": 6424, "Akr": 6425, "nsw": 6426, "psmTk": 6427, "xAwy": 6428, "saAm": 6429, "nSD": 6430, "jdj": 6431, "war": 6432, "pqA": 6433, "Sfw": 6434, "ararw": 6435, "DAm": 6436, "rnp": 6437, "pAq": 6438, "mHrj": 6439, "sksk": 6440, "aqaq": 6441, "sz": 6442, "app": 6443, "Tbhn": 6444, "sDmy": 6445, "Spy": 6446, "xtj": 6447, "tStS": 6448, "ntsn": 6449, "ksks": 6450, "kkt": 6451, "dbj": 6452, "skk": 6453, "Aafj": 6454, "mAg": 6455, "whm": 6456, "agwt": 6457, "kAmy": 6458, "Hzzy": 6459, "bTn": 6460, "pSn": 6461, "nTs": 6462, "sHAbi": 6463, "Sy": 6464, "pSr": 6465, "aDaD": 6466, "bjAj": 6467, "mDr": 6468, "SaT": 6469, "mAHj": 6470, "zXi": 6471, "Awt": 6472, "wbdy": 6473, "xnd": 6474, "Atp": 6475, "hb": 6476, "Hmn": 6477, "jnHA": 6478, "sSa": 6479, "jppj": 6480, "smHw": 6481, "tjmH": 6482, "jpj": 6483, "HDt": 6484, "Trjwy": 6485, "Hba": 6486, "sDAm": 6487, "wrHw": 6488, "jyi": 6489, "Aqs": 6490, "di": 6491, "stx": 6492, "mki": 6493, "Hwt": 6494, "snny": 6495, "kAA": 6496, "anxj": 6497, "Dns": 6498, "jhpy": 6499, "gmHs": 6500, "twAwt": 6501, "qrrj": 6502, "hrn": 6503, "nAj": 6504, "aj": 6505, "Ddw": 6506, "maSa": 6507, "tntm": 6508, "wdu": 6509, "sy": 6510, "mXaq": 6511, "tjHwt": 6512, "nmH": 6513, "msb": 6514, "xnS": 6515, "zTw": 6516, "sdbj": 6517, "tn": 6518, "nms": 6519, "SSj": 6520, "xprj": 6521, "sgn": 6522, "mjn": 6523, "sh": 6524, "Sd": 6525, "xm": 6526, "DAy": 6527, "TnTn": 6528, "sTr": 6529, "Aaany": 6530, "Aaf": 6531, "SAm": 6532, "atj": 6533, "bwSi": 6534, "Hdqq": 6535, "sSsr": 6536, "tnw": 6537, "gAgAu": 6538, "SAA": 6539, "rA": 6540, "Xdb": 6541, "Amj": 6542, "Hw": 6543, "nTi": 6544, "tAHw": 6545, "swjA": 6546, "xntS": 6547, "HnH": 6548, "afj": 6549, "hjn": 6550, "Hqr": 6551, "swa": 6552, "HnswA": 6553, "ypgdd": 6554, "sjAA": 6555, "mns": 6556, "stk": 6557, "thAj": 6558, "tjnr": 6559, "shrw": 6560, "qaA": 6561, "XnXni": 6562, "jArw": 6563, "tjaAm": 6564, "Hsbp": 6565, "madn": 6566, "ss": 6567, "DdH": 6568, "jjr": 6569, "sbtt": 6570, "kAmn": 6571, "wntj": 6572, "rDww": 6573, "rtjw": 6574, "swA": 6575, "gbtw": 6576, "nXn": 6577, "sHbi": 6578, "rwj": 6579, "Hnnks": 6580, "jAS": 6581, "jdnpl": 6582, "HDnDn": 6583, "msntjw": 6584, "prTrsw": 6585, "hni": 6586, "bwy": 6587, "zrwx": 6588, "srx": 6589, "gAy": 6590, "makj": 6591, "wjAn": 6592, "sarw": 6593, "sTs": 6594, "mstnw": 6595, "Dswi": 6596, "i": 6597, "wbn": 6598, "sjA": 6599, "DfDf": 6600, "HAyw": 6601, "rHH": 6602, "fnw": 6603, "pan": 6604, "Sws": 6605, "skrj": 6606, "Xzi": 6607, "dmt": 6608, "mAtjr": 6609, "wHd": 6610, "mAw": 6611, "nfy": 6612, "bxtn": 6613, "mamjA": 6614, "hry": 6615, "kk": 6616, "as": 6617, "sjp": 6618, "rjwy": 6619, "btj": 6620, "pwt": 6621, "wnfj": 6622, "sHm": 6623, "hDhD": 6624, "bsy": 6625, "jrkrk": 6626, "f": 6627, "gAbgAy": 6628, "axAy": 6629, "ggA": 6630, "aSqj": 6631, "sSmi": 6632, "AA": 6633, "Dmtn": 6634, "pD": 6635, "sHwrj": 6636, "Hbsj": 6637, "Hd": 6638, "Abx": 6639, "xpt": 6640, "prS": 6641, "jaw": 6642, "bAndw": 6643, "gAf": 6644, "zjn": 6645, "dHaHr": 6646, "pth": 6647, "wHwH": 6648, "fdqdq": 6649, "pjgAw": 6650, "HjHj": 6651, "SaA": 6652, "sxmx": 6653, "bHH": 6654, "Axtj": 6655, "ryw": 6656, "jAg": 6657, "Aty": 6658, "tkAw": 6659, "TjT": 6660, "Xss": 6661, "Hy": 6662, "sxn": 6663, "jTA": 6664, "wAd": 6665, "jtH": 6666, "sa": 6667, "sxz": 6668, "nDHDH": 6669, "HaDA": 6670, "jAx": 6671, "jrAw": 6672, "fnd": 6673, "gott": 6674, "Hnmnm": 6675, "jTn": 6676, "sbjAt": 6677, "sDm": 6678, "pfAw": 6679, "anj": 6680, "Tfjdn": 6681, "jbzA": 6682, "zzi": 6683, "arqA": 6684, "wdp": 6685, "mz": 6686, "gw": 6687, "Sad": 6688, "jAnr": 6689, "gnnj": 6690, "jAxt": 6691, "Xd": 6692, "mas": 6693, "mAn": 6694, "wns": 6695, "dng": 6696, "jsbw": 6697, "jwit": 6698, "bzA": 6699, "sfy": 6700, "HAbt": 6701, "Hnj": 6702, "nhwt": 6703, "yai": 6704, "nmnm": 6705, "tnpl": 6706, "nfrj": 6707, "Tzj": 6708, "jAz": 6709, "jrjw": 6710, "gAHj": 6711, "qr": 6712, "af": 6713, "hh": 6714, "kH": 6715, "hw": 6716, "jTr": 6717, "sTH": 6718, "rpl": 6719, "AT": 6720, "aXm": 6721, "waw": 6722, "sxnS": 6723, "Satj": 6724, "xx": 6725, "szwnu": 6726, "knan": 6727, "mdsy": 6728, "jsmr": 6729, "sxtj": 6730, "HmAy": 6731, "sxr": 6732, "mkj": 6733, "HbAbA": 6734, "u": 6735, "Smm": 6736, "spri": 6737, "dmr": 6738, "mntsst": 6739, "hwhy": 6740, "sxbx": 6741, "nhz": 6742, "zxz": 6743, "hbi": 6744, "sgm": 6745, "bnt": 6746, "sAT": 6747, "jAmA": 6748, "pzs": 6749, "pi": 6750, "xrww": 6751, "pttj": 6752, "bAxn": 6753, "tmy": 6754, "sgmH": 6755, "nbdj": 6756, "xxj": 6757, "qAw": 6758, "wsrw": 6759, "mAAt": 6760, "zxni": 6761, "jpHw": 6762, "msDD": 6763, "anan": 6764, "sXr": 6765, "HAdi": 6766, "brwt": 6767, "nrw": 6768, "aHai": 6769, "gfn": 6770, "Sb": 6771, "smr": 6772, "SAms": 6773, "msTp": 6774, "pln": 6775, "fnD": 6776, "hAbj": 6777, "sktj": 6778, "Hqrjw": 6779, "kHA": 6780, "jtn": 6781, "sf": 6782, "mXA": 6783, "xnT": 6784, "hAm": 6785, "ztjw": 6786, "rv": 6787, "wAgy": 6788, "qst": 6789, "mssj": 6790, "hAhAy": 6791, "bAqA": 6792, "pq": 6793, "maAr": 6794, "Xnn": 6795, "pATT": 6796, "tmt": 6797, "rhA": 6798, "hAp": 6799, "qdi": 6800, "nSnS": 6801, "kAs": 6802, "Daam": 6803, "grr": 6804, "swAS": 6805, "sfnA": 6806, "srj": 6807, "fm": 6808, "bnd": 6809, "gmHws": 6810, "jb": 6811, "jwpl": 6812, "it": 6813, "twy": 6814, "HAswsn": 6815, "Xrp": 6816, "bjTw": 6817, "ndri": 6818, "dgS": 6819, "Sps": 6820, "sni": 6821, "bhn": 6822, "abH": 6823, "grgj": 6824, "ATj": 6825, "HDr": 6826, "qdqd": 6827, "Hnt": 6828, "wAw": 6829, "ngng": 6830, "fAy": 6831, "dAw": 6832, "bsi": 6833, "nnw": 6834, "mAaq": 6835, "anay": 6836, "Sdj": 6837, "aDdw": 6838, "nAy": 6839, "swu": 6840, "xmw": 6841, "zwS": 6842, "mv": 6843, "htj": 6844, "knkf": 6845, "tjHn": 6846, "mAkj": 6847, "wAt": 6848, "kAhnj": 6849, "grH": 6850, "Smr": 6851, "SwAww": 6852, "kmrj": 6853, "ni": 6854, "snr": 6855, "ndbdb": 6856, "SnD": 6857, "tjmHj": 6858, "rssy": 6859, "jsbrr": 6860, "jqw": 6861, "jpjp": 6862, "bAX": 6863, "Snajw": 6864, "dbnbn": 6865, "zS": 6866, "njsj": 6867, "sAu": 6868, "jtA": 6869, "rn": 6870, "nSy": 6871, "nftft": 6872, "wps": 6873, "SAb": 6874, "mmT": 6875, "hrA": 6876, "msa": 6877, "ast": 6878, "pXr": 6879, "btAw": 6880, "gmy": 6881, "Abb": 6882, "dwnj": 6883, "sDrj": 6884, "mnT": 6885, "HDDw": 6886, "xwd": 6887, "dHt": 6888, "srk": 6889, "jzA": 6890, "wgAgg": 6891, "ymm": 6892, "Sbi": 6893, "nxwf": 6894, "bSA": 6895, "sHmi": 6896, "dHw": 6897, "dwdw": 6898, "wHf": 6899, "nxtw": 6900, "xnm": 6901, "sAnHm": 6902, "wnDwj": 6903, "ar": 6904, "swrd": 6905, "HAbi": 6906, "ji": 6907, "mnwt": 6908, "wwy": 6909, "DrjDrj": 6910, "HTr": 6911, "mxrw": 6912, "zp": 6913, "Hs": 6914, "wnH": 6915, "nan": 6916, "sTAm": 6917, "gAygA": 6918, "Tr": 6919, "ms": 6920, "stnw": 6921, "Hzy": 6922, "Htpw": 6923, "maDAy": 6924, "xfy": 6925, "msv": 6926, "wjAwjA": 6927, "rmj": 6928, "sax": 6929, "sAxw": 6930, "Apdw": 6931, "ybr": 6932, "HAD": 6933, "swsx": 6934, "qbw": 6935, "wbD": 6936, "pAj": 6937, "zwnu": 6938, "mjj": 6939, "wpd": 6940, "kkn": 6941, "bHt": 6942, "brj": 6943, "bAkA": 6944, "nwy": 6945, "sAmm": 6946, "sxs": 6947, "psf": 6948, "nAwt": 6949, "awA": 6950, "wsn": 6951, "sby": 6952, "aD": 6953, "bmbw": 6954, "bAnn": 6955, "xAytj": 6956, "bxnj": 6957, "kki": 6958, "r": 6959, "wAsi": 6960, "jwnA": 6961, "SAss": 6962, "mDAb": 6963, "mrkb": 6964, "nsbw": 6965, "kms": 6966, "sAxt": 6967, "aAgA": 6968, "mnqA": 6969, "tAw": 6970, "SmSm": 6971, "wAA": 6972, "rm": 6973, "sgrj": 6974, "rwhA": 6975, "jmi": 6976, "gbt": 6977, "sdb": 6978, "SdHw": 6979, "kAjry": 6980, "bjb": 6981, "bjbj": 6982, "ASn": 6983, "d": 6984, "adj": 6985, "Tnn": 6986, "mrqt": 6987, "nsrsr": 6988, "Hzzj": 6989, "abxn": 6990, "pSS": 6991, "jshA": 6992, "rmjw": 6993, "smt": 6994, "bAdw": 6995, "nmjt": 6996, "Hrrwt": 6997, "npH": 6998, "nHH": 6999, "zhAi": 7000, "smAa": 7001, "tfA": 7002, "majA": 7003, "AaanA": 7004, "ppjj": 7005, "HAs": 7006, "yab": 7007, "bjwn": 7008, "ktw": 7009, "fj": 7010, "ngAb": 7011, "sxnti": 7012, "mnbt": 7013, "bgAw": 7014, "Haw": 7015, "AhA": 7016, "szA": 7017, "stkn": 7018, "sna": 7019, "Hns": 7020, "qdfy": 7021, "sXp": 7022, "jSt": 7023, "mAt": 7024, "Saj": 7025, "Hjtjw": 7026, "mAf": 7027, "jqH": 7028, "sqAi": 7029, "bnrt": 7030, "st": 7031, "fnn": 7032, "dnjt": 7033, "Vb": 7034, "maj": 7035, "sg": 7036, "xrsH": 7037, "rmni": 7038, "jyj": 7039, "twpl": 7040, "jAwtjw": 7041, "smgw": 7042, "sHn": 7043, "snnwt": 7044, "mstp": 7045, "Dsrj": 7046, "Sjw": 7047, "npn": 7048, "gnnw": 7049, "sjbA": 7050, "hjw": 7051, "naydj": 7052, "jtHwj": 7053, "xAjb": 7054, "Hwtf": 7055, "saqA": 7056, "Twrj": 7057, "fi": 7058, "kpw": 7059}