{"<pad>": 0, "<unk>": 1, "irw": 2, "wnb": 3, "kr": 4, "rsu": 5, "dqA": 6, "twg": 7, "Adm": 8, "hwr": 9, "Ahy": 10, "jmny": 11, "sAbw": 12, "smHy": 13, "bny": 14, "Xajw": 15, "tpt": 16, "myt": 17, "Asby": 18, "irny": 19, "txy": 20, "yns": 21, "dhyn": 22, "nTry": 23, "zAA": 24, "krkrtbi": 25, "jarw": 26, "jAA": 27, "sAqH": 28, "Ahw": 29, "HDb": 30, "Sgnn": 31, "sbjk": 32, "HAfy": 33, "Hqr": 34, "iSd": 35, "kss": 36, "wa": 37, "sfxw": 38, "rDj": 39, "aSaS": 40, "ynktwn": 41, "Sfdy": 42, "Hws": 43, "sbtty": 44, "mai": 45, "Aty": 46, "qAri": 47, "wtr": 48, "sSs": 49, "sAwty": 50, "hnm": 51, "tky": 52, "HTr": 53, "Hsr": 54, "wASS": 55, "sbjn": 56, "Hwsw": 57, "mjr": 58, "nDry": 59, "Hjm": 60, "sqAi": 61, "wAjT": 62, "Hpj": 63, "rtHty": 64, "rwSA": 65, "axy": 66, "zSi": 67, "qwHn": 68, "dnrg": 69, "rsj": 70, "sndm": 71, "pXry": 72, "pDD": 73, "nbw": 74, "hbny": 75, "bgAw": 76, "jAw": 77, "TAmy": 78, "hAd": 79, "ibw": 80, "nxp": 81, "mHtt": 82, "nApAAty": 83, "swy": 84, "TknS": 85, "jzkn": 86, "mgrt": 87, "kAs": 88, "DfDf": 89, "brs": 90, "subst": 91, "mntt": 92, "srH": 93, "Hzt": 94, "bbw": 95, "hAnn": 96, "qmjA": 97, "jaf": 98, "Hnwtj": 99, "wtjw": 100, "gmy": 101, "pHD": 102, "msdj": 103, "ydu": 104, "tnim": 105, "Dsw": 106, "aHaw": 107, "jtm": 108, "wsjr": 109, "HAgg": 110, "jmby": 111, "mabAy": 112, "aHi": 113, "znh": 114, "niwy": 115, "afAj": 116, "bjAy": 117, "jArr": 118, "Hfn": 119, "kAbA": 120, "Abdj": 121, "yi": 122, "jAjr": 123, "bniA": 124, "hAt": 125, "Xma": 126, "jsjy": 127, "njs": 128, "krmt": 129, "Abxx": 130, "msxt": 131, "aApp": 132, "rpkt": 133, "sbg": 134, "Hrrwt": 135, "fiT": 136, "Arw": 137, "mnww": 138, "rArAmw": 139, "wHmy": 140, "ybr": 141, "tmA": 142, "wAs": 143, "sbiw": 144, "arwt": 145, "twT": 146, "bjj": 147, "bwi": 148, "Hawjy": 149, "swg": 150, "jbr": 151, "Stt": 152, "Hj": 153, "Sri": 154, "gwT": 155, "rti": 156, "xtTn": 157, "tAnn": 158, "Drrm": 159, "bAbAw": 160, "mnd": 161, "nHrwj": 162, "xntS": 163, "wps": 164, "kyky": 165, "Sa": 166, "Hnsk": 167, "mkbr": 168, "qbH": 169, "dwr": 170, "tgA": 171, "qwqw": 172, "jAfAf": 173, "dmt": 174, "wSwS": 175, "maq": 176, "srn": 177, "msms": 178, "ypwy": 179, "pq": 180, "Dhw": 181, "jpy": 182, "kxnt": 183, "nswy": 184, "wnfj": 185, "mjA": 186, "ftt": 187, "Aq": 188, "Hni": 189, "pS": 190, "jrA": 191, "nbpl": 192, "zbT": 193, "pqA": 194, "xsbb": 195, "zTtt": 196, "aSAw": 197, "tntj": 198, "rbw": 199, "sHri": 200, "Xnnj": 201, "mstnw": 202, "Hry": 203, "TAr": 204, "nsty": 205, "aany": 206, "jhmw": 207, "sxwy": 208, "St": 209, "knw": 210, "Agbj": 211, "nDD": 212, "wnsj": 213, "nwT": 214, "bHsw": 215, "Htpw": 216, "msDm": 217, "Hmty": 218, "xsAy": 219, "swS": 220, "rjwhA": 221, "mAwt": 222, "mxrm": 223, "jdb": 224, "qw": 225, "ymm": 226, "ssbt": 227, "xwjt": 228, "fAy": 229, "tbj": 230, "mAwy": 231, "Sar": 232, "Xrj": 233, "xrpw": 234, "atxy": 235, "wawf": 236, "mgg": 237, "Hnbw": 238, "wDw": 239, "sHAp": 240, "Ht": 241, "xmT": 242, "dgAm": 243, "Dfd": 244, "Hmq": 245, "knkn": 246, "Dbb": 247, "isHm": 248, "Axr": 249, "mni": 250, "kmj": 251, "qDwD": 252, "rnmm": 253, "HwtA": 254, "mdAm": 255, "jspA": 256, "dsj": 257, "pAjs": 258, "Asx": 259, "Sft": 260, "amg": 261, "ikS": 262, "rSu": 263, "tjm": 264, "mndf": 265, "rkjw": 266, "swxA": 267, "ym": 268, "TAs": 269, "niwty": 270, "SpA": 271, "xtyw": 272, "rbA": 273, "yk": 274, "gnw": 275, "gju": 276, "tjkSr": 277, "SAnS": 278, "pAu": 279, "Srd": 280, "rww": 281, "Aaa": 282, "thwh": 283, "Hnp": 284, "ngy": 285, "djf": 286, "Smm": 287, "qa": 288, "nAb": 289, "mskA": 290, "zSS": 291, "Apt": 292, "ssj": 293, "nssq": 294, "jbjw": 295, "btnw": 296, "qhwj": 297, "dgAj": 298, "wrbg": 299, "DSr": 300, "sTty": 301, "iAb": 302, "kwi": 303, "bti": 304, "snwy": 305, "mity": 306, "mstA": 307, "xpr": 308, "jdd": 309, "rxtj": 310, "whb": 311, "jpjp": 312, "bqs": 313, "rSw": 314, "wnjwn": 315, "imAx": 316, "jnHAs": 317, "wvi": 318, "wDAy": 319, "sTj": 320, "Trm": 321, "hwT": 322, "Sqrqby": 323, "Ar": 324, "rbgr": 325, "mnsA": 326, "nwj": 327, "whm": 328, "mi": 329, "xjxj": 330, "xpSj": 331, "Si": 332, "idnw": 333, "wAx": 334, "mnT": 335, "mDa": 336, "jjw": 337, "sid": 338, "du": 339, "dmjr": 340, "nTrw": 341, "nDd": 342, "whr": 343, "Hat": 344, "Dbg": 345, "wnD": 346, "qwq": 347, "Hsj": 348, "san": 349, "Dws": 350, "SSt": 351, "mAArw": 352, "Smt": 353, "xAw": 354, "DAA": 355, "aS": 356, "kmnw": 357, "sX": 358, "rqw": 359, "Adw": 360, "wrm": 361, "sww": 362, "jrAw": 363, "sbqj": 364, "pA": 365, "sbn": 366, "jnT": 367, "Abu": 368, "swx": 369, "bdr": 370, "ks": 371, "DAy": 372, "STyt": 373, "Hsbw": 374, "mdw": 375, "jnk": 376, "swdn": 377, "rpw": 378, "msDd": 379, "psmvk": 380, "jws": 381, "ptry": 382, "tkt": 383, "kz": 384, "isAxry": 385, "sArd": 386, "xjy": 387, "Hjw": 388, "qrHt": 389, "prdtxy": 390, "aAf": 391, "ztj": 392, "wrk": 393, "rsn": 394, "nbDbD": 395, "Hsm": 396, "mjnyw": 397, "pypw": 398, "jaDm": 399, "jnb": 400, "ktktj": 401, "rry": 402, "sqdw": 403, "arq": 404, "mSnT": 405, "inpw": 406, "Hy": 407, "ma": 408, "mrk": 409, "HmAy": 410, "nrH": 411, "mAf": 412, "sdgi": 413, "waty": 414, "kSjw": 415, "ngAfj": 416, "pAyw": 417, "jmnt": 418, "TmAm": 419, "Hb": 420, "aSw": 421, "jwpw": 422, "SnS": 423, "snDt": 424, "tkm": 425, "mytn": 426, "bl": 427, "pXX": 428, "ind": 429, "mqar": 430, "nxtw": 431, "jwt": 432, "Ahwt": 433, "qd": 434, "hf": 435, "hhj": 436, "drt": 437, "zAi": 438, "pwpn": 439, "sst": 440, "pHn": 441, "maH": 442, "qfA": 443, "sbb": 444, "agn": 445, "ptjrA": 446, "Hbnnt": 447, "nHrH": 448, "Abi": 449, "mar": 450, "xwj": 451, "npr": 452, "kbn": 453, "gbbtw": 454, "dbHw": 455, "hAr": 456, "xwns": 457, "Tti": 458, "mnjw": 459, "bjt": 460, "sanxy": 461, "ssA": 462, "mAAt": 463, "Tni": 464, "mrS": 465, "mnqA": 466, "nDA": 467, "msAD": 468, "gsy": 469, "wA": 470, "jmA": 471, "xty": 472, "THHwt": 473, "anxj": 474, "SASA": 475, "HsA": 476, "mTA": 477, "mahwj": 478, "mAjw": 479, "mjH": 480, "anH": 481, "pAt": 482, "jss": 483, "pHwj": 484, "DAhA": 485, "TAzj": 486, "Hk": 487, "qAmq": 488, "ikm": 489, "swbx": 490, "nswt": 491, "dAiw": 492, "HDnHDn": 493, "wtw": 494, "tjkj": 495, "Tjrr": 496, "mjk": 497, "jpf": 498, "kdu": 499, "pnpny": 500, "Hai": 501, "xbtj": 502, "Tg": 503, "SdA": 504, "DAis": 505, "Tnnt": 506, "ikmw": 507, "ntkrty": 508, "itr": 509, "is": 510, "snrt": 511, "bwpwy": 512, "tpj": 513, "xnmsw": 514, "iXA": 515, "ptiay": 516, "ntf": 517, "tr": 518, "nan": 519, "hpn": 520, "sSa": 521, "Ahb": 522, "sHDn": 523, "msx": 524, "iqd": 525, "Xkrt": 526, "jhAb": 527, "jrm": 528, "xbsy": 529, "wbnn": 530, "kmy": 531, "jhj": 532, "wbD": 533, "sm": 534, "Hbb": 535, "swnx": 536, "mhA": 537, "qaA": 538, "Aywr": 539, "br": 540, "sbxn": 541, "hjn": 542, "Xni": 543, "jzzj": 544, "iSf": 545, "tjwj": 546, "iAd": 547, "swab": 548, "zAS": 549, "waa": 550, "psDj": 551, "sspd": 552, "Hmm": 553, "marwgnA": 554, "zTw": 555, "sqqt": 556, "app": 557, "sif": 558, "nHtA": 559, "sbtt": 560, "jmy": 561, "np": 562, "Sfy": 563, "HAww": 564, "Hwtj": 565, "bjm": 566, "mSp": 567, "Hf": 568, "aXnwty": 569, "SAasx": 570, "gAHsj": 571, "Ama": 572, "pky": 573, "Sai": 574, "nHmm": 575, "plt": 576, "gAj": 577, "mAxwt": 578, "sxp": 579, "sXp": 580, "Daam": 581, "znfws": 582, "iAxw": 583, "zSn": 584, "nfrw": 585, "npA": 586, "bt": 587, "mAD": 588, "pti": 589, "Hjtjw": 590, "Spsjt": 591, "xAx": 592, "mXAw": 593, "xDw": 594, "StAy": 595, "wSAwSA": 596, "qratm": 597, "zbn": 598, "jfj": 599, "rdw": 600, "HmAw": 601, "sfy": 602, "jtfA": 603, "nxAx": 604, "jsA": 605, "mnwy": 606, "qnbw": 607, "nhzi": 608, "swxt": 609, "sTt": 610, "jTr": 611, "nti": 612, "psg": 613, "ipt": 614, "wjAwjA": 615, "xASA": 616, "Dww": 617, "hbi": 618, "szn": 619, "jshA": 620, "mhrn": 621, "bss": 622, "jwkjw": 623, "iTT": 624, "pAy": 625, "jzs": 626, "Snp": 627, "txr": 628, "npl": 629, "xSb": 630, "snHm": 631, "ksm": 632, "snk": 633, "nHa": 634, "wxAwy": 635, "aDdw": 636, "pyiAy": 637, "trj": 638, "qdfA": 639, "jnr": 640, "kjwy": 641, "nfrs": 642, "mxwj": 643, "Hnkz": 644, "tAxb": 645, "HTnn": 646, "hr": 647, "wnn": 648, "zTz": 649, "TAA": 650, "xaj": 651, "yan": 652, "iwH": 653, "ispw": 654, "sbi": 655, "byA": 656, "skp": 657, "HnTi": 658, "ktjA": 659, "mrm": 660, "sbAiw": 661, "Aky": 662, "xnwt": 663, "nqa": 664, "mkw": 665, "fntj": 666, "Hsq": 667, "sngr": 668, "rwi": 669, "hd": 670, "iny": 671, "Dndr": 672, "Tsm": 673, "Tnr": 674, "jmk": 675, "sxxts": 676, "ikATi": 677, "jsh": 678, "tjHnw": 679, "smar": 680, "nxjw": 681, "Ajw": 682, "mAat": 683, "sHrjw": 684, "Dba": 685, "nsAA": 686, "rAm": 687, "knjw": 688, "bSb": 689, "HApwty": 690, "twx": 691, "Sws": 692, "pHry": 693, "aft": 694, "qAA": 695, "jpwy": 696, "xAns": 697, "wyn": 698, "STy": 699, "wnzj": 700, "tbt": 701, "aq": 702, "Stb": 703, "khAbw": 704, "sqb": 705, "SAqA": 706, "wty": 707, "astrt": 708, "miw": 709, "wxyx": 710, "kmAd": 711, "Dp": 712, "AqA": 713, "jdj": 714, "wkw": 715, "qrt": 716, "sDwi": 717, "mskt": 718, "jmnj": 719, "AA": 720, "jndb": 721, "wDAi": 722, "sDHy": 723, "Xpn": 724, "rhA": 725, "amAm": 726, "sSy": 727, "fkA": 728, "sTr": 729, "srD": 730, "jmj": 731, "msntjw": 732, "sxdi": 733, "txb": 734, "kHA": 735, "sHwA": 736, "Tmy": 737, "bj": 738, "XsA": 739, "HAwt": 740, "sam": 741, "HAaa": 742, "gAb": 743, "hrp": 744, "kft": 745, "SSj": 746, "mnfr": 747, "jnrT": 748, "Htpwt": 749, "rky": 750, "tAHw": 751, "khbw": 752, "Abd": 753, "iwy": 754, "swAgA": 755, "xnmti": 756, "swj": 757, "jkj": 758, "wDa": 759, "xAswt": 760, "xmx": 761, "mstAw": 762, "bArst": 763, "sskA": 764, "kAwty": 765, "plj": 766, "mabA": 767, "txj": 768, "skty": 769, "nqp": 770, "nhjs": 771, "wSm": 772, "ha": 773, "snhqrg": 774, "biAity": 775, "jwrr": 776, "Hwraw": 777, "Diw": 778, "htA": 779, "twy": 780, "bntyw": 781, "mTpr": 782, "drw": 783, "jtH": 784, "sHA": 785, "ngng": 786, "Hfnn": 787, "htht": 788, "kAi": 789, "jAjrt": 790, "sxdy": 791, "jfdj": 792, "HmAgA": 793, "jnqA": 794, "gAsf": 795, "tjSps": 796, "sHt": 797, "snfrw": 798, "wAD": 799, "sxAs": 800, "StAw": 801, "rdi": 802, "jmAxt": 803, "pt": 804, "rwty": 805, "snyj": 806, "SAyt": 807, "tnbX": 808, "spdD": 809, "sfi": 810, "HAw": 811, "bSj": 812, "pdd": 813, "tmrgn": 814, "Htpy": 815, "Ttn": 816, "bjnw": 817, "bwrr": 818, "swtj": 819, "Hyy": 820, "pwTA": 821, "sHwtm": 822, "sby": 823, "qdf": 824, "nbH": 825, "nqrqr": 826, "Snsw": 827, "Afj": 828, "adn": 829, "pnj": 830, "HAD": 831, "Dpr": 832, "msyw": 833, "tbhA": 834, "ynq": 835, "smd": 836, "bity": 837, "Hri": 838, "tHn": 839, "dAr": 840, "Awt": 841, "wjn": 842, "nwtwt": 843, "jxjx": 844, "ntAj": 845, "HDr": 846, "Sptj": 847, "HyA": 848, "Tndu": 849, "whAb": 850, "jArn": 851, "tAtA": 852, "rHbw": 853, "rw": 854, "xntjw": 855, "msw": 856, "aDw": 857, "jab": 858, "Tntm": 859, "swxAx": 860, "kt": 861, "Spn": 862, "nfj": 863, "isj": 864, "whAs": 865, "tAry": 866, "Tmsw": 867, "rmA": 868, "hDy": 869, "Spw": 870, "zanx": 871, "irkt": 872, "bdydy": 873, "qnq": 874, "gbgb": 875, "twHw": 876, "abH": 877, "jrhb": 878, "jnwn": 879, "Tsw": 880, "mhAr": 881, "wADt": 882, "Xdi": 883, "wbny": 884, "ATj": 885, "smnw": 886, "Axt": 887, "Tny": 888, "AjT": 889, "bAA": 890, "pxt": 891, "pHw": 892, "HDj": 893, "Hsbp": 894, "mjam": 895, "sSzp": 896, "sjnn": 897, "qmA": 898, "jAxw": 899, "wSbty": 900, "ndbdb": 901, "gmHw": 902, "itw": 903, "spw": 904, "gsp": 905, "snxi": 906, "prjs": 907, "TAwt": 908, "xpri": 909, "gsmt": 910, "ssnj": 911, "rri": 912, "axw": 913, "sin": 914, "jmAw": 915, "fAi": 916, "whAy": 917, "kiA": 918, "nx": 919, "sanx": 920, "zXr": 921, "hAtj": 922, "bkk": 923, "DArA": 924, "wsfi": 925, "mkAtj": 926, "ttj": 927, "xnd": 928, "swhi": 929, "rTnw": 930, "xpS": 931, "sxA": 932, "Sfnw": 933, "ppi": 934, "bx": 935, "hapy": 936, "qrj": 937, "pz": 938, "wafw": 939, "sSnq": 940, "mj": 941, "jmHD": 942, "nbyt": 943, "sAry": 944, "DrD": 945, "nnjw": 946, "sTAw": 947, "dnin": 948, "mAg": 949, "wara": 950, "aam": 951, "jdH": 952, "jAs": 953, "Dram": 954, "sxry": 955, "Dra": 956, "agni": 957, "zxz": 958, "sbk": 959, "Haawy": 960, "qrrty": 961, "jqr": 962, "tAH": 963, "krbr": 964, "Arwtibw": 965, "mAwi": 966, "xay": 967, "Ddtw": 968, "Smai": 969, "amj": 970, "kpnA": 971, "wAS": 972, "Tbw": 973, "hrt": 974, "qnbt": 975, "smy": 976, "wfjH": 977, "nqdd": 978, "afj": 979, "mjnA": 980, "nAt": 981, "Hwwt": 982, "DAw": 983, "pXrw": 984, "hdd": 985, "Hapj": 986, "SAbd": 987, "twjA": 988, "wnz": 989, "Smjw": 990, "rhd": 991, "wnp": 992, "tsn": 993, "nwr": 994, "kmA": 995, "nTs": 996, "ngAb": 997, "znHm": 998, "xwD": 999, "Thi": 1000, "XAXA": 1001, "abAbA": 1002, "bHni": 1003, "hAbu": 1004, "wstirkni": 1005, "Smsi": 1006, "ntwjw": 1007, "jara": 1008, "iwA": 1009, "iHiH": 1010, "jnjn": 1011, "snA": 1012, "sbt": 1013, "zAT": 1014, "wAd": 1015, "iTr": 1016, "mjAz": 1017, "nwHH": 1018, "ygdy": 1019, "srfy": 1020, "qAwr": 1021, "dgAy": 1022, "SnDt": 1023, "gaga": 1024, "sDAm": 1025, "tbA": 1026, "Hwt": 1027, "whnj": 1028, "ipip": 1029, "Srdn": 1030, "hAi": 1031, "mgsp": 1032, "sDf": 1033, "Snyt": 1034, "sgn": 1035, "baTn": 1036, "sSmw": 1037, "rDjnj": 1038, "mx": 1039, "sjn": 1040, "tnt": 1041, "dSi": 1042, "xnDr": 1043, "Xrr": 1044, "znH": 1045, "sXA": 1046, "wHs": 1047, "xnww": 1048, "xnrD": 1049, "szwr": 1050, "snHw": 1051, "snny": 1052, "ktk": 1053, "smAmw": 1054, "Trn": 1055, "bnrt": 1056, "sqAH": 1057, "Ddm": 1058, "rg": 1059, "TAzz": 1060, "Sbn": 1061, "sAiA": 1062, "sHm": 1063, "tww": 1064, "Sknsrhtw": 1065, "Awmw": 1066, "wDHj": 1067, "q": 1068, "antj": 1069, "Hbsj": 1070, "anar": 1071, "yy": 1072, "nDmt": 1073, "xxwj": 1074, "wsfA": 1075, "dz": 1076, "nhn": 1077, "jjr": 1078, "Ddt": 1079, "t": 1080, "rxt": 1081, "aAgs": 1082, "Dwy": 1083, "sxwsi": 1084, "qry": 1085, "wbn": 1086, "wDrT": 1087, "qAjA": 1088, "krk": 1089, "mzH": 1090, "rmnj": 1091, "mttj": 1092, "HAyw": 1093, "twri": 1094, "xrt": 1095, "rxs": 1096, "hArpwy": 1097, "hArpw": 1098, "mSrA": 1099, "gbi": 1100, "mAq": 1101, "ssH": 1102, "jdx": 1103, "sxAx": 1104, "jwhA": 1105, "pDw": 1106, "bns": 1107, "mHws": 1108, "jmAA": 1109, "mrqDn": 1110, "Sma": 1111, "tqf": 1112, "bAd": 1113, "nmmj": 1114, "kSj": 1115, "Hzz": 1116, "sqdj": 1117, "nmsy": 1118, "nDrw": 1119, "wwy": 1120, "fnxw": 1121, "swti": 1122, "aDmm": 1123, "ATt": 1124, "wDD": 1125, "HAbi": 1126, "xfAA": 1127, "qaHj": 1128, "AmjA": 1129, "rmt": 1130, "jwj": 1131, "wSAm": 1132, "mnx": 1133, "pgAjs": 1134, "nAhA": 1135, "Ad": 1136, "jknw": 1137, "tkrbr": 1138, "jAaS": 1139, "qf": 1140, "gbb": 1141, "sp": 1142, "snjw": 1143, "xAsww": 1144, "Twt": 1145, "pri": 1146, "rH": 1147, "iwT": 1148, "wbdy": 1149, "srs": 1150, "tank": 1151, "Hna": 1152, "zAt": 1153, "aky": 1154, "npD": 1155, "rtsSk": 1156, "snDr": 1157, "bxnw": 1158, "tpi": 1159, "bAkA": 1160, "wAwt": 1161, "sg": 1162, "fnn": 1163, "Hzy": 1164, "jSr": 1165, "inw": 1166, "isi": 1167, "Ddd": 1168, "njw": 1169, "Tt": 1170, "nmriw": 1171, "jsT": 1172, "wtywt": 1173, "TtTt": 1174, "bi": 1175, "xwy": 1176, "Db": 1177, "wgp": 1178, "rSnw": 1179, "Srj": 1180, "antjw": 1181, "wTz": 1182, "nss": 1183, "sjq": 1184, "xwd": 1185, "nTx": 1186, "ThA": 1187, "wbg": 1188, "nHrj": 1189, "z": 1190, "wSn": 1191, "gbgby": 1192, "mhh": 1193, "mxmx": 1194, "zSA": 1195, "wSt": 1196, "rwSww": 1197, "rmw": 1198, "bnj": 1199, "papa": 1200, "HdD": 1201, "gg": 1202, "AmA": 1203, "axxA": 1204, "imnt": 1205, "pApA": 1206, "xrS": 1207, "sjzy": 1208, "Hba": 1209, "Snay": 1210, "jsjsj": 1211, "wj": 1212, "zAtw": 1213, "ahr": 1214, "jHm": 1215, "wDH": 1216, "anxy": 1217, "sbT": 1218, "nHsj": 1219, "ddj": 1220, "wADy": 1221, "sqn": 1222, "hAf": 1223, "jaS": 1224, "nsp": 1225, "Awj": 1226, "siwH": 1227, "xsr": 1228, "nDz": 1229, "Tz": 1230, "tAf": 1231, "jpn": 1232, "ini": 1233, "XT": 1234, "Dz": 1235, "sDr": 1236, "dxw": 1237, "mXtw": 1238, "ai": 1239, "xrr": 1240, "az": 1241, "mnqw": 1242, "Hkwn": 1243, "mrwt": 1244, "sdAdA": 1245, "mxt": 1246, "ksnDm": 1247, "imn": 1248, "nXnm": 1249, "jwsw": 1250, "tktk": 1251, "why": 1252, "twpl": 1253, "Hby": 1254, "nbHw": 1255, "agAy": 1256, "wDAw": 1257, "sdgAw": 1258, "rmj": 1259, "ASr": 1260, "jwg": 1261, "Tr": 1262, "Hknkn": 1263, "gmj": 1264, "syw": 1265, "sfT": 1266, "irrx": 1267, "zwnT": 1268, "Hnf": 1269, "Xsi": 1270, "sTAs": 1271, "bdbd": 1272, "anay": 1273, "zkrj": 1274, "rhAn": 1275, "HAtjw": 1276, "mA": 1277, "HkAht": 1278, "mjnb": 1279, "naa": 1280, "jki": 1281, "maxrma": 1282, "wHmm": 1283, "Agb": 1284, "sHbi": 1285, "xpx": 1286, "bH": 1287, "pjA": 1288, "rdn": 1289, "xbA": 1290, "xry": 1291, "gfw": 1292, "sTs": 1293, "DAhj": 1294, "bjwk": 1295, "ishb": 1296, "pwy": 1297, "iAbi": 1298, "xnrt": 1299, "iwnxwr": 1300, "qrw": 1301, "aAh": 1302, "jdnpl": 1303, "Hddy": 1304, "szf": 1305, "sSwA": 1306, "ptn": 1307, "matn": 1308, "sb": 1309, "pp": 1310, "ssT": 1311, "idr": 1312, "ananxj": 1313, "jmntw": 1314, "bdj": 1315, "DfD": 1316, "SAbwti": 1317, "nmr": 1318, "wdj": 1319, "jbx": 1320, "mXA": 1321, "pHty": 1322, "HTyn": 1323, "zrwx": 1324, "ff": 1325, "nswyt": 1326, "mAnw": 1327, "bSw": 1328, "ATi": 1329, "dxj": 1330, "fqA": 1331, "jsmA": 1332, "nSy": 1333, "hp": 1334, "baba": 1335, "sHsH": 1336, "krt": 1337, "jAi": 1338, "jaA": 1339, "gAS": 1340, "znk": 1341, "sjTn": 1342, "rby": 1343, "dny": 1344, "DAm": 1345, "Hatj": 1346, "hry": 1347, "nhpw": 1348, "Saw": 1349, "hwt": 1350, "qAn": 1351, "wdb": 1352, "ksi": 1353, "gD": 1354, "Ddnn": 1355, "kAS": 1356, "snfxfx": 1357, "xAwi": 1358, "nHd": 1359, "TwA": 1360, "gAHy": 1361, "wz": 1362, "sAH": 1363, "sgbyn": 1364, "njDw": 1365, "Tnfj": 1366, "bnnt": 1367, "srqy": 1368, "TAt": 1369, "stfy": 1370, "aDaD": 1371, "jnd": 1372, "jtt": 1373, "nbj": 1374, "nAry": 1375, "Dadd": 1376, "whAsj": 1377, "k": 1378, "pSks": 1379, "midA": 1380, "ASb": 1381, "kmmr": 1382, "HDtj": 1383, "aSg": 1384, "rwh": 1385, "jv": 1386, "spp": 1387, "jAmA": 1388, "xftt": 1389, "jrs": 1390, "Tkrm": 1391, "Xnmw": 1392, "Hapi": 1393, "tAm": 1394, "rjwd": 1395, "TmHy": 1396, "Tnn": 1397, "Hnrg": 1398, "jSp": 1399, "Xzj": 1400, "sjrAtj": 1401, "SAq": 1402, "jmAx": 1403, "rwD": 1404, "TAty": 1405, "nwi": 1406, "qtm": 1407, "kfj": 1408, "jAwj": 1409, "nwb": 1410, "rAHw": 1411, "zpi": 1412, "tn": 1413, "ywt": 1414, "dri": 1415, "axn": 1416, "jxnm": 1417, "mntwf": 1418, "jdt": 1419, "whi": 1420, "bnu": 1421, "bAj": 1422, "nT": 1423, "htw": 1424, "bAgs": 1425, "wsn": 1426, "ntAi": 1427, "sxrp": 1428, "sHai": 1429, "Tstn": 1430, "Hnw": 1431, "grb": 1432, "HjHj": 1433, "DAty": 1434, "jtw": 1435, "wD": 1436, "gmw": 1437, "nwH": 1438, "Xsj": 1439, "awy": 1440, "Dprtj": 1441, "dn": 1442, "xAt": 1443, "Smbr": 1444, "ininnA": 1445, "hnnj": 1446, "Snj": 1447, "gHsA": 1448, "gns": 1449, "gAgAwj": 1450, "Htrt": 1451, "jrmj": 1452, "ffj": 1453, "pr": 1454, "tjsw": 1455, "ty": 1456, "Htjs": 1457, "Srgt": 1458, "anwnA": 1459, "saba": 1460, "tAyw": 1461, "wv": 1462, "Xt": 1463, "njAj": 1464, "bk": 1465, "mntf": 1466, "swDA": 1467, "iHa": 1468, "sbd": 1469, "tj": 1470, "rbty": 1471, "bgAy": 1472, "xAa": 1473, "njnkntkSr": 1474, "mry": 1475, "zSw": 1476, "iab": 1477, "sXrr": 1478, "amAw": 1479, "DHA": 1480, "ynam": 1481, "pwj": 1482, "aHb": 1483, "bd": 1484, "kAA": 1485, "swmt": 1486, "inrk": 1487, "Tbb": 1488, "pwt": 1489, "pAwtjw": 1490, "dgw": 1491, "Axtj": 1492, "swnwn": 1493, "wm": 1494, "pwjw": 1495, "Tntt": 1496, "HrS": 1497, "jsdn": 1498, "jAx": 1499, "krr": 1500, "mDAb": 1501, "Xz": 1502, "prwj": 1503, "bhA": 1504, "zmA": 1505, "TATA": 1506, "mhi": 1507, "inH": 1508, "Asb": 1509, "ikn": 1510, "sswnu": 1511, "xnp": 1512, "THH": 1513, "mSa": 1514, "jAtj": 1515, "DHwty": 1516, "whs": 1517, "swnw": 1518, "nxnm": 1519, "Hryw": 1520, "spHw": 1521, "jnH": 1522, "DwDw": 1523, "tnmm": 1524, "nwAwA": 1525, "dwi": 1526, "SrSr": 1527, "ttrkiA": 1528, "Abdw": 1529, "rdHw": 1530, "v": 1531, "nwDw": 1532, "pHd": 1533, "ktt": 1534, "HTT": 1535, "zwf": 1536, "sSw": 1537, "wxd": 1538, "Ttt": 1539, "grg": 1540, "kmry": 1541, "srA": 1542, "bAH": 1543, "bb": 1544, "qAr": 1545, "psS": 1546, "wsrw": 1547, "md": 1548, "pf": 1549, "msxA": 1550, "hbjw": 1551, "swgs": 1552, "wvH": 1553, "HnT": 1554, "sAqA": 1555, "ndy": 1556, "whnn": 1557, "iwnr": 1558, "mswt": 1559, "wAgS": 1560, "bzn": 1561, "tnpl": 1562, "DdT": 1563, "xsf": 1564, "Dab": 1565, "pAj": 1566, "sndw": 1567, "mHw": 1568, "iTi": 1569, "sjsj": 1570, "jb": 1571, "thh": 1572, "sqnn": 1573, "pAvy": 1574, "fky": 1575, "nDdDd": 1576, "wri": 1577, "mrqt": 1578, "makA": 1579, "Aaanj": 1580, "thm": 1581, "Smr": 1582, "wrl": 1583, "Thm": 1584, "skn": 1585, "ssbj": 1586, "ytwt": 1587, "ngA": 1588, "didi": 1589, "tAwj": 1590, "mntk": 1591, "Dwjwj": 1592, "THsb": 1593, "fdn": 1594, "ajaj": 1595, "trmg": 1596, "sntmtm": 1597, "inmk": 1598, "jnq": 1599, "dwA": 1600, "Agsw": 1601, "maj": 1602, "mnmn": 1603, "kp": 1604, "gsgs": 1605, "zjw": 1606, "SnT": 1607, "irtyw": 1608, "hm": 1609, "sxmy": 1610, "nSnS": 1611, "sja": 1612, "jAy": 1613, "wxriA": 1614, "jdA": 1615, "knynywr": 1616, "nnn": 1617, "hnq": 1618, "nd": 1619, "ntri": 1620, "dpwy": 1621, "pa": 1622, "Awrtbi": 1623, "pzx": 1624, "xTn": 1625, "bnrnj": 1626, "pSs": 1627, "dAjw": 1628, "Xzi": 1629, "ryw": 1630, "Swbty": 1631, "Sfd": 1632, "dSA": 1633, "Sdnw": 1634, "fgn": 1635, "AHt": 1636, "jTA": 1637, "qqA": 1638, "drr": 1639, "smn": 1640, "rtjw": 1641, "Hl": 1642, "rkty": 1643, "xnm": 1644, "SAa": 1645, "xntSj": 1646, "nhw": 1647, "Hdby": 1648, "tjwjA": 1649, "xpj": 1650, "Tss": 1651, "sAXb": 1652, "kkwy": 1653, "wrt": 1654, "sjnd": 1655, "hby": 1656, "swsx": 1657, "Dfy": 1658, "dpy": 1659, "jtHw": 1660, "AHAH": 1661, "iHw": 1662, "nbs": 1663, "stxy": 1664, "mHrj": 1665, "sjwi": 1666, "snhA": 1667, "Tfrr": 1668, "xsfi": 1669, "jmjm": 1670, "dnd": 1671, "mqs": 1672, "isq": 1673, "nzw": 1674, "sXk": 1675, "HwAw": 1676, "DA": 1677, "mhAwt": 1678, "fnD": 1679, "hmT": 1680, "jmHw": 1681, "hyn": 1682, "rwjw": 1683, "mard": 1684, "sjnw": 1685, "jww": 1686, "stAH": 1687, "SATw": 1688, "sgg": 1689, "aAp": 1690, "TAtn": 1691, "pat": 1692, "nkk": 1693, "Hqrjw": 1694, "Dwjw": 1695, "nmH": 1696, "Hntj": 1697, "nxrxr": 1698, "Shr": 1699, "nsbw": 1700, "Aft": 1701, "Hnkwt": 1702, "ntt": 1703, "nAxs": 1704, "An": 1705, "Atwtw": 1706, "bDn": 1707, "tmw": 1708, "Dma": 1709, "zntw": 1710, "jbhy": 1711, "xdd": 1712, "mtrx": 1713, "djw": 1714, "jAl": 1715, "bwn": 1716, "HmAm": 1717, "ip": 1718, "jzy": 1719, "nHm": 1720, "qAhd": 1721, "smAa": 1722, "DAhy": 1723, "mnf": 1724, "mrwH": 1725, "triA": 1726, "jwrw": 1727, "TnrH": 1728, "zmz": 1729, "xsy": 1730, "mHi": 1731, "nhA": 1732, "Sbd": 1733, "Hnn": 1734, "SAi": 1735, "jmntj": 1736, "dgr": 1737, "sfnd": 1738, "sTz": 1739, "aHay": 1740, "mtAy": 1741, "rqil": 1742, "wzm": 1743, "brry": 1744, "zSp": 1745, "rwjA": 1746, "kfAt": 1747, "jnby": 1748, "Trf": 1749, "kT": 1750, "bwj": 1751, "Hqrj": 1752, "Hmw": 1753, "war": 1754, "snz": 1755, "mAfd": 1756, "watt": 1757, "AwS": 1758, "sqsn": 1759, "gT": 1760, "mxr": 1761, "spA": 1762, "sAtj": 1763, "aqAA": 1764, "iAds": 1765, "zni": 1766, "mriA": 1767, "qj": 1768, "bjb": 1769, "sAg": 1770, "rxyw": 1771, "nxx": 1772, "wTnt": 1773, "rAjs": 1774, "kfi": 1775, "zjzj": 1776, "irwt": 1777, "tyjj": 1778, "mahn": 1779, "na": 1780, "snw": 1781, "wnu": 1782, "xprw": 1783, "wnis": 1784, "mayA": 1785, "zwn": 1786, "jzn": 1787, "DAd": 1788, "sAp": 1789, "Ddfy": 1790, "pan": 1791, "swrd": 1792, "aqy": 1793, "nxs": 1794, "ppjj": 1795, "xwAw": 1796, "npd": 1797, "sjd": 1798, "nHsy": 1799, "wsf": 1800, "rwx": 1801, "jwq": 1802, "knn": 1803, "Xam": 1804, "aAw": 1805, "stXj": 1806, "Spty": 1807, "jfd": 1808, "yj": 1809, "ywpl": 1810, "znS": 1811, "nDHDH": 1812, "xra": 1813, "kjryk": 1814, "qdb": 1815, "sgb": 1816, "iAby": 1817, "twhr": 1818, "Sf": 1819, "HAty": 1820, "gAnnj": 1821, "xtp": 1822, "ag": 1823, "fdqdq": 1824, "mngbt": 1825, "arqA": 1826, "yw": 1827, "jyAj": 1828, "DApr": 1829, "SkrS": 1830, "HfD": 1831, "nam": 1832, "nxta": 1833, "gnb": 1834, "Djw": 1835, "Aaaj": 1836, "sjAd": 1837, "wbd": 1838, "Ddv": 1839, "Tkw": 1840, "bg": 1841, "rxjt": 1842, "HTAwj": 1843, "abXbX": 1844, "tjtj": 1845, "sArj": 1846, "mrd": 1847, "iAq": 1848, "wy": 1849, "iAw": 1850, "znzn": 1851, "jHa": 1852, "xsbD": 1853, "sAsw": 1854, "sd": 1855, "SAdA": 1856, "Xaa": 1857, "sAk": 1858, "paw": 1859, "HmD": 1860, "thi": 1861, "wH": 1862, "jmp": 1863, "jhb": 1864, "gfn": 1865, "bgi": 1866, "jnA": 1867, "wAi": 1868, "aDd": 1869, "qrD": 1870, "DdDd": 1871, "Sfw": 1872, "xwAsn": 1873, "HApj": 1874, "Snw": 1875, "nw": 1876, "dAi": 1877, "TTw": 1878, "itH": 1879, "jwtj": 1880, "jzi": 1881, "hdhd": 1882, "sHnw": 1883, "snfi": 1884, "sny": 1885, "Snatj": 1886, "bSd": 1887, "pAd": 1888, "SAT": 1889, "nDn": 1890, "nkjkj": 1891, "jana": 1892, "ihAyn": 1893, "msnSd": 1894, "bX": 1895, "zt": 1896, "sbnw": 1897, "mib": 1898, "qr": 1899, "pzn": 1900, "gry": 1901, "nqf": 1902, "sAxAx": 1903, "ds": 1904, "hAru": 1905, "xpn": 1906, "ssr": 1907, "wAww": 1908, "XAy": 1909, "pntn": 1910, "bnDy": 1911, "nhrty": 1912, "gAw": 1913, "bD": 1914, "irpw": 1915, "SASAa": 1916, "Xms": 1917, "bar": 1918, "mnfy": 1919, "sks": 1920, "nqdy": 1921, "tyj": 1922, "nu": 1923, "Abj": 1924, "u": 1925, "kAmn": 1926, "qdm": 1927, "Xrt": 1928, "jaawj": 1929, "T": 1930, "mST": 1931, "mkmr": 1932, "ps": 1933, "zmnnw": 1934, "bty": 1935, "znaa": 1936, "nTA": 1937, "hTra": 1938, "pxd": 1939, "sdf": 1940, "nDj": 1941, "agrtb": 1942, "zAwt": 1943, "gAgAw": 1944, "gsfn": 1945, "sSsr": 1946, "sTzi": 1947, "nngt": 1948, "tnHw": 1949, "ntnt": 1950, "yd": 1951, "wi": 1952, "jnt": 1953, "Dsrw": 1954, "psst": 1955, "hAk": 1956, "Abw": 1957, "Hmtjw": 1958, "njn": 1959, "Adp": 1960, "xtxt": 1961, "Twfy": 1962, "nf": 1963, "Hmt": 1964, "gAi": 1965, "Twfj": 1966, "drgy": 1967, "kwrSgt": 1968, "rrn": 1969, "brj": 1970, "kkwj": 1971, "tfw": 1972, "itm": 1973, "pAwtj": 1974, "nnwt": 1975, "rHr": 1976, "bpr": 1977, "mASqw": 1978, "Xnw": 1979, "Ttr": 1980, "nfw": 1981, "bjA": 1982, "Trs": 1983, "bAqA": 1984, "Snaw": 1985, "Hss": 1986, "sn": 1987, "dHt": 1988, "jwd": 1989, "bAtA": 1990, "jstn": 1991, "qnt": 1992, "kSkS": 1993, "iAA": 1994, "Spssj": 1995, "mHt": 1996, "bHz": 1997, "irm": 1998, "ktm": 1999, "nDf": 2000, "rssj": 2001, "jkzj": 2002, "irT": 2003, "whh": 2004, "inHrt": 2005, "aSjw": 2006, "iwny": 2007, "wtnty": 2008, "sksk": 2009, "nxr": 2010, "pqpq": 2011, "jnmm": 2012, "maiA": 2013, "zAn": 2014, "siqr": 2015, "Sir": 2016, "mfx": 2017, "mndm": 2018, "skm": 2019, "snxt": 2020, "jqm": 2021, "kAhA": 2022, "sdw": 2023, "Drty": 2024, "djb": 2025, "Sti": 2026, "mAgs": 2027, "SAs": 2028, "rSni": 2029, "wpl": 2030, "pSS": 2031, "mhr": 2032, "Tyw": 2033, "sdwA": 2034, "mand": 2035, "hAbwj": 2036, "fn": 2037, "Hqt": 2038, "sbjwk": 2039, "aAD": 2040, "sTp": 2041, "waw": 2042, "wDy": 2043, "rmm": 2044, "awDr": 2045, "zj": 2046, "hkj": 2047, "zmzrj": 2048, "yv": 2049, "qbwH": 2050, "nD": 2051, "qAmy": 2052, "isbr": 2053, "nSfSf": 2054, "marAsAr": 2055, "xAr": 2056, "sHwrj": 2057, "ntw": 2058, "TrH": 2059, "SHq": 2060, "swqj": 2061, "Tms": 2062, "mnn": 2063, "kk": 2064, "gHs": 2065, "sAu": 2066, "tpy": 2067, "kAfy": 2068, "dgj": 2069, "kTn": 2070, "aAgAsw": 2071, "ia": 2072, "pndn": 2073, "sSj": 2074, "Spi": 2075, "gn": 2076, "iAkb": 2077, "wjt": 2078, "Adf": 2079, "XnXni": 2080, "rkm": 2081, "Xti": 2082, "xswD": 2083, "xrstj": 2084, "apj": 2085, "sqd": 2086, "jq": 2087, "Xa": 2088, "HAdi": 2089, "aAaA": 2090, "jrkrk": 2091, "krps": 2092, "kwsr": 2093, "Hnkw": 2094, "wrnr": 2095, "sxr": 2096, "whAj": 2097, "dbA": 2098, "sxntj": 2099, "nHtm": 2100, "SAsw": 2101, "jwnw": 2102, "kwjw": 2103, "prrT": 2104, "jgg": 2105, "antA": 2106, "Ab": 2107, "Trry": 2108, "SSnq": 2109, "rsi": 2110, "ptri": 2111, "spnj": 2112, "ATpw": 2113, "sxAy": 2114, "jpl": 2115, "xfA": 2116, "zmAi": 2117, "bjk": 2118, "Dwi": 2119, "zSpl": 2120, "nTr": 2121, "H": 2122, "Xtb": 2123, "bStj": 2124, "dbw": 2125, "idy": 2126, "wHmj": 2127, "jra": 2128, "idniw": 2129, "sdgA": 2130, "Snat": 2131, "sDfAw": 2132, "xmn": 2133, "tp": 2134, "gy": 2135, "dSdS": 2136, "wAH": 2137, "jwi": 2138, "tAr": 2139, "kAhAb": 2140, "jzp": 2141, "wAtmAm": 2142, "sswnw": 2143, "maDAy": 2144, "sxwsj": 2145, "Hms": 2146, "xfd": 2147, "zjSj": 2148, "srwx": 2149, "rwDt": 2150, "nxbw": 2151, "btktk": 2152, "sfnA": 2153, "bax": 2154, "jrtj": 2155, "kAf": 2156, "nbA": 2157, "pXd": 2158, "mHnk": 2159, "jnHA": 2160, "dbH": 2161, "sbS": 2162, "Hnkt": 2163, "sAhh": 2164, "www": 2165, "inn": 2166, "sSAA": 2167, "Sntj": 2168, "pgs": 2169, "misy": 2170, "njywbn": 2171, "dpx": 2172, "mHwn": 2173, "kknm": 2174, "inqfqf": 2175, "dbdb": 2176, "biA": 2177, "aSj": 2178, "XnXn": 2179, "mnj": 2180, "rD": 2181, "ya": 2182, "jswA": 2183, "Tstj": 2184, "nq": 2185, "iAm": 2186, "msy": 2187, "kbkb": 2188, "sDmj": 2189, "mxnm": 2190, "txsj": 2191, "Dnr": 2192, "nsyt": 2193, "rfr": 2194, "Hh": 2195, "sHjH": 2196, "fnT": 2197, "nsb": 2198, "SSrm": 2199, "abAA": 2200, "mjnAj": 2201, "Sny": 2202, "rtH": 2203, "sTnw": 2204, "HAm": 2205, "qHn": 2206, "Sni": 2207, "wAsrkn": 2208, "duw": 2209, "manxjw": 2210, "rwt": 2211, "Anr": 2212, "rxy": 2213, "TAi": 2214, "tyw": 2215, "Hrs": 2216, "pDty": 2217, "jTwTw": 2218, "smsi": 2219, "wbt": 2220, "SnDw": 2221, "XawAy": 2222, "smr": 2223, "Hati": 2224, "aXnwtj": 2225, "twn": 2226, "mAd": 2227, "qmnn": 2228, "pny": 2229, "ihy": 2230, "tjH": 2231, "mHm": 2232, "sAnHm": 2233, "mTw": 2234, "wAgy": 2235, "sjAdi": 2236, "znbA": 2237, "jnbw": 2238, "anbw": 2239, "wstnj": 2240, "Ty": 2241, "anxt": 2242, "TnTn": 2243, "jntw": 2244, "mrx": 2245, "jaar": 2246, "mdt": 2247, "xnsw": 2248, "qAj": 2249, "grpt": 2250, "thr": 2251, "AsrA": 2252, "sAtA": 2253, "xsff": 2254, "najw": 2255, "inbw": 2256, "xmAA": 2257, "ast": 2258, "jnDw": 2259, "Afy": 2260, "HHtjtjsw": 2261, "fay": 2262, "dns": 2263, "sip": 2264, "nnm": 2265, "djn": 2266, "SAwA": 2267, "kfAw": 2268, "nara": 2269, "Hnwt": 2270, "anws": 2271, "rwDw": 2272, "AaanA": 2273, "spHt": 2274, "jbz": 2275, "AwA": 2276, "smw": 2277, "pjs": 2278, "rbi": 2279, "gAwA": 2280, "kpw": 2281, "xsdD": 2282, "Hrwr": 2283, "wgi": 2284, "kzi": 2285, "ipw": 2286, "nhr": 2287, "nfnfn": 2288, "jswt": 2289, "wtnw": 2290, "smnmn": 2291, "zmi": 2292, "wdp": 2293, "sDa": 2294, "jsmr": 2295, "mAyw": 2296, "idrn": 2297, "psd": 2298, "Tl": 2299, "grw": 2300, "tjnr": 2301, "xtj": 2302, "mmtj": 2303, "nDADA": 2304, "sxnS": 2305, "sHw": 2306, "TwjA": 2307, "sbqw": 2308, "qrjw": 2309, "grD": 2310, "aqaq": 2311, "baHt": 2312, "smxA": 2313, "sxz": 2314, "dq": 2315, "tbsTA": 2316, "DHwtt": 2317, "btS": 2318, "Sj": 2319, "jnti": 2320, "nHr": 2321, "nttwtj": 2322, "pnS": 2323, "jqrj": 2324, "ak": 2325, "bAkw": 2326, "xnmt": 2327, "HaDA": 2328, "wTs": 2329, "hpnn": 2330, "Trp": 2331, "prt": 2332, "tSjA": 2333, "xns": 2334, "DnDr": 2335, "nwdt": 2336, "sxnjw": 2337, "wDHw": 2338, "dgAiw": 2339, "rad": 2340, "dm": 2341, "sgr": 2342, "swAS": 2343, "dfD": 2344, "jaanj": 2345, "ipq": 2346, "Darj": 2347, "snkn": 2348, "Hnnks": 2349, "sAXbw": 2350, "xm": 2351, "gnwty": 2352, "wAHwAH": 2353, "wxAr": 2354, "wdn": 2355, "bjTtw": 2356, "itn": 2357, "bAst": 2358, "ptH": 2359, "gAHw": 2360, "jgAj": 2361, "mAiwt": 2362, "Abdww": 2363, "ni": 2364, "jwms": 2365, "mst": 2366, "aff": 2367, "mHA": 2368, "sbHw": 2369, "wfj": 2370, "mHtj": 2371, "xprS": 2372, "wAhr": 2373, "xabi": 2374, "bjtj": 2375, "xzA": 2376, "Hmn": 2377, "isf": 2378, "jyAyi": 2379, "jkA": 2380, "HAq": 2381, "bki": 2382, "tmnt": 2383, "nywnrmt": 2384, "zbi": 2385, "tiwni": 2386, "ntbw": 2387, "hpAT": 2388, "sa": 2389, "Sfdj": 2390, "apw": 2391, "wAm": 2392, "krss": 2393, "awg": 2394, "ianw": 2395, "nbdd": 2396, "gAbw": 2397, "sAwt": 2398, "mwy": 2399, "qDH": 2400, "ikt": 2401, "pAi": 2402, "Spy": 2403, "rmy": 2404, "irnAm": 2405, "aprw": 2406, "pwtrj": 2407, "Tpw": 2408, "jwApT": 2409, "tmmw": 2410, "DaDa": 2411, "XsAw": 2412, "hjw": 2413, "nTrt": 2414, "mtj": 2415, "bAby": 2416, "dAs": 2417, "DHw": 2418, "mrjj": 2419, "api": 2420, "mnhp": 2421, "HTt": 2422, "xnms": 2423, "jnnm": 2424, "ASjH": 2425, "htp": 2426, "zHzH": 2427, "qDD": 2428, "wmt": 2429, "xmxm": 2430, "jtx": 2431, "jAmAm": 2432, "ar": 2433, "Hst": 2434, "hDhD": 2435, "wrTt": 2436, "dby": 2437, "iwnw": 2438, "pit": 2439, "TmHw": 2440, "pxm": 2441, "Hjp": 2442, "tt": 2443, "snjnjw": 2444, "psDn": 2445, "nbd": 2446, "xs": 2447, "wbx": 2448, "nxi": 2449, "Tpr": 2450, "sdHr": 2451, "wnmy": 2452, "mwv": 2453, "rnj": 2454, "Hqrr": 2455, "Arr": 2456, "tjw": 2457, "sqrqr": 2458, "wtTw": 2459, "kbnj": 2460, "Tfjdn": 2461, "qrsw": 2462, "hpj": 2463, "xAwj": 2464, "aAm": 2465, "xAp": 2466, "sxtyw": 2467, "xAwty": 2468, "jAbt": 2469, "zwnj": 2470, "wrry": 2471, "mrHrt": 2472, "Tf": 2473, "nHj": 2474, "rnnwt": 2475, "hAqA": 2476, "jqw": 2477, "tjaAm": 2478, "abab": 2479, "hpA": 2480, "Dw": 2481, "Dfa": 2482, "Daq": 2483, "Tn": 2484, "rid": 2485, "rAr": 2486, "iAdy": 2487, "jbi": 2488, "qstj": 2489, "wrs": 2490, "jptntj": 2491, "bgb": 2492, "fnt": 2493, "kfn": 2494, "kkn": 2495, "hAbn": 2496, "Hns": 2497, "ny": 2498, "msdd": 2499, "knj": 2500, "sSsAw": 2501, "XtXt": 2502, "inxrtw": 2503, "sHApw": 2504, "hAA": 2505, "TnA": 2506, "bsi": 2507, "stnw": 2508, "dAg": 2509, "zbA": 2510, "smHw": 2511, "xn": 2512, "HqAt": 2513, "kDn": 2514, "ixny": 2515, "hnt": 2516, "snhprgn": 2517, "jAkm": 2518, "DAfj": 2519, "wzf": 2520, "sarw": 2521, "mHwt": 2522, "qH": 2523, "nhAA": 2524, "fnwd": 2525, "jhhy": 2526, "sHwr": 2527, "kzn": 2528, "kywy": 2529, "Aby": 2530, "TAwrw": 2531, "SAkA": 2532, "Aqw": 2533, "bjtt": 2534, "sSmi": 2535, "bsw": 2536, "rdj": 2537, "fAk": 2538, "wt": 2539, "HmA": 2540, "anty": 2541, "sgrA": 2542, "wnTr": 2543, "txsy": 2544, "sSnw": 2545, "Hpy": 2546, "SrgH": 2547, "Add": 2548, "idrm": 2549, "nhwt": 2550, "mXrw": 2551, "gnX": 2552, "Hwn": 2553, "dgy": 2554, "wjw": 2555, "kAmy": 2556, "sAbs": 2557, "xtw": 2558, "bAnn": 2559, "qtA": 2560, "ntk": 2561, "HwAHwA": 2562, "xfxf": 2563, "aDn": 2564, "hbnw": 2565, "gmA": 2566, "TApr": 2567, "mAm": 2568, "pjgAw": 2569, "bdn": 2570, "tjHw": 2571, "HArr": 2572, "xri": 2573, "nz": 2574, "Smw": 2575, "jfr": 2576, "ry": 2577, "fy": 2578, "iknw": 2579, "rmrm": 2580, "awj": 2581, "sxd": 2582, "pHr": 2583, "swr": 2584, "xnti": 2585, "stX": 2586, "smnx": 2587, "xrw": 2588, "hwS": 2589, "jDj": 2590, "swH": 2591, "knan": 2592, "Trt": 2593, "tAn": 2594, "dh": 2595, "zwr": 2596, "gAs": 2597, "Aww": 2598, "tjttjt": 2599, "wHay": 2600, "wAp": 2601, "ik": 2602, "mpsn": 2603, "yar": 2604, "tpH": 2605, "nsA": 2606, "DnD": 2607, "bStA": 2608, "Hap": 2609, "DrjDrj": 2610, "wrr": 2611, "Sjw": 2612, "Snwy": 2613, "Xrw": 2614, "dwDw": 2615, "bHw": 2616, "aSi": 2617, "Twj": 2618, "psw": 2619, "miam": 2620, "rwiA": 2621, "Aw": 2622, "jzzy": 2623, "sxsf": 2624, "yai": 2625, "qrn": 2626, "wATA": 2627, "njwr": 2628, "sHAi": 2629, "xb": 2630, "waaw": 2631, "wrSt": 2632, "Hrpl": 2633, "brktTw": 2634, "iAbt": 2635, "nxw": 2636, "jwpT": 2637, "wADi": 2638, "qnd": 2639, "Xmn": 2640, "rjrj": 2641, "amd": 2642, "jny": 2643, "hbt": 2644, "kAhs": 2645, "srrT": 2646, "pfss": 2647, "pryj": 2648, "jAzn": 2649, "Sfj": 2650, "jryk": 2651, "mr": 2652, "qrjA": 2653, "mgs": 2654, "psDntyw": 2655, "pln": 2656, "pss": 2657, "ipd": 2658, "wsy": 2659, "nxAwj": 2660, "wnwtj": 2661, "msTp": 2662, "AXb": 2663, "sjs": 2664, "Sfn": 2665, "rSpw": 2666, "jmAm": 2667, "AX": 2668, "jAnr": 2669, "nrjw": 2670, "sbnrj": 2671, "wss": 2672, "tjmHy": 2673, "rn": 2674, "jSst": 2675, "bnty": 2676, "mshrt": 2677, "jwtn": 2678, "mAjdy": 2679, "tfn": 2680, "jbd": 2681, "nHpw": 2682, "abb": 2683, "sHAw": 2684, "kSw": 2685, "nHi": 2686, "mstH": 2687, "wrSu": 2688, "pAxd": 2689, "knr": 2690, "tk": 2691, "Aqdqd": 2692, "nAp": 2693, "tisw": 2694, "jan": 2695, "dnp": 2696, "sbty": 2697, "sSd": 2698, "StT": 2699, "jwAj": 2700, "mSaq": 2701, "amy": 2702, "kA": 2703, "ytj": 2704, "ptAH": 2705, "bqr": 2706, "gDfD": 2707, "iDy": 2708, "biTt": 2709, "jTn": 2710, "DAi": 2711, "dAjr": 2712, "yH": 2713, "njAw": 2714, "jptf": 2715, "pzS": 2716, "makw": 2717, "DAtitAkAti": 2718, "Hdj": 2719, "jnj": 2720, "ipy": 2721, "dwAww": 2722, "stp": 2723, "TmTm": 2724, "wmnj": 2725, "fk": 2726, "THnn": 2727, "mSr": 2728, "XAb": 2729, "Hts": 2730, "sdj": 2731, "sdbj": 2732, "xfti": 2733, "tjwr": 2734, "tAwf": 2735, "jnjwy": 2736, "sAmm": 2737, "ksyk": 2738, "sDd": 2739, "iw": 2740, "maXr": 2741, "mHa": 2742, "zHp": 2743, "amaA": 2744, "dhr": 2745, "iTAy": 2746, "ibH": 2747, "XAbb": 2748, "jrj": 2749, "bS": 2750, "hrA": 2751, "Hnk": 2752, "ms": 2753, "Hsbd": 2754, "xnxn": 2755, "Tntj": 2756, "ASrw": 2757, "Amy": 2758, "srsw": 2759, "pAqi": 2760, "bgA": 2761, "srty": 2762, "yAkb": 2763, "knwy": 2764, "mrry": 2765, "ywA": 2766, "xsDD": 2767, "jbh": 2768, "jpt": 2769, "nkAw": 2770, "bAq": 2771, "jAtt": 2772, "gjw": 2773, "sHb": 2774, "dAng": 2775, "gbd": 2776, "wHA": 2777, "tnwy": 2778, "nhz": 2779, "jrjw": 2780, "iSS": 2781, "sf": 2782, "Hwtf": 2783, "mryn": 2784, "dAp": 2785, "dHA": 2786, "rxxt": 2787, "Dn": 2788, "jTs": 2789, "stXy": 2790, "Hnt": 2791, "grj": 2792, "sHny": 2793, "jSs": 2794, "qmAm": 2795, "zxzx": 2796, "bwy": 2797, "snDADAw": 2798, "ana": 2799, "krkr": 2800, "tnbwX": 2801, "sibyn": 2802, "nbi": 2803, "aHwty": 2804, "qqj": 2805, "Hnmm": 2806, "tfpt": 2807, "mwmw": 2808, "Stj": 2809, "wSb": 2810, "jmmj": 2811, "tpA": 2812, "sqAHA": 2813, "wAsty": 2814, "bjf": 2815, "aaf": 2816, "mqq": 2817, "bwSi": 2818, "b": 2819, "bart": 2820, "yA": 2821, "jbSk": 2822, "nXrXr": 2823, "sAwy": 2824, "rhny": 2825, "Htpwj": 2826, "snjt": 2827, "annx": 2828, "DbAw": 2829, "HAwr": 2830, "twAwt": 2831, "njwj": 2832, "jAwy": 2833, "tmHn": 2834, "xAbb": 2835, "xp": 2836, "marsArA": 2837, "Hnm": 2838, "Dar": 2839, "rb": 2840, "SwAw": 2841, "twAhA": 2842, "Swb": 2843, "bHnr": 2844, "ibrD": 2845, "inHw": 2846, "ys": 2847, "mnfA": 2848, "jnz": 2849, "Snt": 2850, "mAs": 2851, "Hwfrj": 2852, "ban": 2853, "SmSm": 2854, "HDD": 2855, "tHwj": 2856, "sHDw": 2857, "oder": 2858, "tiSps": 2859, "gbtw": 2860, "TA": 2861, "ngg": 2862, "msjw": 2863, "HArt": 2864, "sSwi": 2865, "xrpAntrys": 2866, "jrp": 2867, "Hnny": 2868, "ndw": 2869, "Aqs": 2870, "bwAw": 2871, "tbX": 2872, "ram": 2873, "wSby": 2874, "sdnm": 2875, "Snwj": 2876, "xnrf": 2877, "zk": 2878, "wADj": 2879, "ngsgs": 2880, "dr": 2881, "px": 2882, "mads": 2883, "jptn": 2884, "srj": 2885, "pna": 2886, "mtH": 2887, "Hs": 2888, "pxs": 2889, "HAp": 2890, "mqr": 2891, "tni": 2892, "sdp": 2893, "qAjw": 2894, "wAsi": 2895, "Xnmww": 2896, "ipdw": 2897, "stw": 2898, "snH": 2899, "wjAn": 2900, "Tpnpn": 2901, "Hftn": 2902, "Tnnj": 2903, "iapw": 2904, "jyi": 2905, "wxa": 2906, "jbs": 2907, "Ttwtj": 2908, "Srm": 2909, "dbb": 2910, "Ti": 2911, "pxpx": 2912, "pzmTk": 2913, "sbj": 2914, "SAy": 2915, "wTsA": 2916, "sHr": 2917, "DAtj": 2918, "jdi": 2919, "Trw": 2920, "msDmw": 2921, "wwtj": 2922, "wdy": 2923, "SaD": 2924, "sbAg": 2925, "gmHj": 2926, "mDAy": 2927, "nfrwys": 2928, "xAD": 2929, "myv": 2930, "iriA": 2931, "xAwt": 2932, "jm": 2933, "tpwy": 2934, "HD": 2935, "kwj": 2936, "sntj": 2937, "mwTnrA": 2938, "gS": 2939, "mpa": 2940, "jai": 2941, "Saj": 2942, "jbkA": 2943, "tHs": 2944, "Axw": 2945, "Trwrw": 2946, "mD": 2947, "qfn": 2948, "mjaHa": 2949, "DAj": 2950, "mdHw": 2951, "Daw": 2952, "ddwn": 2953, "mAiw": 2954, "twk": 2955, "Ddy": 2956, "Tm": 2957, "krAStw": 2958, "snhp": 2959, "sktj": 2960, "jnm": 2961, "agwt": 2962, "wArx": 2963, "ady": 2964, "rtn": 2965, "aqj": 2966, "zzj": 2967, "Say": 2968, "ypl": 2969, "wDni": 2970, "hAm": 2971, "gmHs": 2972, "mjb": 2973, "Snm": 2974, "Sra": 2975, "Tw": 2976, "rhj": 2977, "mspr": 2978, "sty": 2979, "Dnj": 2980, "Xnm": 2981, "zmAm": 2982, "swtA": 2983, "xwn": 2984, "HDDwj": 2985, "sxrw": 2986, "jmsT": 2987, "sgAbw": 2988, "hbnj": 2989, "tS": 2990, "zAr": 2991, "TiA": 2992, "mtrj": 2993, "jwb": 2994, "ih": 2995, "jnjw": 2996, "apap": 2997, "grm": 2998, "annxj": 2999, "tikt": 3000, "strti": 3001, "Sntt": 3002, "sHtm": 3003, "pDi": 3004, "bAi": 3005, "jwAdj": 3006, "HApp": 3007, "jAwi": 3008, "sXn": 3009, "spAt": 3010, "jsy": 3011, "gspw": 3012, "wAt": 3013, "twynn": 3014, "hrrm": 3015, "HHy": 3016, "sjdn": 3017, "jwpj": 3018, "jy": 3019, "hsmq": 3020, "snjhA": 3021, "snnm": 3022, "sSdAw": 3023, "andw": 3024, "mtA": 3025, "knmm": 3026, "Spsy": 3027, "imny": 3028, "zT": 3029, "mntyw": 3030, "ss": 3031, "mAsAhArti": 3032, "majA": 3033, "ywm": 3034, "qdj": 3035, "tfj": 3036, "ji": 3037, "SAm": 3038, "irqbs": 3039, "sdbH": 3040, "Hwj": 3041, "StAi": 3042, "jT": 3043, "inq": 3044, "jaa": 3045, "snDm": 3046, "stXi": 3047, "msnH": 3048, "sSkr": 3049, "qrf": 3050, "wADwAD": 3051, "wDnw": 3052, "TjT": 3053, "mjtt": 3054, "srr": 3055, "qbw": 3056, "sjAT": 3057, "zpy": 3058, "ax": 3059, "tntn": 3060, "ASy": 3061, "wDb": 3062, "an": 3063, "SsA": 3064, "dHAy": 3065, "hAkr": 3066, "hnhn": 3067, "kpn": 3068, "jxn": 3069, "mak": 3070, "aqa": 3071, "mtr": 3072, "HDn": 3073, "iws": 3074, "xr": 3075, "wdH": 3076, "sds": 3077, "itrr": 3078, "rAbnw": 3079, "jsi": 3080, "Spnn": 3081, "baHj": 3082, "maAr": 3083, "mnty": 3084, "bxnt": 3085, "DAjs": 3086, "qmAy": 3087, "jnnw": 3088, "hbj": 3089, "SAjw": 3090, "Sms": 3091, "mmy": 3092, "Dr": 3093, "gp": 3094, "wAyp": 3095, "bagA": 3096, "jxr": 3097, "stk": 3098, "nmA": 3099, "nmjt": 3100, "pay": 3101, "sdwx": 3102, "snHH": 3103, "tf": 3104, "maHA": 3105, "snHmy": 3106, "ngj": 3107, "mjtr": 3108, "Aab": 3109, "wSbw": 3110, "nDtj": 3111, "mxAy": 3112, "Aay": 3113, "sDwy": 3114, "Dnm": 3115, "knk": 3116, "Tnfy": 3117, "jmHj": 3118, "jwAy": 3119, "bAbAwt": 3120, "aAg": 3121, "aa": 3122, "mzr": 3123, "sytw": 3124, "aAi": 3125, "tjnrw": 3126, "sxnn": 3127, "mzmz": 3128, "hAbq": 3129, "Hswt": 3130, "ims": 3131, "Hngj": 3132, "tmAw": 3133, "rbS": 3134, "waA": 3135, "sksn": 3136, "zAj": 3137, "zz": 3138, "Dfi": 3139, "nSD": 3140, "idm": 3141, "Hngg": 3142, "HApw": 3143, "rSS": 3144, "bAXw": 3145, "whA": 3146, "THn": 3147, "aHAty": 3148, "mq": 3149, "rDy": 3150, "qmy": 3151, "Xsw": 3152, "sfD": 3153, "matw": 3154, "pxy": 3155, "aqi": 3156, "DdH": 3157, "krxm": 3158, "Hnmt": 3159, "wdpw": 3160, "Dq": 3161, "Tzj": 3162, "rt": 3163, "nhd": 3164, "sjmA": 3165, "stjHn": 3166, "Sps": 3167, "smtmt": 3168, "swt": 3169, "nwd": 3170, "xAbAy": 3171, "ptHy": 3172, "bik": 3173, "jAtjw": 3174, "adj": 3175, "SdH": 3176, "jtr": 3177, "mf": 3178, "spd": 3179, "rx": 3180, "zwA": 3181, "Hn": 3182, "gbty": 3183, "sxwt": 3184, "Hdb": 3185, "HtAy": 3186, "tyty": 3187, "jppj": 3188, "jaH": 3189, "rhr": 3190, "mAtjr": 3191, "Smy": 3192, "zjf": 3193, "sDj": 3194, "bxt": 3195, "sSr": 3196, "mrjw": 3197, "wat": 3198, "kftjw": 3199, "Xsr": 3200, "Sr": 3201, "pipi": 3202, "Sty": 3203, "dgs": 3204, "msdm": 3205, "wrSy": 3206, "msa": 3207, "sxnti": 3208, "jqn": 3209, "jzk": 3210, "sand": 3211, "arfwj": 3212, "kkj": 3213, "rHH": 3214, "xsb": 3215, "Sk": 3216, "SpT": 3217, "wADH": 3218, "sjw": 3219, "npw": 3220, "dfdj": 3221, "jwA": 3222, "wtjjA": 3223, "Tktn": 3224, "mnjA": 3225, "smnn": 3226, "bXs": 3227, "ndr": 3228, "bhn": 3229, "mkAH": 3230, "nbtj": 3231, "swD": 3232, "mrHnn": 3233, "hb": 3234, "swn": 3235, "kAt": 3236, "jaw": 3237, "xrwy": 3238, "isxry": 3239, "xptT": 3240, "snb": 3241, "xnSw": 3242, "Agbgb": 3243, "kry": 3244, "dSrr": 3245, "iwsw": 3246, "dHrj": 3247, "nayA": 3248, "antyw": 3249, "bA": 3250, "ix": 3251, "xnw": 3252, "szA": 3253, "nrA": 3254, "ra": 3255, "qAriA": 3256, "xbw": 3257, "qAqA": 3258, "mHDr": 3259, "tAytj": 3260, "shrw": 3261, "jnhA": 3262, "xnf": 3263, "bzi": 3264, "jSS": 3265, "nsrt": 3266, "iwaw": 3267, "Tsb": 3268, "sTf": 3269, "swSA": 3270, "pfA": 3271, "sswr": 3272, "Xpt": 3273, "Spss": 3274, "wjdu": 3275, "jsfj": 3276, "jdjj": 3277, "Hzmny": 3278, "nAHA": 3279, "nSiw": 3280, "gb": 3281, "Smas": 3282, "wnxw": 3283, "sbtiw": 3284, "jwrrj": 3285, "Trb": 3286, "tAHy": 3287, "mama": 3288, "imAxw": 3289, "Sdn": 3290, "jrr": 3291, "bTi": 3292, "TwnA": 3293, "bnjw": 3294, "jrk": 3295, "bAt": 3296, "iniSn": 3297, "Dswj": 3298, "Hzw": 3299, "kb": 3300, "xdxd": 3301, "arar": 3302, "tTj": 3303, "sxntjw": 3304, "nSS": 3305, "jAbw": 3306, "as": 3307, "dnm": 3308, "dydy": 3309, "nAjArf": 3310, "maAw": 3311, "hAqAhAgA": 3312, "niw": 3313, "rmnw": 3314, "bASA": 3315, "tnti": 3316, "sdAwg": 3317, "Ddj": 3318, "smdt": 3319, "nDy": 3320, "sshn": 3321, "wbnw": 3322, "swst": 3323, "jwit": 3324, "prj": 3325, "qAmd": 3326, "bAy": 3327, "xbz": 3328, "mTAi": 3329, "nbAbA": 3330, "wSA": 3331, "Xb": 3332, "sHtp": 3333, "mqry": 3334, "nTi": 3335, "jqH": 3336, "Smd": 3337, "mtrtw": 3338, "iwi": 3339, "swAi": 3340, "aSq": 3341, "xni": 3342, "jrw": 3343, "jsdd": 3344, "stm": 3345, "gwS": 3346, "Spssy": 3347, "jfdi": 3348, "XAr": 3349, "txt": 3350, "nmj": 3351, "nsk": 3352, "nxtiw": 3353, "tbn": 3354, "kAjr": 3355, "Hnb": 3356, "hAms": 3357, "sAn": 3358, "ATA": 3359, "hrn": 3360, "shA": 3361, "sxbx": 3362, "dmm": 3363, "xtAsAr": 3364, "ngAgA": 3365, "mdnw": 3366, "ware": 3367, "npn": 3368, "sjr": 3369, "pAx": 3370, "AAj": 3371, "Hfdi": 3372, "gAg": 3373, "sDsr": 3374, "jbT": 3375, "mrqSt": 3376, "xAySb": 3377, "dmHw": 3378, "mjdA": 3379, "inHti": 3380, "mdwi": 3381, "aD": 3382, "HbD": 3383, "aSA": 3384, "mAwD": 3385, "xsd": 3386, "gAygA": 3387, "xpw": 3388, "xnsA": 3389, "djdj": 3390, "mtn": 3391, "StAdj": 3392, "Xdr": 3393, "qnr": 3394, "xmm": 3395, "Sayd": 3396, "tesub": 3397, "sdm": 3398, "bDA": 3399, "wDj": 3400, "wAHy": 3401, "kwy": 3402, "DAf": 3403, "Safj": 3404, "dmAa": 3405, "nHti": 3406, "apS": 3407, "Drww": 3408, "sHjwr": 3409, "jry": 3410, "jpSnn": 3411, "jAhA": 3412, "SbSb": 3413, "wtyw": 3414, "Hsmny": 3415, "ihhy": 3416, "mnsjw": 3417, "nDnDtj": 3418, "swd": 3419, "wsS": 3420, "Htj": 3421, "Har": 3422, "kAkmn": 3423, "mstj": 3424, "sswsn": 3425, "Ap": 3426, "SAw": 3427, "ft": 3428, "Dxn": 3429, "mXdtj": 3430, "tX": 3431, "msA": 3432, "sdbw": 3433, "nar": 3434, "imwty": 3435, "iSt": 3436, "xdy": 3437, "nht": 3438, "Xrd": 3439, "tSi": 3440, "Spj": 3441, "ka": 3442, "twAw": 3443, "Tsi": 3444, "Swy": 3445, "HqA": 3446, "Stnw": 3447, "TH": 3448, "jay": 3449, "wnr": 3450, "Dsnw": 3451, "jdmj": 3452, "jAq": 3453, "Hd": 3454, "sawA": 3455, "saa": 3456, "sipty": 3457, "mntw": 3458, "may": 3459, "xpTt": 3460, "iwry": 3461, "Att": 3462, "mAjr": 3463, "xnn": 3464, "sTnn": 3465, "igr": 3466, "sdS": 3467, "DfAw": 3468, "mnwt": 3469, "mSwS": 3470, "ramrskny": 3471, "dnjw": 3472, "dbd": 3473, "ytpl": 3474, "qmHw": 3475, "grS": 3476, "xnsAy": 3477, "dgAys": 3478, "npApA": 3479, "bgz": 3480, "Drti": 3481, "mnHp": 3482, "qdwt": 3483, "sbjA": 3484, "rTw": 3485, "sATw": 3486, "adw": 3487, "tSjw": 3488, "pwi": 3489, "mstjw": 3490, "xAjb": 3491, "Tb": 3492, "stn": 3493, "zfnw": 3494, "tjA": 3495, "fa": 3496, "XpS": 3497, "Arktkstk": 3498, "nr": 3499, "kAty": 3500, "mnD": 3501, "awt": 3502, "Tnt": 3503, "iwAy": 3504, "tbjn": 3505, "wbb": 3506, "aby": 3507, "twnn": 3508, "Hpwty": 3509, "sHpt": 3510, "sxi": 3511, "jwpy": 3512, "wAsm": 3513, "qfdr": 3514, "xzd": 3515, "dwdy": 3516, "HDnw": 3517, "Try": 3518, "msi": 3519, "wawy": 3520, "nSny": 3521, "str": 3522, "smx": 3523, "shp": 3524, "sjA": 3525, "mzt": 3526, "bTw": 3527, "Hwaw": 3528, "jntnt": 3529, "iH": 3530, "mt": 3531, "Aya": 3532, "xww": 3533, "rqAy": 3534, "qnw": 3535, "hAp": 3536, "xAyb": 3537, "sDAi": 3538, "jkjjt": 3539, "wDd": 3540, "bsj": 3541, "qbqb": 3542, "bHbH": 3543, "aaw": 3544, "ird": 3545, "nTri": 3546, "SnSn": 3547, "pra": 3548, "tbwn": 3549, "Dmr": 3550, "nXa": 3551, "Xny": 3552, "HrDtm": 3553, "wft": 3554, "Tj": 3555, "Xty": 3556, "wp": 3557, "jAk": 3558, "amAmw": 3559, "btAw": 3560, "nDm": 3561, "Xar": 3562, "snti": 3563, "jsyf": 3564, "jA": 3565, "trr": 3566, "pjTA": 3567, "kmir": 3568, "mT": 3569, "sDdj": 3570, "Drwty": 3571, "mqn": 3572, "gbn": 3573, "gf": 3574, "xnz": 3575, "sgmH": 3576, "sprw": 3577, "qby": 3578, "sHAbi": 3579, "maxA": 3580, "ntm": 3581, "bnf": 3582, "ksA": 3583, "nTrwAs": 3584, "smAj": 3585, "sDty": 3586, "tnw": 3587, "snTrj": 3588, "jzt": 3589, "HAmw": 3590, "sDfA": 3591, "nxj": 3592, "rs": 3593, "ST": 3594, "isr": 3595, "mnwH": 3596, "ynDm": 3597, "jHjj": 3598, "sps": 3599, "swnu": 3600, "Htpj": 3601, "sXrd": 3602, "xby": 3603, "sjH": 3604, "pfy": 3605, "Apd": 3606, "gwg": 3607, "rz": 3608, "hbnn": 3609, "qAH": 3610, "Spst": 3611, "xz": 3612, "baHw": 3613, "tjdu": 3614, "Skr": 3615, "mnr": 3616, "rf": 3617, "jnbA": 3618, "zxni": 3619, "nxtj": 3620, "g": 3621, "fkk": 3622, "Sm": 3623, "HfAw": 3624, "nhAsi": 3625, "qi": 3626, "HmAg": 3627, "wai": 3628, "jAby": 3629, "qmH": 3630, "srw": 3631, "Hapy": 3632, "D": 3633, "Sfa": 3634, "sbqA": 3635, "hTi": 3636, "rpa": 3637, "zAhr": 3638, "shru": 3639, "xpnn": 3640, "x": 3641, "xtm": 3642, "Sta": 3643, "ift": 3644, "SAdb": 3645, "ssxm": 3646, "zbnw": 3647, "wnyw": 3648, "TAfy": 3649, "HAtw": 3650, "TjAtj": 3651, "jkjk": 3652, "sDAy": 3653, "qbA": 3654, "tinntw": 3655, "sHmy": 3656, "jAxj": 3657, "qtqt": 3658, "Xr": 3659, "iwnA": 3660, "iA": 3661, "pgg": 3662, "jwr": 3663, "xnty": 3664, "aqwj": 3665, "Dsf": 3666, "msH": 3667, "snaa": 3668, "HpHp": 3669, "rnpi": 3670, "Snty": 3671, "wHaw": 3672, "nTT": 3673, "rmT": 3674, "bjAi": 3675, "SAar": 3676, "mAw": 3677, "rSwy": 3678, "Sns": 3679, "kAm": 3680, "arfj": 3681, "sHyH": 3682, "ama": 3683, "pi": 3684, "sAAw": 3685, "rss": 3686, "tAwy": 3687, "Dwj": 3688, "AS": 3689, "ssDm": 3690, "tHnw": 3691, "wnSjw": 3692, "hru": 3693, "pAa": 3694, "tATnn": 3695, "arry": 3696, "jst": 3697, "AbAb": 3698, "yhy": 3699, "njA": 3700, "tbs": 3701, "xnws": 3702, "wpd": 3703, "yjy": 3704, "jmtj": 3705, "pSr": 3706, "dfj": 3707, "dnhnt": 3708, "xmt": 3709, "jna": 3710, "Haaw": 3711, "xxm": 3712, "grt": 3713, "wrj": 3714, "hAbj": 3715, "pAgjs": 3716, "Szr": 3717, "TpH": 3718, "Awi": 3719, "tiA": 3720, "mXaq": 3721, "rHb": 3722, "Hnzk": 3723, "aSgAj": 3724, "jgp": 3725, "krT": 3726, "sgrj": 3727, "Sdm": 3728, "mAj": 3729, "xw": 3730, "Datt": 3731, "ki": 3732, "XpA": 3733, "sAgnn": 3734, "Hwr": 3735, "sma": 3736, "kftiw": 3737, "nAyw": 3738, "HAdg": 3739, "snsnj": 3740, "smH": 3741, "jaHw": 3742, "dij": 3743, "Daaj": 3744, "sagA": 3745, "saq": 3746, "wpt": 3747, "srnw": 3748, "tkkw": 3749, "jrd": 3750, "aw": 3751, "jnnt": 3752, "nkAj": 3753, "SAty": 3754, "jSj": 3755, "Hpr": 3756, "nXs": 3757, "skk": 3758, "nxn": 3759, "mAui": 3760, "tqny": 3761, "AHAHj": 3762, "Hbsw": 3763, "nsbi": 3764, "saAi": 3765, "qDwr": 3766, "SAf": 3767, "Hmi": 3768, "Tnu": 3769, "Asq": 3770, "snyt": 3771, "ssnD": 3772, "ski": 3773, "janj": 3774, "nkp": 3775, "qfq": 3776, "xwfw": 3777, "SwSy": 3778, "sfx": 3779, "xpnj": 3780, "djfn": 3781, "AxAx": 3782, "duj": 3783, "trp": 3784, "IsD": 3785, "rms": 3786, "dmDy": 3787, "ibSt": 3788, "yhj": 3789, "rrAwj": 3790, "pwaa": 3791, "mSSw": 3792, "tAy": 3793, "Awjt": 3794, "nxf": 3795, "bAgAy": 3796, "tnH": 3797, "TAz": 3798, "bTy": 3799, "jtrw": 3800, "ntrw": 3801, "HHj": 3802, "srwy": 3803, "gAdA": 3804, "wDny": 3805, "sSnj": 3806, "awA": 3807, "pg": 3808, "TAn": 3809, "nXr": 3810, "stpp": 3811, "Swbw": 3812, "SA": 3813, "pXr": 3814, "gnn": 3815, "SAbwd": 3816, "tHwA": 3817, "ybw": 3818, "imtwy": 3819, "Sddj": 3820, "Hfnw": 3821, "pns": 3822, "dpHw": 3823, "HrHr": 3824, "jg": 3825, "Amaw": 3826, "swrH": 3827, "nSmw": 3828, "wnt": 3829, "Sdw": 3830, "yab": 3831, "Hmzi": 3832, "xprr": 3833, "smAmA": 3834, "hAb": 3835, "kAhnj": 3836, "iqnr": 3837, "nhs": 3838, "Txrry": 3839, "mhj": 3840, "sSt": 3841, "sXkr": 3842, "qAi": 3843, "kASy": 3844, "wAT": 3845, "Hwty": 3846, "nzp": 3847, "AXp": 3848, "gj": 3849, "hbu": 3850, "kiry": 3851, "nmja": 3852, "sqq": 3853, "gAbgA": 3854, "xnpj": 3855, "msxn": 3856, "swu": 3857, "msSA": 3858, "jtwr": 3859, "jms": 3860, "gAbg": 3861, "xfy": 3862, "mSay": 3863, "Xrp": 3864, "hAn": 3865, "knm": 3866, "hs": 3867, "wsaA": 3868, "qAqAw": 3869, "sAmw": 3870, "nsq": 3871, "qAHA": 3872, "Hwnj": 3873, "hAmty": 3874, "mstwj": 3875, "nk": 3876, "bDAw": 3877, "xwwy": 3878, "rk": 3879, "sthi": 3880, "snTj": 3881, "xnfy": 3882, "arqi": 3883, "bqy": 3884, "bn": 3885, "XsAy": 3886, "rjd": 3887, "fx": 3888, "zSr": 3889, "man": 3890, "yrdn": 3891, "pAHyw": 3892, "HtA": 3893, "itrn": 3894, "bAk": 3895, "mrt": 3896, "aXn": 3897, "Af": 3898, "nxwf": 3899, "nri": 3900, "nmt": 3901, "mkti": 3902, "tSr": 3903, "rxz": 3904, "tnTA": 3905, "mtw": 3906, "axnj": 3907, "jAhreszeit": 3908, "pwyj": 3909, "mAHw": 3910, "gott": 3911, "wst": 3912, "zwS": 3913, "maSa": 3914, "jhA": 3915, "hAv": 3916, "tmAa": 3917, "knmTwhr": 3918, "jAT": 3919, "Stjw": 3920, "znq": 3921, "DHwt": 3922, "psi": 3923, "gnHs": 3924, "dng": 3925, "rpj": 3926, "StSt": 3927, "smjw": 3928, "SArS": 3929, "wrD": 3930, "jxw": 3931, "gw": 3932, "hnh": 3933, "sqA": 3934, "nwa": 3935, "jmAy": 3936, "wjs": 3937, "wsTnw": 3938, "SaA": 3939, "wyt": 3940, "wsrt": 3941, "iyH": 3942, "pn": 3943, "wxn": 3944, "zkr": 3945, "jhAy": 3946, "xSxS": 3947, "wny": 3948, "DarA": 3949, "kms": 3950, "bnS": 3951, "sTw": 3952, "jDrj": 3953, "idH": 3954, "Hnnw": 3955, "sDrjw": 3956, "tnp": 3957, "TiTi": 3958, "shAj": 3959, "apy": 3960, "xniw": 3961, "fjw": 3962, "xtf": 3963, "SnDd": 3964, "snwt": 3965, "Tnw": 3966, "pAq": 3967, "jrTw": 3968, "TnHr": 3969, "jwnA": 3970, "nAn": 3971, "qDwdn": 3972, "sgm": 3973, "tHA": 3974, "jrtn": 3975, "dSr": 3976, "AkA": 3977, "spH": 3978, "jtjtj": 3979, "XpAw": 3980, "nmaw": 3981, "sppy": 3982, "xAbs": 3983, "nqd": 3984, "nSj": 3985, "Tkn": 3986, "ta": 3987, "jnHr": 3988, "mg": 3989, "ysHmw": 3990, "Hmsy": 3991, "sgAy": 3992, "DbDb": 3993, "mskj": 3994, "Xd": 3995, "swDb": 3996, "smSrw": 3997, "pzd": 3998, "nDmnDm": 3999, "wpwt": 4000, "jwdnb": 4001, "DHaa": 4002, "Dri": 4003, "sHAj": 4004, "sAwq": 4005, "mitt": 4006, "xAm": 4007, "nfrwysw": 4008, "fj": 4009, "ssn": 4010, "aAmj": 4011, "snHA": 4012, "Tjrf": 4013, "jS": 4014, "jdm": 4015, "kAnA": 4016, "mnhsi": 4017, "HbrDt": 4018, "gAfj": 4019, "xAbw": 4020, "ttw": 4021, "HDAs": 4022, "rDD": 4023, "dks": 4024, "Df": 4025, "Dam": 4026, "dgS": 4027, "aamy": 4028, "Aaf": 4029, "THb": 4030, "jmbw": 4031, "xwzw": 4032, "xa": 4033, "bxx": 4034, "rrwj": 4035, "tti": 4036, "SDm": 4037, "sqnq": 4038, "ptr": 4039, "gi": 4040, "bnt": 4041, "sxsx": 4042, "dbdj": 4043, "sjdd": 4044, "qy": 4045, "sdg": 4046, "yr": 4047, "grh": 4048, "rSA": 4049, "ipp": 4050, "Han": 4051, "pdr": 4052, "swni": 4053, "wAHw": 4054, "wxAS": 4055, "wrSww": 4056, "hpnw": 4057, "jtnw": 4058, "mrbnrx": 4059, "mzi": 4060, "wAb": 4061, "sqrj": 4062, "nHrw": 4063, "wpi": 4064, "Awsw": 4065, "mjnj": 4066, "srd": 4067, "Tit": 4068, "Snwtj": 4069, "dbHn": 4070, "bxtn": 4071, "rAHs": 4072, "Akw": 4073, "pnA": 4074, "HHi": 4075, "mSaf": 4076, "wawa": 4077, "wnDj": 4078, "apA": 4079, "wns": 4080, "grs": 4081, "AhAm": 4082, "hi": 4083, "xnt": 4084, "wdHw": 4085, "wpwty": 4086, "tjHs": 4087, "jwpl": 4088, "jmnw": 4089, "jxssf": 4090, "jstw": 4091, "pAz": 4092, "TAwj": 4093, "hAnA": 4094, "jsn": 4095, "ihAfy": 4096, "Trjwy": 4097, "wHf": 4098, "ssi": 4099, "krSt": 4100, "Ssp": 4101, "Dan": 4102, "prA": 4103, "fqAw": 4104, "swAwA": 4105, "nwAn": 4106, "mdnj": 4107, "wgA": 4108, "ndri": 4109, "ibsqb": 4110, "mAwj": 4111, "Hmsj": 4112, "pwpw": 4113, "zwrj": 4114, "mryt": 4115, "Abx": 4116, "DHty": 4117, "Sbb": 4118, "sdb": 4119, "skr": 4120, "Dnn": 4121, "saA": 4122, "kAsA": 4123, "msDn": 4124, "amt": 4125, "msb": 4126, "zfT": 4127, "ATw": 4128, "nSAw": 4129, "sdi": 4130, "HAtj": 4131, "zrm": 4132, "Hpapa": 4133, "mjz": 4134, "wdd": 4135, "sqj": 4136, "nta": 4137, "wDn": 4138, "mHbq": 4139, "xrp": 4140, "swk": 4141, "pAwr": 4142, "sHqn": 4143, "snDADA": 4144, "kf": 4145, "jpw": 4146, "ap": 4147, "srq": 4148, "wk": 4149, "sXb": 4150, "Dnd": 4151, "ntj": 4152, "wAg": 4153, "jdnjnjw": 4154, "sHqA": 4155, "hstkt": 4156, "xjw": 4157, "xAd": 4158, "qwr": 4159, "pqr": 4160, "dHrjw": 4161, "swh": 4162, "SSd": 4163, "HnbAbA": 4164, "nmtAw": 4165, "arf": 4166, "Dss": 4167, "xDy": 4168, "njnj": 4169, "mDAt": 4170, "aSa": 4171, "kS": 4172, "kbs": 4173, "saDA": 4174, "anD": 4175, "dAw": 4176, "mbj": 4177, "bjwn": 4178, "wrw": 4179, "Xbt": 4180, "Aa": 4181, "iwnrA": 4182, "tAS": 4183, "baA": 4184, "ggwi": 4185, "sArwty": 4186, "gnm": 4187, "afD": 4188, "qrs": 4189, "SAAw": 4190, "ppj": 4191, "jnn": 4192, "sdmt": 4193, "ppw": 4194, "wtmtm": 4195, "dDhDw": 4196, "xpy": 4197, "Snrf": 4198, "snx": 4199, "fdtj": 4200, "msHw": 4201, "sqdi": 4202, "mAmw": 4203, "wmtj": 4204, "sndt": 4205, "bAiry": 4206, "nqr": 4207, "jpHw": 4208, "jrrx": 4209, "DAyj": 4210, "sSwAS": 4211, "htm": 4212, "gAHs": 4213, "krny": 4214, "kTt": 4215, "hwhy": 4216, "wgAw": 4217, "iwd": 4218, "DH": 4219, "gah": 4220, "aqn": 4221, "isdyrktjw": 4222, "xrtw": 4223, "qnb": 4224, "pHwy": 4225, "rprp": 4226, "Hrti": 4227, "mja": 4228, "pggA": 4229, "wHwf": 4230, "Smaw": 4231, "rsst": 4232, "qAss": 4233, "jhhj": 4234, "Sp": 4235, "wDf": 4236, "nms": 4237, "jqAt": 4238, "zxr": 4239, "Xs": 4240, "tpnn": 4241, "pjp": 4242, "nxwj": 4243, "DpH": 4244, "drjw": 4245, "jmDr": 4246, "AD": 4247, "swjw": 4248, "nsi": 4249, "nxv": 4250, "waH": 4251, "qfAw": 4252, "mSayti": 4253, "DArj": 4254, "xrj": 4255, "tjms": 4256, "npH": 4257, "Hsk": 4258, "wnH": 4259, "DADA": 4260, "TwTw": 4261, "plv": 4262, "wwt": 4263, "pHs": 4264, "Hnnj": 4265, "zwj": 4266, "wntj": 4267, "ntwr": 4268, "amjA": 4269, "drdn": 4270, "nnk": 4271, "dmAw": 4272, "xApl": 4273, "sajw": 4274, "mbA": 4275, "jnnk": 4276, "mxntj": 4277, "bAwj": 4278, "xrm": 4279, "wfAw": 4280, "hwi": 4281, "sDm": 4282, "HApt": 4283, "Sz": 4284, "kkw": 4285, "Hfrn": 4286, "dw": 4287, "tmtm": 4288, "mtnw": 4289, "jwstn": 4290, "naydj": 4291, "sTni": 4292, "kns": 4293, "HAtt": 4294, "kfa": 4295, "dnb": 4296, "sStAw": 4297, "wsir": 4298, "nX": 4299, "nsw": 4300, "nzr": 4301, "DnH": 4302, "snbw": 4303, "DfA": 4304, "mmT": 4305, "jsdz": 4306, "dpwHw": 4307, "swAww": 4308, "DrDr": 4309, "inrn": 4310, "rdwt": 4311, "npnp": 4312, "AT": 4313, "Tjw": 4314, "mAaq": 4315, "smAA": 4316, "zpj": 4317, "qwTAt": 4318, "XAj": 4319, "mqAHA": 4320, "Afd": 4321, "Aaab": 4322, "isdd": 4323, "saHA": 4324, "iwtn": 4325, "zm": 4326, "Azb": 4327, "hrmr": 4328, "Sqb": 4329, "SmS": 4330, "btn": 4331, "pxA": 4332, "Hzi": 4333, "xAtb": 4334, "Drn": 4335, "jar": 4336, "nngj": 4337, "jmm": 4338, "Hng": 4339, "shd": 4340, "stpw": 4341, "mbb": 4342, "snrw": 4343, "nfd": 4344, "dqrw": 4345, "Hsy": 4346, "nhAy": 4347, "fgA": 4348, "rnpy": 4349, "qnf": 4350, "maXAw": 4351, "mXt": 4352, "dpH": 4353, "qrjaw": 4354, "sxnm": 4355, "ink": 4356, "jbzA": 4357, "Tzmy": 4358, "qrnr": 4359, "Snwty": 4360, "xsbd": 4361, "sHst": 4362, "sAx": 4363, "rdt": 4364, "mrsw": 4365, "prw": 4366, "nhm": 4367, "kfA": 4368, "mSA": 4369, "xnnj": 4370, "inii": 4371, "stnj": 4372, "Hwra": 4373, "mntsn": 4374, "fsi": 4375, "maSr": 4376, "rwr": 4377, "sHH": 4378, "sAq": 4379, "krs": 4380, "jyj": 4381, "axjw": 4382, "jAbb": 4383, "nqnq": 4384, "jmjxnt": 4385, "xf": 4386, "jrt": 4387, "mHr": 4388, "nSd": 4389, "w": 4390, "qAs": 4391, "sbkA": 4392, "Axf": 4393, "nty": 4394, "Htp": 4395, "kAw": 4396, "afa": 4397, "xA": 4398, "shrr": 4399, "Dbay": 4400, "aHAwty": 4401, "aXb": 4402, "xpt": 4403, "iksp": 4404, "fq": 4405, "twhA": 4406, "jmms": 4407, "jh": 4408, "mAx": 4409, "jwaa": 4410, "mHn": 4411, "wab": 4412, "xAnn": 4413, "Smsj": 4414, "njt": 4415, "wnDwj": 4416, "jbtj": 4417, "asa": 4418, "dmdy": 4419, "spri": 4420, "jwm": 4421, "jrpw": 4422, "qaHt": 4423, "isyw": 4424, "mmw": 4425, "hAhw": 4426, "mzA": 4427, "jf": 4428, "wHa": 4429, "pAv": 4430, "jkk": 4431, "TbTb": 4432, "sXy": 4433, "dkn": 4434, "sqr": 4435, "rSj": 4436, "ikk": 4437, "swywy": 4438, "mtwk": 4439, "Dbn": 4440, "jsbA": 4441, "iyA": 4442, "tbw": 4443, "ihA": 4444, "xftw": 4445, "tHwt": 4446, "tkA": 4447, "ary": 4448, "Tzi": 4449, "kbb": 4450, "mymy": 4451, "ssjb": 4452, "Dmtn": 4453, "sSmm": 4454, "jddj": 4455, "kAvy": 4456, "HnwH": 4457, "ht": 4458, "nHH": 4459, "pAar": 4460, "psjw": 4461, "snbb": 4462, "hmh": 4463, "HDw": 4464, "sxy": 4465, "sq": 4466, "awAw": 4467, "zpr": 4468, "qtS": 4469, "sSsA": 4470, "Hnyt": 4471, "xntw": 4472, "bAwy": 4473, "kfkfA": 4474, "zH": 4475, "THr": 4476, "jSfj": 4477, "pzgA": 4478, "nfrt": 4479, "mnk": 4480, "bqA": 4481, "TTj": 4482, "rnsj": 4483, "psHw": 4484, "wAh": 4485, "xAxA": 4486, "qrr": 4487, "irir": 4488, "rmn": 4489, "mHny": 4490, "isy": 4491, "f": 4492, "nbsj": 4493, "Hswy": 4494, "tmj": 4495, "gmHws": 4496, "jgr": 4497, "rrmi": 4498, "wzS": 4499, "Hfy": 4500, "Smmy": 4501, "spr": 4502, "Amm": 4503, "qrH": 4504, "zwzw": 4505, "wHd": 4506, "stx": 4507, "knanw": 4508, "mAwA": 4509, "sxtj": 4510, "snty": 4511, "pnq": 4512, "Tbww": 4513, "mDw": 4514, "wtT": 4515, "st": 4516, "hwty": 4517, "wxAx": 4518, "tny": 4519, "hwj": 4520, "Axy": 4521, "sfnw": 4522, "srwD": 4523, "dnj": 4524, "jby": 4525, "SmAm": 4526, "Hbnbn": 4527, "mAaw": 4528, "xAj": 4529, "ypgdd": 4530, "tjwt": 4531, "msT": 4532, "ptf": 4533, "smAaw": 4534, "Dry": 4535, "mTpn": 4536, "msDr": 4537, "hArw": 4538, "wzT": 4539, "wfA": 4540, "kmtw": 4541, "kHss": 4542, "zmjn": 4543, "wan": 4544, "xdb": 4545, "mw": 4546, "bkA": 4547, "szwn": 4548, "jwy": 4549, "Swty": 4550, "smtj": 4551, "Dsjw": 4552, "rxss": 4553, "rxw": 4554, "spdd": 4555, "sbhA": 4556, "manfw": 4557, "bSi": 4558, "sDmy": 4559, "amq": 4560, "ztjw": 4561, "ntA": 4562, "sAxw": 4563, "wSw": 4564, "mas": 4565, "qdr": 4566, "njpt": 4567, "gngn": 4568, "snr": 4569, "DAbqbq": 4570, "zxnn": 4571, "sbtj": 4572, "Htptj": 4573, "jkr": 4574, "wjpl": 4575, "HaAw": 4576, "nDs": 4577, "XAi": 4578, "anDw": 4579, "trrk": 4580, "DAs": 4581, "sxpr": 4582, "rnT": 4583, "whj": 4584, "hqs": 4585, "bsk": 4586, "jnhmnj": 4587, "tkAw": 4588, "nqw": 4589, "nst": 4590, "biAi": 4591, "ib": 4592, "smHi": 4593, "jdnw": 4594, "sgrH": 4595, "whn": 4596, "nft": 4597, "sAsAw": 4598, "wAwA": 4599, "jntsn": 4600, "bSS": 4601, "smsr": 4602, "Sbtn": 4603, "jbn": 4604, "pSnj": 4605, "jmn": 4606, "mAatyw": 4607, "Xnt": 4608, "yAd": 4609, "mSn": 4610, "dpt": 4611, "sgAb": 4612, "nwD": 4613, "TArj": 4614, "ybb": 4615, "jpA": 4616, "mAtw": 4617, "Sry": 4618, "Tpg": 4619, "mnkr": 4620, "nstnw": 4621, "Sxpi": 4622, "wr": 4623, "bnD": 4624, "Tby": 4625, "qsj": 4626, "pth": 4627, "jqqn": 4628, "dgdg": 4629, "rr": 4630, "Spv": 4631, "gsj": 4632, "rjw": 4633, "xwi": 4634, "Xnwnn": 4635, "swsr": 4636, "ndsds": 4637, "by": 4638, "sSwASwA": 4639, "Ary": 4640, "swASj": 4641, "jdwt": 4642, "Ssr": 4643, "jwp": 4644, "zf": 4645, "nSw": 4646, "wpp": 4647, "Snd": 4648, "brwt": 4649, "SAj": 4650, "X": 4651, "jssj": 4652, "irr": 4653, "annw": 4654, "HAj": 4655, "sjrA": 4656, "swhAw": 4657, "bAD": 4658, "Xsy": 4659, "jbH": 4660, "qrnt": 4661, "Driw": 4662, "Tzt": 4663, "mAy": 4664, "pHt": 4665, "HmAmy": 4666, "sAHn": 4667, "DAwAti": 4668, "xfaw": 4669, "bAstt": 4670, "wAmm": 4671, "xnri": 4672, "mSw": 4673, "qDr": 4674, "msjn": 4675, "Dnir": 4676, "HAHA": 4677, "bdH": 4678, "sHrj": 4679, "nmrT": 4680, "SAbdy": 4681, "Hnty": 4682, "mSpn": 4683, "jsbw": 4684, "sjpj": 4685, "SAwb": 4686, "zAww": 4687, "qAy": 4688, "mhw": 4689, "khAb": 4690, "znt": 4691, "srwjj": 4692, "arw": 4693, "TwTkn": 4694, "znnj": 4695, "Stw": 4696, "dHw": 4697, "SAA": 4698, "rqA": 4699, "nrw": 4700, "spy": 4701, "twtwiA": 4702, "sxmty": 4703, "bAiw": 4704, "di": 4705, "mtm": 4706, "naS": 4707, "jdn": 4708, "raw": 4709, "Hmy": 4710, "nhAp": 4711, "msti": 4712, "kmt": 4713, "jkb": 4714, "Sbtj": 4715, "wb": 4716, "Dna": 4717, "ngAjj": 4718, "maA": 4719, "gAH": 4720, "aAt": 4721, "Dsrt": 4722, "kAwt": 4723, "nktj": 4724, "xarw": 4725, "mrkbt": 4726, "raiA": 4727, "sndtj": 4728, "ian": 4729, "rgs": 4730, "AnAn": 4731, "Ds": 4732, "it": 4733, "Ai": 4734, "tywt": 4735, "idg": 4736, "mmrm": 4737, "mdpl": 4738, "sSp": 4739, "Xmm": 4740, "rsfy": 4741, "sxaa": 4742, "win": 4743, "msm": 4744, "pst": 4745, "jAj": 4746, "jbpl": 4747, "TAm": 4748, "dAj": 4749, "irwAT": 4750, "nzn": 4751, "qjs": 4752, "nkn": 4753, "kAwy": 4754, "mArw": 4755, "dHAwj": 4756, "sAwj": 4757, "wpw": 4758, "Sfi": 4759, "txw": 4760, "dnxnx": 4761, "Sbt": 4762, "Hnr": 4763, "qDn": 4764, "HarA": 4765, "ngi": 4766, "iaH": 4767, "tT": 4768, "S": 4769, "srmw": 4770, "ags": 4771, "sHAb": 4772, "qnm": 4773, "aqAn": 4774, "wtwt": 4775, "pw": 4776, "mXrj": 4777, "Smat": 4778, "anq": 4779, "rkHw": 4780, "hAbnj": 4781, "nSn": 4782, "qAm": 4783, "Hyti": 4784, "sns": 4785, "Hi": 4786, "xdp": 4787, "xwsi": 4788, "Dmj": 4789, "bndw": 4790, "rqrq": 4791, "mkHA": 4792, "bjdj": 4793, "sax": 4794, "Tpj": 4795, "xxj": 4796, "Tmzj": 4797, "nzA": 4798, "rqi": 4799, "swtx": 4800, "kAr": 4801, "imi": 4802, "mhAw": 4803, "mjy": 4804, "mv": 4805, "tpl": 4806, "Ss": 4807, "mSrr": 4808, "grH": 4809, "mAaj": 4810, "wnxwj": 4811, "jmTj": 4812, "mxj": 4813, "xpxp": 4814, "xrs": 4815, "sfxy": 4816, "jTT": 4817, "aHaj": 4818, "Hsb": 4819, "iwms": 4820, "aAa": 4821, "wbAw": 4822, "afn": 4823, "Da": 4824, "aDy": 4825, "qbjw": 4826, "sAT": 4827, "stf": 4828, "mjni": 4829, "xAst": 4830, "intnt": 4831, "Ddb": 4832, "wnS": 4833, "bAkjw": 4834, "jxma": 4835, "snwH": 4836, "SmSw": 4837, "jAds": 4838, "Tjwj": 4839, "kfAwj": 4840, "Hbd": 4841, "mnhD": 4842, "zpw": 4843, "kAnw": 4844, "TpHw": 4845, "irtiw": 4846, "tjt": 4847, "bAgj": 4848, "fAt": 4849, "aHAw": 4850, "szwnu": 4851, "nSA": 4852, "rSy": 4853, "mnS": 4854, "AgAp": 4855, "Hmsi": 4856, "Di": 4857, "pTy": 4858, "jmjr": 4859, "rrw": 4860, "swA": 4861, "iyriA": 4862, "sDb": 4863, "snnw": 4864, "qqi": 4865, "tx": 4866, "sxai": 4867, "jdAt": 4868, "Swj": 4869, "nfwy": 4870, "nXmH": 4871, "sD": 4872, "ntr": 4873, "mntn": 4874, "wrHw": 4875, "tjmwt": 4876, "kTs": 4877, "stpt": 4878, "aAfy": 4879, "rdm": 4880, "mfAk": 4881, "naj": 4882, "xfa": 4883, "jaj": 4884, "srwd": 4885, "qnjw": 4886, "xbr": 4887, "wxAxj": 4888, "knHw": 4889, "wHm": 4890, "wTsw": 4891, "THnw": 4892, "mtf": 4893, "nxy": 4894, "dd": 4895, "amw": 4896, "smk": 4897, "psDy": 4898, "mstt": 4899, "ihpy": 4900, "Drw": 4901, "nhsi": 4902, "Hp": 4903, "Xnnw": 4904, "mSkb": 4905, "shAi": 4906, "Sbw": 4907, "nhp": 4908, "spt": 4909, "jAb": 4910, "Dj": 4911, "tAj": 4912, "nm": 4913, "psH": 4914, "sk": 4915, "kHs": 4916, "rT": 4917, "zSzS": 4918, "swpl": 4919, "nhmh": 4920, "bsn": 4921, "maxnm": 4922, "iwa": 4923, "Hmww": 4924, "HDDw": 4925, "nnA": 4926, "mAayw": 4927, "nxnw": 4928, "Hnj": 4929, "tfi": 4930, "wbdj": 4931, "wAbwy": 4932, "nSjw": 4933, "gmH": 4934, "tjs": 4935, "swai": 4936, "xmi": 4937, "HDd": 4938, "nDrj": 4939, "xsbt": 4940, "sTnj": 4941, "bdt": 4942, "mAH": 4943, "wsdn": 4944, "kApw": 4945, "mXn": 4946, "bT": 4947, "HfDA": 4948, "qni": 4949, "DAhAy": 4950, "mAairt": 4951, "aDr": 4952, "Twynn": 4953, "sbxbx": 4954, "myh": 4955, "kpny": 4956, "ssAA": 4957, "wSa": 4958, "jsk": 4959, "Hrhr": 4960, "rSp": 4961, "Xnj": 4962, "manD": 4963, "mrr": 4964, "bby": 4965, "sStA": 4966, "Hbsd": 4967, "twbx": 4968, "xwrr": 4969, "TArArA": 4970, "mzj": 4971, "XdXd": 4972, "Afa": 4973, "twtw": 4974, "xfx": 4975, "r": 4976, "bSA": 4977, "nwy": 4978, "fd": 4979, "ppn": 4980, "mtt": 4981, "mHs": 4982, "Harw": 4983, "brk": 4984, "at": 4985, "tjn": 4986, "strps": 4987, "mjw": 4988, "Sb": 4989, "Ddtj": 4990, "nxtv": 4991, "qdd": 4992, "sisi": 4993, "jStt": 4994, "Swwj": 4995, "twA": 4996, "sHmm": 4997, "Hzjj": 4998, "fwt": 4999, "apAy": 5000, "awtj": 5001, "Tsj": 5002, "dni": 5003, "Tmzw": 5004, "wAwAw": 5005, "mann": 5006, "nAk": 5007, "hAbt": 5008, "s": 5009, "par": 5010, "wnwn": 5011, "ist": 5012, "ktkt": 5013, "tAsw": 5014, "smAwj": 5015, "qrja": 5016, "knz": 5017, "Haa": 5018, "dupl": 5019, "sXm": 5020, "insi": 5021, "jwgr": 5022, "ri": 5023, "DbAj": 5024, "mjwH": 5025, "pfs": 5026, "mtk": 5027, "nbsbs": 5028, "Sdt": 5029, "Hbnnwt": 5030, "jsx": 5031, "ssjw": 5032, "jmar": 5033, "tjHA": 5034, "ndby": 5035, "txnj": 5036, "wnnt": 5037, "wAnb": 5038, "mAaad": 5039, "mDAj": 5040, "ftk": 5041, "rwjAj": 5042, "swmnw": 5043, "sAhd": 5044, "mHH": 5045, "wjyt": 5046, "hAtt": 5047, "zHj": 5048, "xmnw": 5049, "nAtw": 5050, "sxti": 5051, "hbwt": 5052, "hh": 5053, "SmAj": 5054, "wgAy": 5055, "wrmr": 5056, "AhA": 5057, "fw": 5058, "bnana": 5059, "jdw": 5060, "zbw": 5061, "qrjs": 5062, "mxtm": 5063, "jAH": 5064, "prx": 5065, "Su": 5066, "knkf": 5067, "pry": 5068, "antw": 5069, "snsn": 5070, "tbH": 5071, "nHrnHr": 5072, "HAbt": 5073, "Dhy": 5074, "snwd": 5075, "ara": 5076, "smAwi": 5077, "bStw": 5078, "jrtA": 5079, "nyny": 5080, "hbAy": 5081, "bAbA": 5082, "sab": 5083, "HDi": 5084, "iaa": 5085, "sed": 5086, "TnTA": 5087, "dgm": 5088, "atxww": 5089, "Stp": 5090, "tyt": 5091, "abt": 5092, "jwSS": 5093, "pnqA": 5094, "ii": 5095, "sxpi": 5096, "sarq": 5097, "aAy": 5098, "Xaw": 5099, "sws": 5100, "Dnw": 5101, "qdy": 5102, "Xry": 5103, "wjsj": 5104, "xbt": 5105, "nmtA": 5106, "bwhd": 5107, "ntS": 5108, "wtx": 5109, "Any": 5110, "wAxi": 5111, "qai": 5112, "xws": 5113, "qAjs": 5114, "Ak": 5115, "jmnH": 5116, "mS": 5117, "wnmw": 5118, "anxw": 5119, "stH": 5120, "xaw": 5121, "hwv": 5122, "jxrqyn": 5123, "ADw": 5124, "prst": 5125, "pnn": 5126, "nmwy": 5127, "sXAy": 5128, "anj": 5129, "Snbb": 5130, "srwi": 5131, "dD": 5132, "mnTHt": 5133, "xAwy": 5134, "wDr": 5135, "stA": 5136, "TAhmw": 5137, "qdS": 5138, "gAf": 5139, "daq": 5140, "nmArT": 5141, "DbA": 5142, "jbsA": 5143, "jAa": 5144, "Sdjw": 5145, "nbu": 5146, "jt": 5147, "nxwy": 5148, "nfrwsy": 5149, "sxntt": 5150, "nbq": 5151, "nDrjw": 5152, "irqs": 5153, "rns": 5154, "mis": 5155, "dgAw": 5156, "jwdw": 5157, "nhrn": 5158, "wSAA": 5159, "ibib": 5160, "qAd": 5161, "sAswdsy": 5162, "mds": 5163, "mktr": 5164, "Sad": 5165, "khA": 5166, "tkn": 5167, "btA": 5168, "sHa": 5169, "psr": 5170, "bdS": 5171, "twj": 5172, "TAy": 5173, "brq": 5174, "psx": 5175, "wnSj": 5176, "mtwn": 5177, "snbj": 5178, "psn": 5179, "Hmwt": 5180, "Xss": 5181, "stjmw": 5182, "arr": 5183, "th": 5184, "skmyt": 5185, "SAss": 5186, "dHr": 5187, "mab": 5188, "ssnDm": 5189, "pyA": 5190, "jwrj": 5191, "psD": 5192, "sxsw": 5193, "SAmy": 5194, "SrS": 5195, "xprj": 5196, "xrps": 5197, "tA": 5198, "smAy": 5199, "jty": 5200, "pH": 5201, "bkAw": 5202, "kpA": 5203, "Sam": 5204, "tjy": 5205, "snhd": 5206, "sksky": 5207, "znSS": 5208, "shri": 5209, "bgAs": 5210, "jhAjj": 5211, "prr": 5212, "jsq": 5213, "jmpy": 5214, "yrmt": 5215, "Tp": 5216, "Atf": 5217, "jzwt": 5218, "xnS": 5219, "Hm": 5220, "afd": 5221, "marq": 5222, "sAdd": 5223, "wf": 5224, "Tjm": 5225, "bAb": 5226, "jmH": 5227, "nfry": 5228, "swa": 5229, "mniw": 5230, "rxj": 5231, "Hrjw": 5232, "nyS": 5233, "smHj": 5234, "wS": 5235, "tntm": 5236, "mtmt": 5237, "rkrk": 5238, "tjHn": 5239, "y": 5240, "nXX": 5241, "nSb": 5242, "SAmswt": 5243, "mxn": 5244, "wyw": 5245, "smt": 5246, "htt": 5247, "gz": 5248, "jpd": 5249, "xrtip": 5250, "jAkw": 5251, "tjS": 5252, "mktw": 5253, "Ati": 5254, "zmn": 5255, "saAm": 5256, "nDw": 5257, "qbHw": 5258, "bAgi": 5259, "sgAgA": 5260, "znny": 5261, "Xri": 5262, "mgA": 5263, "rkt": 5264, "mnws": 5265, "Tsy": 5266, "bh": 5267, "zTA": 5268, "wxrt": 5269, "mSrw": 5270, "dmj": 5271, "THnHn": 5272, "kSr": 5273, "ngAi": 5274, "jsj": 5275, "nbjw": 5276, "fnf": 5277, "qD": 5278, "brbr": 5279, "sgnn": 5280, "Tmj": 5281, "XAwj": 5282, "qhA": 5283, "hnr": 5284, "hAtyw": 5285, "Haw": 5286, "Hr": 5287, "xai": 5288, "zmAy": 5289, "dmw": 5290, "Xnk": 5291, "XArw": 5292, "mapw": 5293, "qbsw": 5294, "mdn": 5295, "Sfu": 5296, "bin": 5297, "nsns": 5298, "ksbw": 5299, "SnTT": 5300, "mhAj": 5301, "hnjt": 5302, "qri": 5303, "Tnm": 5304, "ant": 5305, "xiswn": 5306, "sft": 5307, "srdm": 5308, "snn": 5309, "DHy": 5310, "jSnn": 5311, "qaH": 5312, "sHwj": 5313, "HAwty": 5314, "sjnj": 5315, "jpp": 5316, "HryA": 5317, "DdA": 5318, "wDfA": 5319, "fAj": 5320, "jyH": 5321, "rjj": 5322, "bAgsw": 5323, "Tfw": 5324, "hAwy": 5325, "fxx": 5326, "zAhl": 5327, "nSz": 5328, "sbHy": 5329, "Awy": 5330, "HzA": 5331, "tbtb": 5332, "sAi": 5333, "aAA": 5334, "Tnrk": 5335, "mntst": 5336, "bsy": 5337, "jaq": 5338, "mrkb": 5339, "mkk": 5340, "msd": 5341, "ssD": 5342, "jmAxy": 5343, "sntrj": 5344, "piAy": 5345, "Tnh": 5346, "pT": 5347, "sHaw": 5348, "ad": 5349, "nAS": 5350, "ynw": 5351, "tdu": 5352, "Sdd": 5353, "sbgs": 5354, "irsw": 5355, "Saq": 5356, "sdd": 5357, "gnA": 5358, "mHj": 5359, "mHwy": 5360, "qnni": 5361, "TbAw": 5362, "zXi": 5363, "pgAs": 5364, "mrrj": 5365, "bry": 5366, "snD": 5367, "ntfj": 5368, "siwt": 5369, "wtnt": 5370, "Hnpnsw": 5371, "i": 5372, "wgm": 5373, "agA": 5374, "xnrT": 5375, "zbzb": 5376, "bTn": 5377, "Thw": 5378, "hT": 5379, "znhy": 5380, "jsS": 5381, "Twf": 5382, "bAw": 5383, "sSmj": 5384, "sXAw": 5385, "gwf": 5386, "nma": 5387, "swjb": 5388, "sAmt": 5389, "mnjnjw": 5390, "af": 5391, "qnn": 5392, "nSzz": 5393, "sHmi": 5394, "pyT": 5395, "tAw": 5396, "Snn": 5397, "pgf": 5398, "baH": 5399, "rrty": 5400, "jd": 5401, "wnw": 5402, "pj": 5403, "StA": 5404, "dH": 5405, "rwwj": 5406, "mnnw": 5407, "mit": 5408, "agi": 5409, "tity": 5410, "waf": 5411, "HA": 5412, "pAwa": 5413, "bjw": 5414, "mkj": 5415, "aHa": 5416, "nDa": 5417, "bHs": 5418, "bnrj": 5419, "rbH": 5420, "rqAjw": 5421, "fg": 5422, "wdns": 5423, "jbjb": 5424, "mAA": 5425, "Sfdw": 5426, "Sfyt": 5427, "Hbi": 5428, "jmS": 5429, "dnw": 5430, "bAdw": 5431, "sba": 5432, "Dpy": 5433, "bAjAwk": 5434, "zb": 5435, "dj": 5436, "nkjw": 5437, "xrd": 5438, "bwAy": 5439, "masw": 5440, "jAdr": 5441, "iT": 5442, "sri": 5443, "rnptw": 5444, "sxx": 5445, "jAg": 5446, "mXnw": 5447, "jj": 5448, "axAy": 5449, "wsr": 5450, "bhks": 5451, "sSrw": 5452, "hwakt": 5453, "nTn": 5454, "nHb": 5455, "dbHt": 5456, "htpw": 5457, "xrq": 5458, "xAsy": 5459, "Dnb": 5460, "ThTh": 5461, "rwn": 5462, "sHd": 5463, "hkA": 5464, "tv": 5465, "knmwt": 5466, "mn": 5467, "ng": 5468, "sjpd": 5469, "nTstn": 5470, "kwSn": 5471, "XAs": 5472, "sHjHt": 5473, "DrjDr": 5474, "mAmA": 5475, "HAb": 5476, "iptn": 5477, "rmnn": 5478, "pnjAt": 5479, "swtwt": 5480, "Drma": 5481, "kAy": 5482, "kAj": 5483, "jTy": 5484, "gfnw": 5485, "qbs": 5486, "Hrj": 5487, "wHmw": 5488, "sDAj": 5489, "jbA": 5490, "wHAm": 5491, "hAy": 5492, "pDww": 5493, "xAi": 5494, "jhAm": 5495, "rAw": 5496, "nbHH": 5497, "qt": 5498, "nhj": 5499, "da": 5500, "Dsr": 5501, "tH": 5502, "fdi": 5503, "sAb": 5504, "msdi": 5505, "nkA": 5506, "jrtjw": 5507, "sti": 5508, "fr": 5509, "sjpy": 5510, "tjwn": 5511, "Hnti": 5512, "HaA": 5513, "mSS": 5514, "sHnn": 5515, "ndm": 5516, "xwz": 5517, "n": 5518, "msnT": 5519, "Ttw": 5520, "Hwrn": 5521, "tfnw": 5522, "Xpj": 5523, "idmm": 5524, "tkkj": 5525, "jaanjj": 5526, "Sy": 5527, "inhmn": 5528, "jnHw": 5529, "jrksndrs": 5530, "jAm": 5531, "aHA": 5532, "HnHn": 5533, "try": 5534, "Xnty": 5535, "yna": 5536, "hArp": 5537, "Ah": 5538, "hAbw": 5539, "SDtm": 5540, "iAbty": 5541, "Spsi": 5542, "hrr": 5543, "zft": 5544, "pwfj": 5545, "bAnd": 5546, "swtX": 5547, "mndyw": 5548, "xnmy": 5549, "bhd": 5550, "jgA": 5551, "Hrw": 5552, "wrn": 5553, "mtri": 5554, "Dddi": 5555, "TAw": 5556, "Tfjw": 5557, "jptwt": 5558, "aip": 5559, "dbjw": 5560, "tiw": 5561, "zzi": 5562, "nwx": 5563, "rSwj": 5564, "Atj": 5565, "snnj": 5566, "abS": 5567, "njtjt": 5568, "gnS": 5569, "fss": 5570, "iTA": 5571, "Ssm": 5572, "mnttn": 5573, "Hkw": 5574, "xj": 5575, "bAkj": 5576, "pAqr": 5577, "bak": 5578, "twnj": 5579, "rh": 5580, "sAtw": 5581, "kafw": 5582, "Day": 5583, "rd": 5584, "baHi": 5585, "Dad": 5586, "iry": 5587, "msq": 5588, "prT": 5589, "bArs": 5590, "wwj": 5591, "py": 5592, "TjA": 5593, "jrwv": 5594, "sgrT": 5595, "tm": 5596, "gmgm": 5597, "dx": 5598, "nSbSb": 5599, "rfrf": 5600, "wAgj": 5601, "sz": 5602, "isp": 5603, "spxA": 5604, "iwrt": 5605, "sXr": 5606, "sS": 5607, "trq": 5608, "nnw": 5609, "Drt": 5610, "Aaany": 5611, "hjms": 5612, "mnz": 5613, "sAks": 5614, "pzH": 5615, "sAww": 5616, "xnrj": 5617, "qbb": 5618, "btw": 5619, "txi": 5620, "txtx": 5621, "bAs": 5622, "wdi": 5623, "awAi": 5624, "mkHAy": 5625, "Dbi": 5626, "tjtw": 5627, "mTdt": 5628, "xtr": 5629, "jnnA": 5630, "tzm": 5631, "jnw": 5632, "jwdn": 5633, "jnf": 5634, "amaa": 5635, "jbb": 5636, "bnbn": 5637, "jAsj": 5638, "Hzr": 5639, "nxb": 5640, "stAy": 5641, "Htm": 5642, "Dzf": 5643, "Tnf": 5644, "mnq": 5645, "Adj": 5646, "Drpt": 5647, "XAk": 5648, "skA": 5649, "Asy": 5650, "stwA": 5651, "sak": 5652, "sXAww": 5653, "hnjnj": 5654, "Xby": 5655, "xAz": 5656, "Hdp": 5657, "Ts": 5658, "SAbdj": 5659, "rki": 5660, "jAp": 5661, "DAb": 5662, "hy": 5663, "bdd": 5664, "nSni": 5665, "sAD": 5666, "rwjj": 5667, "kAhb": 5668, "skAw": 5669, "jten": 5670, "Dwt": 5671, "Trj": 5672, "kAn": 5673, "tikgArw": 5674, "Ttwj": 5675, "hTt": 5676, "nfryw": 5677, "ytx": 5678, "drpw": 5679, "SAd": 5680, "Hknw": 5681, "sbdS": 5682, "tri": 5683, "qhq": 5684, "aDdj": 5685, "Satj": 5686, "SAr": 5687, "mHDm": 5688, "jnD": 5689, "mHjw": 5690, "wTn": 5691, "axx": 5692, "mAT": 5693, "mrp": 5694, "sbA": 5695, "aDAw": 5696, "wra": 5697, "mby": 5698, "srti": 5699, "iwwA": 5700, "XAp": 5701, "nDmj": 5702, "jsw": 5703, "dqw": 5704, "jnki": 5705, "AbA": 5706, "irs": 5707, "jTf": 5708, "qnqn": 5709, "Swi": 5710, "ssw": 5711, "sXnk": 5712, "tkk": 5713, "xax": 5714, "rsf": 5715, "iwr": 5716, "praA": 5717, "bxnj": 5718, "tjmHw": 5719, "rkHy": 5720, "iqrw": 5721, "iai": 5722, "jyAy": 5723, "xS": 5724, "wtn": 5725, "snjy": 5726, "iHy": 5727, "HAqAj": 5728, "wDfi": 5729, "qaw": 5730, "snt": 5731, "ywj": 5732, "qAw": 5733, "sXAk": 5734, "tjntjn": 5735, "tStS": 5736, "pHti": 5737, "nA": 5738, "rdH": 5739, "tpHw": 5740, "zXA": 5741, "bzj": 5742, "bHH": 5743, "Hq": 5744, "irwn": 5745, "rwti": 5746, "sdt": 5747, "Ddpt": 5748, "xbit": 5749, "pyr": 5750, "TnH": 5751, "swmyn": 5752, "jzr": 5753, "ipA": 5754, "SdHw": 5755, "DAssw": 5756, "Tftn": 5757, "wpj": 5758, "mkr": 5759, "nny": 5760, "jAr": 5761, "qrq": 5762, "rAHwDAti": 5763, "snfj": 5764, "sSn": 5765, "jkrjt": 5766, "sSpw": 5767, "sbAqq": 5768, "Hknj": 5769, "apr": 5770, "nSnn": 5771, "waAwj": 5772, "mnts": 5773, "mti": 5774, "saqw": 5775, "swtn": 5776, "jpyw": 5777, "znw": 5778, "SaT": 5779, "df": 5780, "aDA": 5781, "sAqty": 5782, "qfqfA": 5783, "twr": 5784, "madn": 5785, "Sndy": 5786, "Snbty": 5787, "zr": 5788, "dAb": 5789, "qnyw": 5790, "Snajw": 5791, "aAmw": 5792, "apSA": 5793, "sAy": 5794, "sbAw": 5795, "tw": 5796, "dp": 5797, "mjs": 5798, "jTw": 5799, "xrxr": 5800, "snwx": 5801, "jmr": 5802, "ipn": 5803, "hAj": 5804, "SwAww": 5805, "fktt": 5806, "mHsHs": 5807, "pbx": 5808, "afq": 5809, "swAD": 5810, "snhs": 5811, "xxw": 5812, "Xtti": 5813, "Xnn": 5814, "msxry": 5815, "mtjw": 5816, "pltk": 5817, "Tjf": 5818, "Smi": 5819, "xnsy": 5820, "Xp": 5821, "pAs": 5822, "bnjA": 5823, "bAkjwj": 5824, "sAkA": 5825, "xnT": 5826, "btj": 5827, "xbAy": 5828, "abnx": 5829, "tmAm": 5830, "Swyty": 5831, "a": 5832, "nSnj": 5833, "sjkn": 5834, "wiAwiA": 5835, "F": 5836, "jAxx": 5837, "TAb": 5838, "sra": 5839, "jATrn": 5840, "jwsA": 5841, "tiHsw": 5842, "mAHj": 5843, "rhn": 5844, "iyty": 5845, "Xryw": 5846, "marj": 5847, "wAw": 5848, "bq": 5849, "nHsi": 5850, "mjj": 5851, "rhnj": 5852, "Spsw": 5853, "xfty": 5854, "byt": 5855, "ndfdf": 5856, "rApr": 5857, "sTy": 5858, "Ahm": 5859, "mSd": 5860, "bAndw": 5861, "nsSm": 5862, "smsm": 5863, "Amsw": 5864, "sswn": 5865, "Hjy": 5866, "stjw": 5867, "pnTw": 5868, "rwyt": 5869, "mky": 5870, "bjnr": 5871, "imsk": 5872, "mDwj": 5873, "xwzi": 5874, "wAst": 5875, "srk": 5876, "dHaHr": 5877, "mnHt": 5878, "pwn": 5879, "zwnu": 5880, "jw": 5881, "wnwt": 5882, "wsxt": 5883, "mnHw": 5884, "HnggA": 5885, "SAS": 5886, "tmt": 5887, "atrf": 5888, "qrqS": 5889, "afAw": 5890, "jttw": 5891, "TAj": 5892, "tfy": 5893, "dgg": 5894, "dnH": 5895, "wSi": 5896, "stkn": 5897, "mgr": 5898, "saAy": 5899, "aHwwtj": 5900, "xwA": 5901, "Tnj": 5902, "rnw": 5903, "rxty": 5904, "aanj": 5905, "xpnw": 5906, "dnjt": 5907, "jTAy": 5908, "prhq": 5909, "jwnn": 5910, "Tjs": 5911, "ararw": 5912, "Hrst": 5913, "xbD": 5914, "Hsw": 5915, "sxtiw": 5916, "thA": 5917, "xAf": 5918, "gAp": 5919, "zy": 5920, "HwA": 5921, "mnwr": 5922, "Hsmn": 5923, "jTi": 5924, "tjwnrw": 5925, "xkr": 5926, "jAbD": 5927, "nim": 5928, "ipwy": 5929, "rmi": 5930, "wAA": 5931, "jArj": 5932, "whAjw": 5933, "rj": 5934, "hA": 5935, "saqA": 5936, "sTi": 5937, "mAa": 5938, "sfw": 5939, "jAnrw": 5940, "dy": 5941, "nrAw": 5942, "tra": 5943, "nAr": 5944, "ksk": 5945, "mjt": 5946, "qmq": 5947, "jStA": 5948, "rSn": 5949, "pnana": 5950, "wDAA": 5951, "xssp": 5952, "inty": 5953, "jnp": 5954, "zx": 5955, "mmjt": 5956, "ATp": 5957, "wnrn": 5958, "rTn": 5959, "fkw": 5960, "sXnn": 5961, "niA": 5962, "gAnn": 5963, "jmbjj": 5964, "Axi": 5965, "mHv": 5966, "mjnn": 5967, "aztrt": 5968, "Srr": 5969, "kd": 5970, "biAy": 5971, "wdnw": 5972, "skmm": 5973, "tns": 5974, "npi": 5975, "mdA": 5976, "pd": 5977, "bjTw": 5978, "aHw": 5979, "nmHy": 5980, "ddw": 5981, "Sw": 5982, "knknm": 5983, "Tkr": 5984, "zmy": 5985, "jAxt": 5986, "nxbxb": 5987, "nbD": 5988, "iAi": 5989, "wnm": 5990, "npAwt": 5991, "ssim": 5992, "mtny": 5993, "wng": 5994, "Thb": 5995, "iwf": 5996, "TrTr": 5997, "Ttj": 5998, "qmhm": 5999, "Sbnw": 6000, "btyt": 6001, "mwj": 6002, "btbt": 6003, "qmAH": 6004, "janw": 6005, "swhj": 6006, "Hmgj": 6007, "nmw": 6008, "HTA": 6009, "mAt": 6010, "axtwy": 6011, "wAwAj": 6012, "ApH": 6013, "nHt": 6014, "jp": 6015, "Az": 6016, "jHwn": 6017, "titi": 6018, "iAwi": 6019, "jhmn": 6020, "rsy": 6021, "inb": 6022, "spAi": 6023, "kAmAtit": 6024, "TAu": 6025, "zSj": 6026, "ngArw": 6027, "wrww": 6028, "skj": 6029, "nbdw": 6030, "rhm": 6031, "wnpp": 6032, "xmnty": 6033, "irA": 6034, "jAd": 6035, "Dd": 6036, "tjmH": 6037, "idb": 6038, "gmm": 6039, "ihm": 6040, "xbd": 6041, "Htrj": 6042, "rbrn": 6043, "wjAw": 6044, "swgA": 6045, "nhAw": 6046, "wnmi": 6047, "snS": 6048, "sTn": 6049, "bgs": 6050, "Agg": 6051, "jSt": 6052, "TmTj": 6053, "kaf": 6054, "hjj": 6055, "hims": 6056, "tby": 6057, "Tsjs": 6058, "sjAA": 6059, "dbtj": 6060, "mAi": 6061, "Hpq": 6062, "kmkm": 6063, "Xrm": 6064, "jtA": 6065, "nis": 6066, "wgs": 6067, "rks": 6068, "wAnr": 6069, "tAdu": 6070, "aan": 6071, "isb": 6072, "qHqH": 6073, "snjk": 6074, "bz": 6075, "fnx": 6076, "Sdj": 6077, "hrATyqAHw": 6078, "ntb": 6079, "bAxn": 6080, "dAdA": 6081, "swrx": 6082, "HAgj": 6083, "stni": 6084, "mnDr": 6085, "srm": 6086, "Abnn": 6087, "wSd": 6088, "snTr": 6089, "pzf": 6090, "wti": 6091, "tfA": 6092, "Sdi": 6093, "im": 6094, "Hkk": 6095, "sXi": 6096, "khb": 6097, "hwhw": 6098, "Dhwt": 6099, "sdx": 6100, "tyA": 6101, "adt": 6102, "mty": 6103, "mkjw": 6104, "sTA": 6105, "pAwytj": 6106, "Hnnksty": 6107, "wnDw": 6108, "xbbj": 6109, "iwiw": 6110, "srit": 6111, "sxa": 6112, "mwsS": 6113, "mAddwj": 6114, "qAa": 6115, "jHyty": 6116, "wHy": 6117, "ani": 6118, "mAr": 6119, "sH": 6120, "nHni": 6121, "DAbH": 6122, "Spsj": 6123, "jbHw": 6124, "kAri": 6125, "jSd": 6126, "wx": 6127, "mATA": 6128, "naAD": 6129, "pAwj": 6130, "dpw": 6131, "wstn": 6132, "nxA": 6133, "pAwty": 6134, "Smay": 6135, "wnjs": 6136, "aynn": 6137, "vr": 6138, "zA": 6139, "atj": 6140, "nmty": 6141, "qHH": 6142, "Hpn": 6143, "twbn": 6144, "wry": 6145, "DrT": 6146, "jnktt": 6147, "pAD": 6148, "arrw": 6149, "hhb": 6150, "jsbrr": 6151, "msj": 6152, "iATw": 6153, "tin": 6154, "sdy": 6155, "ptx": 6156, "dmdj": 6157, "db": 6158, "wAr": 6159, "mDt": 6160, "tptyw": 6161, "ibs": 6162, "any": 6163, "pAqt": 6164, "Hpa": 6165, "Tkm": 6166, "sfrnfr": 6167, "iDr": 6168, "wsrk": 6169, "spytkhrspsrmkk": 6170, "mAjs": 6171, "Apdw": 6172, "SAwy": 6173, "sqbb": 6174, "psj": 6175, "sAr": 6176, "dwnj": 6177, "sbAy": 6178, "tjr": 6179, "agnj": 6180, "bqa": 6181, "dqr": 6182, "XAm": 6183, "mnt": 6184, "maDA": 6185, "dpr": 6186, "m": 6187, "mnxt": 6188, "rDww": 6189, "aHai": 6190, "fAw": 6191, "tfrr": 6192, "sniw": 6193, "mafk": 6194, "Hdqq": 6195, "irrpx": 6196, "sAwi": 6197, "rnnw": 6198, "nhwnhw": 6199, "aHm": 6200, "saiw": 6201, "tjdwj": 6202, "agnn": 6203, "sDAHy": 6204, "ptti": 6205, "iTm": 6206, "abw": 6207, "wtj": 6208, "sDHw": 6209, "idn": 6210, "thAb": 6211, "snfr": 6212, "SsdA": 6213, "HwAA": 6214, "mabAyw": 6215, "nbty": 6216, "mrrw": 6217, "wDAj": 6218, "xpnpn": 6219, "amD": 6220, "jAz": 6221, "swgm": 6222, "nHA": 6223, "nik": 6224, "swnnw": 6225, "bjAj": 6226, "shr": 6227, "hftj": 6228, "xAbA": 6229, "tjwtj": 6230, "zbnbn": 6231, "DAa": 6232, "ay": 6233, "xmy": 6234, "THHwy": 6235, "spXrw": 6236, "Dwwj": 6237, "pfj": 6238, "zpA": 6239, "ptpt": 6240, "jnxj": 6241, "nj": 6242, "kAjry": 6243, "ajmw": 6244, "grr": 6245, "itt": 6246, "mnDj": 6247, "jTAw": 6248, "iar": 6249, "ssm": 6250, "gAHsy": 6251, "smntw": 6252, "in": 6253, "nkftr": 6254, "mam": 6255, "raHqA": 6256, "jAtf": 6257, "stwh": 6258, "anTj": 6259, "dA": 6260, "nHD": 6261, "Hfj": 6262, "znnw": 6263, "zX": 6264, "wd": 6265, "jmAxwt": 6266, "sfxx": 6267, "ssbq": 6268, "Dns": 6269, "Dnrm": 6270, "ttt": 6271, "aXm": 6272, "msdmt": 6273, "jzw": 6274, "wjwj": 6275, "jAHsj": 6276, "sAm": 6277, "hAyn": 6278, "mnDm": 6279, "sAhAr": 6280, "rxsn": 6281, "dut": 6282, "sxwd": 6283, "wtt": 6284, "nfrty": 6285, "jbt": 6286, "Htb": 6287, "Ttf": 6288, "Haj": 6289, "mXnm": 6290, "wjv": 6291, "kADn": 6292, "imywty": 6293, "iwh": 6294, "yn": 6295, "thAm": 6296, "jbAj": 6297, "qniw": 6298, "ajn": 6299, "kHb": 6300, "wsrkn": 6301, "HAi": 6302, "Hiw": 6303, "ADA": 6304, "tyr": 6305, "kmH": 6306, "rjA": 6307, "maSd": 6308, "zxi": 6309, "bwt": 6310, "fAkA": 6311, "xam": 6312, "gmi": 6313, "aAgA": 6314, "mamjA": 6315, "wADAD": 6316, "nsrsr": 6317, "Hw": 6318, "aHar": 6319, "jH": 6320, "ws": 6321, "DHa": 6322, "rv": 6323, "bAS": 6324, "ywpA": 6325, "Xnwj": 6326, "wbs": 6327, "nmnmy": 6328, "ssf": 6329, "nSdy": 6330, "rjwy": 6331, "istrsk": 6332, "mAv": 6333, "gAbgAy": 6334, "jhh": 6335, "kAjA": 6336, "abA": 6337, "irnT": 6338, "sSS": 6339, "srsr": 6340, "axm": 6341, "SAms": 6342, "tjd": 6343, "ksy": 6344, "Dsrj": 6345, "bsA": 6346, "bwnA": 6347, "msv": 6348, "hAyt": 6349, "snd": 6350, "SAp": 6351, "gr": 6352, "drp": 6353, "rwy": 6354, "tjpl": 6355, "jHdjy": 6356, "prS": 6357, "Hzzj": 6358, "arfn": 6359, "syf": 6360, "d": 6361, "zXAw": 6362, "mDq": 6363, "xtmt": 6364, "nAjrrf": 6365, "Hwy": 6366, "hAq": 6367, "wnj": 6368, "HnA": 6369, "tftf": 6370, "AbDw": 6371, "Sat": 6372, "mAdy": 6373, "astj": 6374, "wypl": 6375, "rHs": 6376, "si": 6377, "ishA": 6378, "tjypl": 6379, "dxn": 6380, "sbx": 6381, "rnwy": 6382, "xAtw": 6383, "mss": 6384, "kni": 6385, "pAfj": 6386, "SAti": 6387, "thAj": 6388, "jmntt": 6389, "wdfj": 6390, "snm": 6391, "Hrr": 6392, "AHA": 6393, "bAg": 6394, "mh": 6395, "HnswA": 6396, "jwnwj": 6397, "xnj": 6398, "wHn": 6399, "naw": 6400, "rwd": 6401, "XTb": 6402, "mAn": 6403, "DrDry": 6404, "wjT": 6405, "tAnw": 6406, "saH": 6407, "zAy": 6408, "gAbgAb": 6409, "twrp": 6410, "wpS": 6411, "mwaD": 6412, "jkrT": 6413, "km": 6414, "tjmA": 6415, "rHn": 6416, "Aj": 6417, "nTHTH": 6418, "Sdty": 6419, "Hbnnw": 6420, "wrH": 6421, "ngAw": 6422, "Hzp": 6423, "iwti": 6424, "wrSw": 6425, "nAmr": 6426, "Tzm": 6427, "yrqy": 6428, "dwdw": 6429, "Sna": 6430, "qrDn": 6431, "bHdt": 6432, "fsw": 6433, "dmdm": 6434, "iyr": 6435, "hATs": 6436, "stS": 6437, "nhdhd": 6438, "kASn": 6439, "xmj": 6440, "sHq": 6441, "Ayw": 6442, "Swt": 6443, "jHTj": 6444, "nmst": 6445, "xtA": 6446, "mdj": 6447, "ihbw": 6448, "SS": 6449, "mntsst": 6450, "bDt": 6451, "bTA": 6452, "snTi": 6453, "ndj": 6454, "sTsi": 6455, "saSA": 6456, "mnm": 6457, "Hww": 6458, "sxty": 6459, "awAy": 6460, "kyj": 6461, "iwpy": 6462, "sdSr": 6463, "aSm": 6464, "swsn": 6465, "nHs": 6466, "kAkA": 6467, "sjdi": 6468, "zty": 6469, "nbdj": 6470, "sjni": 6471, "sTT": 6472, "qDt": 6473, "Stm": 6474, "ngs": 6475, "gAsA": 6476, "XsAj": 6477, "kHkH": 6478, "nmnm": 6479, "sApArwrw": 6480, "sj": 6481, "nAHAj": 6482, "Hnmnm": 6483, "syfy": 6484, "ssAi": 6485, "Ddw": 6486, "wnDr": 6487, "fyt": 6488, "xpd": 6489, "twi": 6490, "ibi": 6491, "Au": 6492, "hq": 6493, "isty": 6494, "jDH": 6495, "hapj": 6496, "nah": 6497, "xnr": 6498, "itrw": 6499, "xnrty": 6500, "ztt": 6501, "add": 6502, "Hny": 6503, "sjm": 6504, "mSaw": 6505, "ddn": 6506, "wh": 6507, "mtAw": 6508, "snpw": 6509, "mHty": 6510, "rbsnn": 6511, "jAD": 6512, "yptH": 6513, "Awr": 6514, "mdsy": 6515, "nHbw": 6516, "jbw": 6517, "twnpj": 6518, "wgAsw": 6519, "p": 6520, "sjsn": 6521, "mz": 6522, "xtn": 6523, "awnw": 6524, "SD": 6525, "sfA": 6526, "SdSd": 6527, "kwr": 6528, "tAhArqA": 6529, "hmy": 6530, "nby": 6531, "nb": 6532, "Hqq": 6533, "gsw": 6534, "jti": 6535, "Hdt": 6536, "njwjw": 6537, "shtht": 6538, "ftj": 6539, "ab": 6540, "inm": 6541, "kttA": 6542, "dndw": 6543, "nprj": 6544, "DAmw": 6545, "xti": 6546, "smwn": 6547, "rwnA": 6548, "imnw": 6549, "Hwry": 6550, "HAs": 6551, "nrj": 6552, "iqHw": 6553, "pl": 6554, "yHj": 6555, "Sn": 6556, "stAw": 6557, "pjAy": 6558, "Hmaw": 6559, "SsSs": 6560, "mkA": 6561, "dbj": 6562, "afA": 6563, "jwbw": 6564, "qmqm": 6565, "xny": 6566, "sgAp": 6567, "dmA": 6568, "jxxj": 6569, "fyfy": 6570, "hss": 6571, "ftti": 6572, "HrTs": 6573, "wdu": 6574, "jri": 6575, "xnmj": 6576, "DfDfDf": 6577, "ktxj": 6578, "mTn": 6579, "sdH": 6580, "hsh": 6581, "ztp": 6582, "Ajs": 6583, "psgA": 6584, "tHt": 6585, "bHd": 6586, "Hbn": 6587, "wnf": 6588, "qmjw": 6589, "jwawHa": 6590, "DjDj": 6591, "h": 6592, "npj": 6593, "jmskA": 6594, "jdAm": 6595, "Ddi": 6596, "Hmz": 6597, "wDaa": 6598, "qraw": 6599, "hnwy": 6600, "bqn": 6601, "prwx": 6602, "ssAty": 6603, "jzhn": 6604, "rdy": 6605, "Ast": 6606, "jwjw": 6607, "xdm": 6608, "SAmxAbw": 6609, "rxjw": 6610, "rat": 6611, "jrHnn": 6612, "Thnw": 6613, "gAgAu": 6614, "pxr": 6615, "ntwt": 6616, "pxAd": 6617, "sky": 6618, "mrj": 6619, "jrrpx": 6620, "DiDi": 6621, "zi": 6622, "xpp": 6623, "jknS": 6624, "HDwy": 6625, "dmd": 6626, "zrjw": 6627, "tkAt": 6628, "xy": 6629, "smtr": 6630, "sAHw": 6631, "srS": 6632, "qzn": 6633, "xar": 6634, "nmi": 6635, "tXs": 6636, "ru": 6637, "smAr": 6638, "ksb": 6639, "dmg": 6640, "xnmm": 6641, "jhy": 6642, "anrki": 6643, "rsw": 6644, "sfj": 6645, "awa": 6646, "sXrj": 6647, "naHr": 6648, "bqyt": 6649, "Am": 6650, "tmAy": 6651, "sxmx": 6652, "zAb": 6653, "sASr": 6654, "manw": 6655, "sxpt": 6656, "mzHw": 6657, "zxn": 6658, "qba": 6659, "nnt": 6660, "bxb": 6661, "hn": 6662, "jzA": 6663, "Dft": 6664, "nfrydj": 6665, "Xnmt": 6666, "snh": 6667, "jdHw": 6668, "nsy": 6669, "hrti": 6670, "DHtj": 6671, "Xi": 6672, "snq": 6673, "sXa": 6674, "iwSA": 6675, "jnit": 6676, "jmtwy": 6677, "TAwm": 6678, "btk": 6679, "sDw": 6680, "sfxj": 6681, "znf": 6682, "wStiht": 6683, "sSrr": 6684, "kAry": 6685, "jwnry": 6686, "nbsy": 6687, "rwj": 6688, "swtS": 6689, "mnxw": 6690, "mdd": 6691, "bnw": 6692, "xnD": 6693, "rtnw": 6694, "pDtiw": 6695, "sfr": 6696, "gwtn": 6697, "xpSy": 6698, "hApl": 6699, "Vb": 6700, "njnkn": 6701, "snri": 6702, "sA": 6703, "dnD": 6704, "SASAy": 6705, "spXr": 6706, "anp": 6707, "sqjj": 6708, "iDA": 6709, "amA": 6710, "btq": 6711, "rmny": 6712, "Hwa": 6713, "aXi": 6714, "pATT": 6715, "bsbs": 6716, "tjHwt": 6717, "Htpt": 6718, "sy": 6719, "jdy": 6720, "xdbw": 6721, "nxT": 6722, "xAsw": 6723, "gA": 6724, "rksw": 6725, "ky": 6726, "TArw": 6727, "HbAbA": 6728, "jnty": 6729, "sni": 6730, "maHAw": 6731, "xmmj": 6732, "tfjw": 6733, "l": 6734, "jAtw": 6735, "hmAA": 6736, "bnri": 6737, "Hwrw": 6738, "jbdj": 6739, "nhzj": 6740, "qHj": 6741, "id": 6742, "nt": 6743, "Dswi": 6744, "stjS": 6745, "rpt": 6746, "Verb": 6747, "twf": 6748, "kfAy": 6749, "Tzz": 6750, "sabA": 6751, "gwA": 6752, "nTb": 6753, "thb": 6754, "hnqw": 6755, "kri": 6756, "SAb": 6757, "imm": 6758, "sjwy": 6759, "dgAsAj": 6760, "DAH": 6761, "nxnj": 6762, "nDnDy": 6763, "pxAjw": 6764, "spAwt": 6765, "wxA": 6766, "TmA": 6767, "whAn": 6768, "nHnj": 6769, "bXn": 6770, "tjmy": 6771, "kh": 6772, "snhj": 6773, "mhwj": 6774, "Drr": 6775, "njk": 6776, "xbn": 6777, "rDi": 6778, "mna": 6779, "wrktr": 6780, "DAma": 6781, "zmj": 6782, "nwjw": 6783, "pHtj": 6784, "xrb": 6785, "ibht": 6786, "kpr": 6787, "Ddn": 6788, "xbi": 6789, "ts": 6790, "nznzn": 6791, "tmpsy": 6792, "hnj": 6793, "SsAw": 6794, "jsDd": 6795, "whAnj": 6796, "xArj": 6797, "txn": 6798, "jwtw": 6799, "rpH": 6800, "twiA": 6801, "pnz": 6802, "skrj": 6803, "dfi": 6804, "sHnj": 6805, "xzAw": 6806, "pgA": 6807, "kH": 6808, "aHAwtj": 6809, "hAnw": 6810, "iwAiw": 6811, "wAxj": 6812, "sfg": 6813, "Hsp": 6814, "krA": 6815, "DDnn": 6816, "zAwj": 6817, "nSf": 6818, "Srw": 6819, "nAy": 6820, "jSrw": 6821, "ja": 6822, "xprpw": 6823, "bTAwy": 6824, "knf": 6825, "swAA": 6826, "wsi": 6827, "wATj": 6828, "SAk": 6829, "wdA": 6830, "sDdm": 6831, "gASj": 6832, "mAz": 6833, "jbrj": 6834, "ixx": 6835, "knt": 6836, "ptrj": 6837, "dmr": 6838, "Axty": 6839, "iwty": 6840, "hrTT": 6841, "sbr": 6842, "skmy": 6843, "sx": 6844, "jjj": 6845, "wjA": 6846, "Amj": 6847, "xd": 6848, "sbgA": 6849, "Ajj": 6850, "stwt": 6851, "Hmtj": 6852, "pSn": 6853, "TAwy": 6854, "jpwj": 6855, "mrrn": 6856, "DAD": 6857, "zzHA": 6858, "sHn": 6859, "ui": 6860, "tpwiA": 6861, "njsw": 6862, "rnpt": 6863, "wSr": 6864, "HntAsw": 6865, "aawi": 6866, "bnn": 6867, "mnhz": 6868, "bAbwj": 6869, "prxj": 6870, "HAqA": 6871, "HrH": 6872, "HDHD": 6873, "ntn": 6874, "nfaj": 6875, "zbb": 6876, "bjbj": 6877, "sHHy": 6878, "dhA": 6879, "iwS": 6880, "jtHwj": 6881, "gbj": 6882, "rssy": 6883, "sqfn": 6884, "rpl": 6885, "jmti": 6886, "ihw": 6887, "amAT": 6888, "dsr": 6889, "paa": 6890, "bkn": 6891, "tnr": 6892, "amam": 6893, "xnx": 6894, "wna": 6895, "sthb": 6896, "ftft": 6897, "mrrt": 6898, "msbb": 6899, "fndy": 6900, "xtAsArA": 6901, "saHa": 6902, "xdi": 6903, "xsA": 6904, "nwdj": 6905, "dwn": 6906, "dHdH": 6907, "Sjk": 6908, "mntD": 6909, "hbAq": 6910, "dg": 6911, "irp": 6912, "kmrj": 6913, "wrS": 6914, "fnwt": 6915, "zAAw": 6916, "Twn": 6917, "tks": 6918, "krHt": 6919, "sna": 6920, "sAd": 6921, "jx": 6922, "dgA": 6923, "knH": 6924, "rmni": 6925, "fT": 6926, "imnty": 6927, "Ams": 6928, "bAn": 6929, "gsA": 6930, "kbnw": 6931, "smty": 6932, "sjArr": 6933, "tSA": 6934, "mxAjw": 6935, "tjHwj": 6936, "jhm": 6937, "smry": 6938, "iqr": 6939, "jHj": 6940, "njAjA": 6941, "qrAjw": 6942, "Ajr": 6943, "Xrty": 6944, "mDqt": 6945, "jkw": 6946, "ktty": 6947, "hnA": 6948, "msDD": 6949, "gAgA": 6950, "nDH": 6951, "jmAxj": 6952, "tAHn": 6953, "xftj": 6954, "shbu": 6955, "Ha": 6956, "Sbi": 6957, "qfdn": 6958, "jtn": 6959, "sxn": 6960, "twt": 6961, "hAdm": 6962, "maHa": 6963, "nay": 6964, "jsf": 6965, "wDt": 6966, "DAsj": 6967, "Sby": 6968, "sTAz": 6969, "stj": 6970, "hni": 6971, "jrT": 6972, "txf": 6973, "Hdq": 6974, "hw": 6975, "ASn": 6976, "bjnrj": 6977, "arrn": 6978, "rnpw": 6979, "drf": 6980, "xx": 6981, "aDj": 6982, "qra": 6983, "tms": 6984, "ntwf": 6985, "jHdj": 6986, "nsyw": 6987, "Dnwd": 6988, "sjwr": 6989, "tnhm": 6990, "xsD": 6991, "hAmm": 6992, "fi": 6993, "Sftw": 6994, "jwsdn": 6995, "mnbt": 6996, "Hab": 6997, "Xdbw": 6998, "jAt": 6999, "Dbwj": 7000, "DAt": 7001, "mjmj": 7002, "xAytj": 7003, "snwr": 7004, "fdk": 7005, "jnsi": 7006, "wrx": 7007, "SmAy": 7008, "swAH": 7009, "srdd": 7010, "pfsi": 7011, "ibr": 7012, "ns": 7013, "sDwj": 7014, "nArf": 7015, "sfd": 7016, "sTHn": 7017, "akk": 7018, "Sdy": 7019, "sSAw": 7020, "swSr": 7021, "ihAy": 7022, "xbxb": 7023, "jsqA": 7024, "tinn": 7025, "krj": 7026, "tbnti": 7027, "wnx": 7028, "mki": 7029, "Atw": 7030, "bjn": 7031, "Trx": 7032, "Hjpy": 7033, "Hbs": 7034, "jptw": 7035, "TzTz": 7036, "TsjA": 7037, "mSSr": 7038, "jrn": 7039, "mfkA": 7040, "gbA": 7041, "szbi": 7042, "jz": 7043, "sxann": 7044, "SAbw": 7045, "kAwj": 7046, "THHw": 7047, "THs": 7048, "jbTrs": 7049, "pX": 7050, "mTnw": 7051, "fngA": 7052, "hnd": 7053, "tb": 7054, "tnn": 7055, "zp": 7056, "bbj": 7057, "prTrsw": 7058, "sjqr": 7059, "HnH": 7060, "sbjAt": 7061, "HknH": 7062, "aAgsw": 7063, "yt": 7064, "mjnbjw": 7065, "bky": 7066, "Hrtyw": 7067, "xntt": 7068, "aAgAs": 7069, "hdn": 7070, "aDAj": 7071, "hbhb": 7072, "tu": 7073, "ir": 7074, "gbw": 7075, "sHwn": 7076, "kAiA": 7077, "mxnti": 7078, "js": 7079, "mddw": 7080, "wAgi": 7081, "mDH": 7082, "XaA": 7083, "jsfy": 7084, "wnny": 7085, "hbq": 7086, "qmAw": 7087, "jAdj": 7088, "spS": 7089, "sHs": 7090, "dkA": 7091, "sdA": 7092, "jpATj": 7093, "Snf": 7094, "mhy": 7095, "sgA": 7096, "qmj": 7097, "jmjrrk": 7098, "rAy": 7099, "sxws": 7100, "qdi": 7101, "mkt": 7102, "skt": 7103, "hmsq": 7104, "wSbwj": 7105, "xntj": 7106, "smHr": 7107, "nhAm": 7108, "nqjw": 7109, "zn": 7110, "nni": 7111, "irf": 7112, "snT": 7113, "dnn": 7114, "maxf": 7115, "mdwj": 7116, "sDry": 7117, "mmj": 7118, "nbjbj": 7119, "A": 7120, "smi": 7121, "Swwy": 7122, "qny": 7123, "dxd": 7124, "mkrjw": 7125, "mntjw": 7126, "anx": 7127, "wAsjr": 7128, "ity": 7129, "mnTA": 7130, "pjpj": 7131, "fm": 7132, "HqAw": 7133, "ntsn": 7134, "anan": 7135, "nTrj": 7136, "Awnj": 7137, "rrj": 7138, "sdni": 7139, "sjp": 7140, "ixy": 7141, "shAd": 7142, "tfAj": 7143, "xArw": 7144, "Tzy": 7145, "sAt": 7146, "trk": 7147, "zkzk": 7148, "Ajrr": 7149, "npAt": 7150, "tjSs": 7151, "sXri": 7152, "rHw": 7153, "rDt": 7154, "mxw": 7155, "fD": 7156, "wsSA": 7157, "xmr": 7158, "Hrbs": 7159, "wxAw": 7160, "AjwAj": 7161, "HAd": 7162, "txbw": 7163, "Axj": 7164, "yks": 7165, "HAt": 7166, "Hty": 7167, "ssmt": 7168, "jwn": 7169, "dAdAjw": 7170, "mnw": 7171, "aSqj": 7172, "spi": 7173, "anb": 7174, "sAsA": 7175, "rdwj": 7176, "mHnw": 7177, "nkt": 7178, "zxA": 7179, "xfj": 7180, "rau": 7181, "nbnb": 7182, "gsn": 7183, "nSp": 7184, "zAHm": 7185, "jTmw": 7186, "dhn": 7187, "mDAjw": 7188, "wtmt": 7189, "anT": 7190, "sqAs": 7191, "sDH": 7192, "mwt": 7193, "djA": 7194, "DdHw": 7195, "qAbs": 7196, "axmt": 7197, "mnSd": 7198, "Hsqq": 7199, "Szm": 7200, "aDjaDj": 7201, "sTAm": 7202, "Hfd": 7203, "jsb": 7204, "iAy": 7205, "ytpA": 7206, "Drp": 7207, "jwpAt": 7208, "hbn": 7209, "dfn": 7210, "Hbsy": 7211, "zqAi": 7212, "smj": 7213, "Hjjj": 7214, "hdm": 7215, "sjar": 7216, "sqdd": 7217, "jsm": 7218, "Szp": 7219, "xwx": 7220, "sXt": 7221, "wrrw": 7222, "wbA": 7223, "sAj": 7224, "nws": 7225, "zAtA": 7226, "fAg": 7227, "xnjt": 7228, "xnfw": 7229, "isw": 7230, "kmw": 7231, "apnn": 7232, "aaj": 7233, "ksw": 7234, "manx": 7235, "jHA": 7236, "aba": 7237, "rnp": 7238, "swhA": 7239, "sHwi": 7240, "maqA": 7241, "Thn": 7242, "Dbw": 7243, "TAry": 7244, "qb": 7245, "DD": 7246, "ba": 7247, "tAtmw": 7248, "smsw": 7249, "jAXb": 7250, "rqy": 7251, "bxn": 7252, "mnjn": 7253, "Sq": 7254, "jHw": 7255, "Hqn": 7256, "mzwr": 7257, "tpr": 7258, "jksj": 7259, "Hnwy": 7260, "jSf": 7261, "fA": 7262, "ins": 7263, "aana": 7264, "jpj": 7265, "mnzA": 7266, "bast": 7267, "qdfy": 7268, "swbA": 7269, "zaH": 7270, "xmai": 7271, "Hjfg": 7272, "rrk": 7273, "rrm": 7274, "imA": 7275, "awn": 7276, "AbD": 7277, "sAxt": 7278, "gsr": 7279, "tmS": 7280, "nHy": 7281, "SnD": 7282, "jbAn": 7283, "qbaA": 7284, "wgAg": 7285, "jsd": 7286, "aab": 7287, "kki": 7288, "jttj": 7289, "nts": 7290, "ynr": 7291, "ray": 7292, "bwSA": 7293, "anbr": 7294, "Hnq": 7295, "jDi": 7296, "jkAw": 7297, "hAkjr": 7298, "tmy": 7299, "ksks": 7300, "wbtj": 7301, "pAw": 7302, "bjAk": 7303, "HmATT": 7304, "HrpgkSrSb": 7305, "HsAw": 7306, "twti": 7307, "tka": 7308, "tnA": 7309, "Htw": 7310, "AwAw": 7311, "jr": 7312, "snnT": 7313, "AH": 7314, "hAnhA": 7315, "sAyr": 7316, "bHn": 7317, "nsqbb": 7318, "hdp": 7319, "DpindA": 7320, "Hma": 7321, "nki": 7322, "nnSm": 7323, "Damw": 7324, "grp": 7325, "kAwtj": 7326, "mxsf": 7327, "mhn": 7328, "nSi": 7329, "bHt": 7330, "mb": 7331, "piTA": 7332, "nAw": 7333, "smnj": 7334, "Xpd": 7335, "xpi": 7336, "ankk": 7337, "aHwtj": 7338, "SAwAb": 7339, "baj": 7340, "tty": 7341, "sAjr": 7342, "inh": 7343, "SAmst": 7344, "mri": 7345, "mfk": 7346, "Abb": 7347, "pHts": 7348, "Hptj": 7349, "sXw": 7350, "Xkr": 7351, "xAb": 7352, "jspw": 7353, "wDi": 7354, "jni": 7355, "jwh": 7356, "ktw": 7357, "swbb": 7358, "Hbrt": 7359, "jHty": 7360, "Smyk": 7361, "sDdi": 7362, "awty": 7363, "TT": 7364, "gAu": 7365, "wtxw": 7366, "srf": 7367, "wn": 7368, "xAs": 7369, "SmA": 7370, "Ddf": 7371, "nS": 7372, "Hnks": 7373, "Hkn": 7374, "Dt": 7375, "ikrt": 7376, "nDmw": 7377, "jsHmw": 7378, "mntwk": 7379, "hj": 7380, "mnqb": 7381, "nTz": 7382, "TmH": 7383, "HT": 7384, "mDr": 7385, "nai": 7386, "aaAm": 7387, "ww": 7388, "nvr": 7389, "pwgA": 7390, "iSrw": 7391, "qm": 7392, "dHaa": 7393, "mrw": 7394, "jAxi": 7395, "sxwn": 7396, "nsjsj": 7397, "hms": 7398, "HmAmw": 7399, "tjnH": 7400, "rwrw": 7401, "rpy": 7402, "SAmw": 7403, "nmy": 7404, "wiAs": 7405, "njm": 7406, "pzs": 7407, "prtm": 7408, "Azx": 7409, "kj": 7410, "tSw": 7411, "wsh": 7412, "zS": 7413, "krjw": 7414, "sSjsA": 7415, "gAbi": 7416, "sDdw": 7417, "zbj": 7418, "axi": 7419, "jwAw": 7420, "swiA": 7421, "dwAw": 7422, "txbs": 7423, "sasa": 7424, "jmw": 7425, "mxnt": 7426, "sart": 7427, "sxar": 7428, "xtmw": 7429, "XAw": 7430, "bjr": 7431, "wsTn": 7432, "hAdmw": 7433, "snf": 7434, "rnn": 7435, "smAjr": 7436, "jji": 7437, "Smj": 7438, "jmzw": 7439, "tkr": 7440, "nna": 7441, "mH": 7442, "jqA": 7443, "HAk": 7444, "wAy": 7445, "msD": 7446, "sms": 7447, "sDt": 7448, "wskw": 7449, "qnj": 7450, "Tst": 7451, "ihi": 7452, "imAw": 7453, "mjnw": 7454, "Dm": 7455, "Snb": 7456, "nknk": 7457, "dmy": 7458, "psf": 7459, "SrStkt": 7460, "srDy": 7461, "bwbw": 7462, "znT": 7463, "rnpj": 7464, "wAyrn": 7465, "sbq": 7466, "rmAmj": 7467, "Atpw": 7468, "j": 7469, "sxwA": 7470, "bwp": 7471, "SfSf": 7472, "thn": 7473, "fdqA": 7474, "itnw": 7475, "hnw": 7476, "qrqr": 7477, "nfAj": 7478, "mrH": 7479, "Imn": 7480, "istn": 7481, "jsbj": 7482, "Hrtj": 7483, "ppy": 7484, "jAHs": 7485, "bpA": 7486, "iq": 7487, "hmhm": 7488, "qrrj": 7489, "nwt": 7490, "aXy": 7491, "nry": 7492, "pDpD": 7493, "jzf": 7494, "jwf": 7495, "mk": 7496, "xfxftj": 7497, "bAdnw": 7498, "SpS": 7499, "jntj": 7500, "Snaa": 7501, "rnpwt": 7502, "Hmj": 7503, "nhy": 7504, "sjAw": 7505, "htj": 7506, "ntnw": 7507, "sjbA": 7508, "SwA": 7509, "HkA": 7510, "DATxry": 7511, "sAw": 7512, "irnn": 7513, "qsty": 7514, "kAmw": 7515, "sxs": 7516, "wHwH": 7517, "krkmS": 7518, "dt": 7519, "bwpw": 7520, "gnnw": 7521, "inhA": 7522, "sxwi": 7523, "dAy": 7524, "Smg": 7525, "mAkj": 7526, "mny": 7527, "kTm": 7528, "kjA": 7529, "hAwv": 7530, "gbtjw": 7531, "sbH": 7532, "gAHj": 7533, "tbi": 7534, "nww": 7535, "HtAw": 7536, "fnw": 7537, "batn": 7538, "jAbi": 7539, "nag": 7540, "Ahd": 7541, "sxw": 7542, "jwdj": 7543, "qtAj": 7544, "srmi": 7545, "hjp": 7546, "jbsqb": 7547, "tmm": 7548, "iri": 7549, "jsds": 7550, "kmwj": 7551, "nbb": 7552, "xpwS": 7553, "gsti": 7554, "DAwt": 7555, "rDw": 7556, "xfnn": 7557, "wg": 7558, "stt": 7559, "iway": 7560, "dmD": 7561, "HjH": 7562, "xAsty": 7563, "mAX": 7564, "smA": 7565, "Abwy": 7566, "Slm": 7567, "snsi": 7568, "siA": 7569, "zmT": 7570, "TAmwt": 7571, "dmi": 7572, "Hz": 7573, "xpA": 7574, "wbw": 7575, "sjf": 7576, "sxwz": 7577, "aafi": 7578, "mjkA": 7579, "ktj": 7580, "smz": 7581, "sfkk": 7582, "TAtj": 7583, "nDri": 7584, "Hzzy": 7585, "stnb": 7586, "psmTk": 7587, "jfn": 7588, "dHAj": 7589, "pttj": 7590, "mntT": 7591, "bHdty": 7592, "nxjx": 7593, "pAxAty": 7594, "skmkm": 7595, "HH": 7596, "mwty": 7597, "jsr": 7598, "jmbj": 7599, "jaAw": 7600, "wgg": 7601, "sqAy": 7602, "bwA": 7603, "tis": 7604, "smDd": 7605, "sntr": 7606, "faA": 7607, "XnX": 7608, "jAdt": 7609, "Dy": 7610, "yHA": 7611, "mks": 7612, "jnpw": 7613, "nmtj": 7614, "mnhs": 7615, "mAtj": 7616, "ssbi": 7617, "gnnj": 7618, "sxnt": 7619, "sgi": 7620, "AkAj": 7621, "DrDrj": 7622, "bST": 7623, "Drjw": 7624, "ibA": 7625, "nfrj": 7626, "sAA": 7627, "sr": 7628, "skAp": 7629, "jsTwy": 7630, "kpnj": 7631, "SAjs": 7632, "sqnd": 7633, "imy": 7634, "SnTy": 7635, "jmt": 7636, "iwn": 7637, "xsft": 7638, "zAu": 7639, "tjwnj": 7640, "dbxw": 7641, "dwAy": 7642, "zSzSt": 7643, "Hmk": 7644, "zfn": 7645, "ajw": 7646, "qwj": 7647, "sqdy": 7648, "HAg": 7649, "aDi": 7650, "xppw": 7651, "sssw": 7652, "hAw": 7653, "ntfjw": 7654, "aH": 7655, "wnmj": 7656, "xndS": 7657, "mdwy": 7658, "xrwyw": 7659, "aX": 7660, "mtrw": 7661, "dmAm": 7662, "mm": 7663, "TjTj": 7664, "bhnj": 7665, "rkH": 7666, "nwA": 7667, "nxAxA": 7668, "brt": 7669, "zjn": 7670, "mntiw": 7671, "snTri": 7672, "Sgr": 7673, "tili": 7674, "Hnytj": 7675, "pD": 7676, "sbky": 7677, "Srka": 7678, "Hnwn": 7679, "DHwtj": 7680, "nsr": 7681, "xi": 7682, "nDsj": 7683, "msr": 7684, "nax": 7685, "Snjs": 7686, "DddnnA": 7687, "bHdw": 7688, "msdr": 7689, "sTsw": 7690, "snhzy": 7691, "swjA": 7692, "fdq": 7693, "swnswn": 7694, "nH": 7695, "kwms": 7696, "gsm": 7697, "SAtytywA": 7698, "plw": 7699, "Dfj": 7700, "sSAj": 7701, "imH": 7702, "HAr": 7703, "mtDi": 7704, "jAwtjw": 7705, "wsA": 7706, "snhsi": 7707, "nbwi": 7708, "Smsw": 7709, "Ayt": 7710, "xrsH": 7711, "rwhA": 7712, "shAw": 7713, "dgi": 7714, "iiA": 7715, "ytw": 7716, "DAr": 7717, "nDHaDHa": 7718, "jft": 7719, "ankkw": 7720, "mht": 7721, "Aht": 7722, "qaHw": 7723, "nfy": 7724, "dS": 7725, "agt": 7726, "swbn": 7727, "bAbj": 7728, "jdr": 7729, "rwhAwj": 7730, "Xk": 7731, "inr": 7732, "tjwrj": 7733, "mjm": 7734, "iwSAnti": 7735, "ssx": 7736, "arSn": 7737, "manA": 7738, "krxn": 7739, "yti": 7740, "bAbAt": 7741, "ndb": 7742, "wpy": 7743, "mjzt": 7744, "jkm": 7745, "Drj": 7746, "mhd": 7747, "wgAgg": 7748, "mSm": 7749, "Hdd": 7750, "xarj": 7751, "sxpp": 7752, "nDnD": 7753, "mAay": 7754, "ksj": 7755, "knmw": 7756, "httj": 7757, "jmi": 7758, "mDri": 7759, "bri": 7760, "Ax": 7761, "bAgA": 7762, "rA": 7763, "Srjw": 7764, "On": 7765, "smAm": 7766, "gAy": 7767, "Atp": 7768, "jxm": 7769, "Sww": 7770, "ntyw": 7771, "sSA": 7772, "nwnw": 7773, "xbx": 7774, "qA": 7775, "mxA": 7776, "ph": 7777, "kSwj": 7778, "ttr": 7779, "kkwt": 7780, "mnh": 7781, "mDd": 7782, "DHwti": 7783, "twrj": 7784, "jtjw": 7785, "sbAq": 7786, "afAy": 7787, "AxA": 7788, "Akr": 7789, "mawH": 7790, "jTj": 7791, "HfA": 7792, "irn": 7793, "nsj": 7794, "bnAt": 7795, "xmw": 7796, "drj": 7797, "qgb": 7798, "jzj": 7799, "HAwy": 7800, "sxnj": 7801, "mayrA": 7802, "nAjrf": 7803, "TAtjw": 7804, "Skra": 7805, "mSy": 7806, "qdqd": 7807, "Htr": 7808, "qn": 7809, "pSi": 7810, "nhAjs": 7811, "HAswsn": 7812, "qmd": 7813, "wAHj": 7814, "ntwtn": 7815, "xAA": 7816, "sh": 7817, "rTm": 7818, "swrj": 7819, "mXr": 7820, "nSm": 7821, "ttA": 7822, "bnnw": 7823, "tmwt": 7824, "mgw": 7825, "vw": 7826, "TmpAw": 7827, "rhb": 7828, "aqw": 7829, "qdby": 7830, "kmm": 7831, "sswrj": 7832, "wrd": 7833, "sjAt": 7834, "gbt": 7835, "atx": 7836, "nnj": 7837, "zw": 7838, "Tbhn": 7839, "rSrS": 7840, "jTt": 7841, "fdw": 7842, "nfr": 7843, "ktx": 7844, "aAb": 7845, "mtrwy": 7846, "znn": 7847, "ann": 7848, "DAjw": 7849, "mahAw": 7850, "Abt": 7851, "mwnf": 7852, "dfA": 7853, "sqHA": 7854, "rjwm": 7855, "ptj": 7856, "nhmhm": 7857, "hAbhAb": 7858, "pqn": 7859, "msS": 7860, "syH": 7861, "jxy": 7862, "nkj": 7863, "anDty": 7864, "ssfj": 7865, "xrww": 7866, "nHp": 7867, "STn": 7868, "jsp": 7869, "DAmAa": 7870, "ASrt": 7871, "mntj": 7872, "jAsy": 7873, "hAdy": 7874, "zmr": 7875, "strj": 7876, "msnw": 7877, "dDw": 7878, "pgz": 7879, "Amw": 7880, "jrx": 7881, "mns": 7882, "msxAA": 7883, "qDm": 7884, "bai": 7885, "Hzk": 7886, "bs": 7887, "qnnj": 7888, "mAtiwAhAr": 7889, "trwy": 7890, "njsj": 7891, "tpyw": 7892, "aqA": 7893, "inA": 7894, "maw": 7895, "bAbAy": 7896, "jkn": 7897, "annt": 7898, "mnHH": 7899, "ywn": 7900, "mhAd": 7901, "hrj": 7902, "wtwA": 7903, "sgdy": 7904, "sArt": 7905, "mSkn": 7906, "gnf": 7907, "sxpn": 7908, "mHyt": 7909, "mnTAm": 7910, "pypnw": 7911, "iTyn": 7912, "sar": 7913, "HkAw": 7914, "kkt": 7915, "xnmw": 7916, "tnj": 7917, "yrA": 7918, "Tbn": 7919, "makHA": 7920, "sxpj": 7921, "wrdw": 7922, "Hmu": 7923, "rq": 7924, "jhpy": 7925, "imAt": 7926, "Xn": 7927, "wtA": 7928, "HHw": 7929, "itrsg": 7930, "pHrr": 7931, "qs": 7932, "dyhAqAtw": 7933, "HAdj": 7934, "qDy": 7935, "tpty": 7936, "sxra": 7937, "mAwr": 7938, "gH": 7939, "TAnj": 7940, "hAwt": 7941, "jks": 7942, "AiwAi": 7943, "wgAs": 7944, "nh": 7945, "sdn": 7946, "Hzj": 7947, "jnhrm": 7948, "SAbAkA": 7949, "HDt": 7950, "kff": 7951, "kArty": 7952, "mAww": 7953, "Xpw": 7954, "jArw": 7955, "sxt": 7956, "gm": 7957, "grgy": 7958, "Ssy": 7959, "rbrt": 7960, "dHj": 7961, "Trr": 7962, "aqAy": 7963, "qdw": 7964, "Hsi": 7965, "xru": 7966, "hAhAy": 7967, "tndu": 7968, "nxnx": 7969, "tjHwA": 7970, "Ag": 7971, "snsw": 7972, "mrri": 7973, "pyrq": 7974, "qsn": 7975, "wni": 7976, "bw": 7977, "nAj": 7978, "arqy": 7979, "Tfj": 7980, "jbj": 7981, "dndn": 7982, "Drwt": 7983, "biwk": 7984, "yda": 7985, "zxm": 7986, "bAki": 7987, "agw": 7988, "HnTj": 7989, "jrjt": 7990, "Sst": 7991, "Xpa": 7992, "nmti": 7993, "abSw": 7994, "jsDn": 7995, "XA": 7996, "pdH": 7997, "Xrtyw": 7998, "qAb": 7999, "jxj": 8000, "AwAr": 8001, "nfA": 8002, "jnsj": 8003, "wADw": 8004, "xD": 8005, "Drf": 8006, "wsH": 8007, "dHty": 8008, "twh": 8009, "msnb": 8010, "wnSw": 8011, "bngA": 8012, "bHrnkr": 8013, "HDnDn": 8014, "sfn": 8015, "gAbsbs": 8016, "mryty": 8017, "qnnA": 8018, "Xaq": 8019, "abxn": 8020, "Hrp": 8021, "sw": 8022, "aA": 8023, "pfAw": 8024, "jxx": 8025, "mSdd": 8026, "tsm": 8027, "zAw": 8028, "nDmm": 8029, "HAywj": 8030, "Sbnn": 8031, "xma": 8032, "pnw": 8033, "wnT": 8034, "zATw": 8035, "kAp": 8036, "tbh": 8037, "ixm": 8038, "zHy": 8039, "jrir": 8040, "nHn": 8041, "ibt": 8042, "hAmw": 8043, "rm": 8044, "sT": 8045, "jn": 8046, "znj": 8047, "sHtpy": 8048, "Hpd": 8049, "bnr": 8050, "xbss": 8051, "krp": 8052, "ank": 8053, "tfnt": 8054, "trw": 8055, "zwnw": 8056, "sxAw": 8057, "and": 8058, "mssj": 8059, "nbt": 8060, "btin": 8061, "cke": 8062, "qAriw": 8063, "jHtj": 8064, "saD": 8065, "twtn": 8066, "ybHy": 8067, "Sd": 8068, "tpn": 8069, "sArwiA": 8070, "nhq": 8071, "rst": 8072, "mjtrw": 8073, "kaka": 8074, "nbdjw": 8075, "sAh": 8076, "kn": 8077, "jwTw": 8078, "mXnty": 8079, "npy": 8080, "spdw": 8081, "mstr": 8082, "zwT": 8083, "kyrSt": 8084, "HAa": 8085, "Hwi": 8086, "srpt": 8087, "srjw": 8088, "nAwt": 8089, "hrw": 8090, "jHy": 8091, "jns": 8092, "imw": 8093, "minb": 8094, "jk": 8095, "srp": 8096, "dbnbn": 8097, "qmAmw": 8098, "nkAkA": 8099, "sTH": 8100, "wAxx": 8101, "rp": 8102, "Ark": 8103, "nyw": 8104, "gATA": 8105, "hnn": 8106, "jwnt": 8107, "sxni": 8108, "pHww": 8109, "wxdw": 8110, "mDdw": 8111, "intbs": 8112, "sxwnw": 8113, "afnw": 8114, "Hwywy": 8115, "xtjw": 8116, "iAty": 8117, "wDA": 8118, "xt": 8119, "xrnt": 8120, "jtf": 8121, "DsDs": 8122, "wrSS": 8123, "sbw": 8124, "nDr": 8125, "dpj": 8126, "sxbxb": 8127, "Stbw": 8128, "At": 8129, "isk": 8130, "XAn": 8131, "anw": 8132, "bAky": 8133, "sqbH": 8134, "pds": 8135, "rhni": 8136, "Sdr": 8137, "Hdi": 8138, "pqj": 8139, "Tmt": 8140, "mxrw": 8141, "brkt": 8142, "mzw": 8143, "fs": 8144, "jzz": 8145, "ngb": 8146, "wiA": 8147, "nn": 8148, "bbn": 8149, "mstyw": 8150, "jqd": 8151, "wdf": 8152, "bjAbA": 8153, "jrwtw": 8154, "mndjdj": 8155, "nDty": 8156, "swrtk": 8157, "sxnw": 8158, "HbA": 8159, "xAy": 8160, "tnm": 8161, "jhbw": 8162, "srx": 8163, "jwa": 8164, "qdjw": 8165, "Snwnw": 8166, "pnay": 8167, "wADyt": 8168, "bng": 8169, "Hrty": 8170, "wSS": 8171, "tjam": 8172, "mstp": 8173, "nnS": 8174, "sHqr": 8175, "qdnA": 8176, "sHD": 8177, "aawj": 8178, "kArj": 8179, "wsx": 8180, "jtj": 8181, "wxr": 8182, "hwTn": 8183, "zhAi": 8184, "snmH": 8185, "sAbj": 8186, "qst": 8187, "tmH": 8188, "rS": 8189, "dDA": 8190, "dgAsA": 8191, "mnH": 8192, "msk": 8193, "aDdjw": 8194, "jSsj": 8195, "sry": 8196, "sxdxd": 8197, "tjtwy": 8198, "nDsw": 8199, "wsj": 8200, "bqbq": 8201, "jwH": 8202, "HntA": 8203, "imr": 8204, "xaa": 8205, "npt": 8206, "nDdnDd": 8207, "mynyxs": 8208, "fAA": 8209, "wAj": 8210, "rrmw": 8211, "Ay": 8212, "my": 8213, "tjj": 8214, "amm": 8215, "aSgAjw": 8216, "stnwy": 8217, "dryS": 8218, "jqrs": 8219, "Hpt": 8220, "bfn": 8221, "xbs": 8222, "txa": 8223, "xft": 8224, "Xdb": 8225, "sbjw": 8226, "jshAb": 8227, "DAyw": 8228, "msn": 8229, "wDbw": 8230, "khw": 8231, "ggA": 8232, "bzA": 8233, "jqh": 8234, "nhrjn": 8235, "snni": 8236, "snjnj": 8237, "diw": 8238, "bAX": 8239, "mnDt": 8240, "Hjkn": 8241, "mat": 8242, "SfS": 8243, "swAw": 8244, "ynb": 8245, "znb": 8246, "ismri": 8247, "jmAxw": 8248, "sbbA": 8249, "wT": 8250, "Hrt": 8251, "Tmss": 8252, "HAy": 8253, "Hpw": 8254, "Hrrj": 8255, "ssnb": 8256, "AtwAtw": 8257, "dqq": 8258, "sxAxj": 8259, "nfx": 8260, "HbH": 8261, "jhby": 8262, "ssmw": 8263, "aAj": 8264, "dbn": 8265, "psDi": 8266, "dqa": 8267, "mnTw": 8268, "inp": 8269, "ddy": 8270, "As": 8271, "ytt": 8272, "nmtt": 8273, "Ddk": 8274, "kD": 8275, "Ads": 8276, "gmHsw": 8277, "mimi": 8278, "jyjj": 8279, "xbb": 8280, "Hbnn": 8281, "nfa": 8282, "iwnn": 8283, "XAA": 8284, "mDA": 8285, "Axx": 8286, "nrr": 8287, "mtrty": 8288, "grgj": 8289, "zrj": 8290, "jDd": 8291, "sxf": 8292, "bmbw": 8293, "Tmrw": 8294, "sAjw": 8295, "sxm": 8296, "snwxt": 8297, "nwn": 8298, "jnbj": 8299, "am": 8300, "smAw": 8301, "nhdh": 8302, "rsfj": 8303, "nDHy": 8304, "narn": 8305, "smgw": 8306, "sxtxt": 8307, "wDApw": 8308, "DAn": 8309, "Dhn": 8310, "gstj": 8311, "saHw": 8312, "Saf": 8313, "mTAm": 8314, "Twrj": 8315, "gs": 8316, "ti": 8317, "jrf": 8318, "jAyd": 8319, "aj": 8320, "qAbH": 8321, "mTT": 8322, "ntTn": 8323, "Xaqw": 8324, "nxt": 8325, "snxx": 8326, "makj": 8327, "ntAsn": 8328, "nhAj": 8329, "SmaA": 8330, "yHm": 8331, "abaw": 8332, "Daa": 8333, "jAS": 8334, "Afr": 8335, "sDA": 8336, "mhwt": 8337, "nhi": 8338, "stb": 8339, "maAa": 8340, "rmjw": 8341, "spna": 8342, "aAgnj": 8343, "iaw": 8344, "ptt": 8345, "gwsA": 8346, "kAkAj": 8347, "sjwj": 8348, "knpwy": 8349, "nxbt": 8350, "bnd": 8351, "wgAj": 8352, "Asr": 8353, "bSt": 8354, "Dh": 8355, "xAmm": 8356, "ifd": 8357, "fnd": 8358, "stnm": 8359, "bit": 8360, "iy": 8361, "nXn": 8362, "zby": 8363, "zam": 8364, "hkr": 8365, "kw": 8366, "mrHw": 8367, "min": 8368, "Hg": 8369, "snnwt": 8370, "zSSn": 8371, "Atjwt": 8372, "swHw": 8373, "sdwn": 8374, "nfrww": 8375, "wabw": 8376, "aXnw": 8377, "msDi": 8378, "Axb": 8379, "pTH": 8380, "Aafj": 8381, "dgAs": 8382, "minA": 8383, "jwtjw": 8384, "nqm": 8385, "AXa": 8386, "xAaa": 8387, "pninrba": 8388, "xmny": 8389, "Spt": 8390, "ngmgm": 8391, "snrjw": 8392, "Dbt": 8393, "sSm": 8394, "pwrm": 8395, "gAA": 8396, "Hnky": 8397, "sDrj": 8398, "Xrdw": 8399, "mHy": 8400, "Hzmn": 8401, "tAyty": 8402, "Szpp": 8403, "wgAp": 8404, "aAd": 8405, "nftft": 8406, "Dfr": 8407, "gt": 8408, "hhy": 8409, "sdmj": 8410, "snj": 8411, "mrqHt": 8412, "awnH": 8413, "rAsx": 8414, "tff": 8415, "Dtf": 8416, "sndu": 8417, "HmHm": 8418, "gArwtj": 8419, "pnd": 8420, "sgrg": 8421, "jgAp": 8422, "Hpp": 8423, "tjmHj": 8424, "qrst": 8425, "tnhA": 8426, "jHt": 8427, "tSf": 8428, "mjn": 8429, "Swyt": 8430, "mqj": 8431, "Sdtt": 8432, "snxn": 8433, "snxbxb": 8434, "jTAj": 8435, "qq": 8436, "jAkb": 8437}